{
  "</s>": 0,
  "<unk>": 1,
  "\u2581a": 2,
  ",": 3,
  ".": 4,
  "\u2581ti": 5,
  "\u2581iti": 6,
  "\u2581\"": 7,
  "\u2581the": 8,
  "\u2581-": 9,
  "\u2581of": 10,
  "\u2581nga": 11,
  "\u2581to": 12,
  "\u2581and": 13,
  "\u2581ken": 14,
  "\u2581dagiti": 15,
  "\u2581in": 16,
  "\u2581ni": 17,
  "?": 18,
  "s": 19,
  "\u2581that": 20,
  "\u2581kadagiti": 21,
  ":": 22,
  "\u2581ket": 23,
  "\u2581is": 24,
  "'": 25,
  "\u2581for": 26,
  "da": 27,
  "\u2581no": 28,
  "na": 29,
  "\u2581maysa": 30,
  "\u2581": 31,
  "\u2581I": 32,
  "\u2581was": 33,
  "\u2581with": 34,
  "\u2581'": 35,
  "\u2581be": 36,
  "\u2581The": 37,
  "\u2581on": 38,
  "\u2581as": 39,
  "\u2581Jehova": 40,
  "\u2581you": 41,
  "\u2581Jehovah": 42,
  "\u2581are": 43,
  "\u2581Dios": 44,
  "\u2581his": 45,
  "\u2581not": 46,
  "\u2581God": 47,
  "\u2581dayta": 48,
  "\u2581Jesus": 49,
  "\u2581it": 50,
  "\u2581have": 51,
  "\u2581we": 52,
  "\u2581Ti": 53,
  "\u2581[": 54,
  "\u2581by": 55,
  "\u2581pay": 56,
  "!": 57,
  "\u2581he": 58,
  "\u2581will": 59,
  "\u2581idi": 60,
  "\u2581from": 61,
  "\u2581kas": 62,
  "\u2581their": 63,
  "\u2581(": 64,
  "\u2581an": 65,
  "\u2581wenno": 66,
  "\u2581or": 67,
  "\u2581met": 68,
  "t": 69,
  ";": 70,
  "\u2581they": 71,
  "\u2581adda": 72,
  "\u2581this": 73,
  "\u2581saan": 74,
  "\u2581can": 75,
  "\u2581Bible": 76,
  "tayo": 77,
  "\u2581who": 78,
  "\u2581daytoy": 79,
  "\u2581Biblia": 80,
  "\u2581di": 81,
  "ing": 82,
  "\u2581idiay": 83,
  "\u2581tapno": 84,
  "\u2581were": 85,
  "\u2581laeng": 86,
  "\u2581our": 87,
  "\u2581at": 88,
  "\u2581ta": 89,
  "\u2581one": 90,
  "]": 91,
  ")": 92,
  "\u2581In": 93,
  "\u2581had": 94,
  "\u2581kasta": 95,
  "\u2581all": 96,
  "\u2581us": 97,
  "\u2581adu": 98,
  "\u2581your": 99,
  "\u2581dadduma": 100,
  "\u2581No": 101,
  "\u2581what": 102,
  "\u2581do": 103,
  "\u2581amin": 104,
  "\u2581tattao": 105,
  "n": 106,
  "\u2581has": 107,
  "\u2581A": 108,
  "\u2581people": 109,
  "\u2581them": 110,
  "\u2581my": 111,
  "\u2581Iti": 112,
  "\u2581What": 113,
  "\u2581Ngem": 114,
  "yo": 115,
  "\u2581ngem": 116,
  "\u25811": 117,
  "\u2581Dagiti": 118,
  "\u2581isu": 119,
  "\u2581about": 120,
  "ak": 121,
  "a": 122,
  "\u2581would": 123,
  "en": 124,
  "an": 125,
  "\u2581when": 126,
  "\u2581maipapan": 127,
  "\u2581time": 128,
  "\u2581may": 129,
  "\u2581him": 130,
  "\u2581but": 131,
  "\u2581gapu": 132,
  "\u2581mabalin": 133,
  "\u2581more": 134,
  "\u2581babaen": 135,
  "\u2581tao": 136,
  "\u2581life": 137,
  "\u2581so": 138,
  "\u2581me": 139,
  "\u2581Ania": 140,
  "\u2581some": 141,
  "\u2581did": 142,
  "\u2581unay": 143,
  "\u2581/": 144,
  "\u2581been": 145,
  "\u2581Idi": 146,
  "\u2581How": 147,
  "\u2581It": 148,
  "\u2581kenkuana": 149,
  "\u2581also": 150,
  "mi": 151,
  "\u2581awan": 152,
  "\u2581out": 153,
  "\u2581many": 154,
  "m": 155,
  "\u2581those": 156,
  "\u2581manipud": 157,
  "ko": 158,
  "\u2581such": 159,
  "\u2581Kristiano": 160,
  "\u2581her": 161,
  "k": 162,
  "\u2581up": 163,
  "\u2581Saksi": 164,
  "\u2581He": 165,
  "\u2581man": 166,
  "ed": 167,
  "\u2581daga": 168,
  "\u2581panid": 169,
  "\u2581there": 170,
  "\u2581than": 171,
  "\u2581kadi": 172,
  "\u2581Witnesses": 173,
  "\u2581other": 174,
  "b": 175,
  "\u2581page": 176,
  "\u2581Nupay": 177,
  "ka": 178,
  "\u2581koma": 179,
  "\u2581world": 180,
  "\u2581tawen": 181,
  "\u2581ma": 182,
  "\u2581lubong": 183,
  "\u2581But": 184,
  "\u2581how": 185,
  "\u2581into": 186,
  "\u2581years": 187,
  "\u2581Kas": 188,
  "\u2581which": 189,
  "\u2581if": 190,
  "\u2581kadakuada": 191,
  "\u2581even": 192,
  "\u2581these": 193,
  "\u2581said": 194,
  "\u2581help": 195,
  "\u2581good": 196,
  "\u2581na": 197,
  "\u2581way": 198,
  "to": 199,
  "\"": 200,
  "\u2581could": 201,
  "\u2581work": 202,
  "\u2581We": 203,
  "\u2581This": 204,
  "\u2581uray": 205,
  "\u2581does": 206,
  "\u2581aldaw": 207,
  "\u2581should": 208,
  "\u2581dagitoy": 209,
  "\u2581tiempo": 210,
  "\u2581biag": 211,
  "\u2581things": 212,
  "\u2581C": 213,
  "\u2581day": 214,
  "\u2581la": 215,
  "\u2581its": 216,
  "\u2581When": 217,
  "\u2581They": 218,
  "\u2581says": 219,
  "\u2581ania": 220,
  "\u2581children": 221,
  "mo": 222,
  "\u2581first": 223,
  "\u2581she": 224,
  "\u2581only": 225,
  "\u2581Saan": 226,
  "\u2581Paul": 227,
  "\u2581ad": 228,
  "\u2581make": 229,
  "ly": 230,
  "\u2581mang": 231,
  "...": 232,
  "\u2581Kasano": 233,
  "\u2581Kingdom": 234,
  "\u2581love": 235,
  "\u2581Christian": 236,
  "\u25812": 237,
  "\u2581addaan": 238,
  "\u2581For": 239,
  "\u2581over": 240,
  "d": 241,
  "\u2581earth": 242,
  "\u2581kadatayo": 243,
  "\u2581masapul": 244,
  "\u2581Pablo": 245,
  "\u2581because": 246,
  "\u2581naimbag": 247,
  "\u2581banag": 248,
  "\u2581made": 249,
  "\u2581As": 250,
  "\u2581Apay": 251,
  "\u2581kasano": 252,
  "\u2581Why": 253,
  "\u2581being": 254,
  "\u2581agingga": 255,
  "\u2581family": 256,
  "\u2581like": 257,
  "\u2581others": 258,
  "\u2581kuna": 259,
  "I": 260,
  "\u2581If": 261,
  "ti": 262,
  "\u2581pudno": 263,
  "\u2581Picture": 264,
  "\u2581Christ": 265,
  "\u2581bambanag": 266,
  "\u2581ag": 267,
  "\u2581Kristo": 268,
  "\u2581*": 269,
  "\u2581S": 270,
  "\u2581then": 271,
  "\u2581see": 272,
  "\u2581sabali": 273,
  "\u2581David": 274,
  "\u2581kasasaad": 275,
  "\u2581kaniak": 276,
  "\u2581just": 277,
  "\u2581sumagmamano": 278,
  "\u2581You": 279,
  "\u2581Israel": 280,
  "\u2581Ladawan": 281,
  "\u2581Christians": 282,
  "the": 283,
  "\u2581need": 284,
  "\u2581dua": 285,
  "\u2581ita": 286,
  "y": 287,
  "\u2581paset": 288,
  "\u2581well": 289,
  "\u2581bayat": 290,
  "\u2581ida": 291,
  "\u2581must": 292,
  "\u25813:": 293,
  "\u2581example": 294,
  "\u2581now": 295,
  "\u2581two": 296,
  "\u2581pamay": 297,
  "\u2581Adda": 298,
  "\u258115": 299,
  "S": 300,
  "\u2581New": 301,
  "\u25815": 302,
  "\u2581And": 303,
  "\u2581know": 304,
  "\u2581new": 305,
  "kami": 306,
  "\u2581after": 307,
  "\u2581para": 308,
  "\u2581take": 309,
  "\u2581kongregasion": 310,
  "\u2581lugar": 311,
  "\u2581most": 312,
  "\u2581faith": 313,
  "\u2581spirit": 314,
  "\u25812:": 315,
  "\u2581before": 316,
  "\u2581aniaman": 317,
  "\u2581much": 318,
  "\u2581any": 319,
  "\u2581libro": 320,
  "kayo": 321,
  "\u2581naespirituan": 322,
  "\u2581dagidiay": 323,
  "\u2581come": 324,
  "\u2581ay": 325,
  "\u2581very": 326,
  "\u2581own": 327,
  "\u2581year": 328,
  "\u2581Mabalin": 329,
  "\u2581panag": 330,
  "\u2581tunggal": 331,
  "\u2581Gapu": 332,
  "\u2581become": 333,
  "\u2581intero": 334,
  "\u2581kinapudno": 335,
  "\u2581parents": 336,
  "\u2581through": 337,
  "\u25814:": 338,
  "\u2581Na": 339,
  "\u2581kinuna": 340,
  "E": 341,
  "\u2581agtutubo": 342,
  "\u2581panang": 343,
  "\u2581death": 344,
  "\u2581Maysa": 345,
  "\u2581baro": 346,
  "\u2581ditoy": 347,
  "\u2581true": 348,
  "\u2581another": 349,
  "er": 350,
  "\u2581kasapulan": 351,
  "\u2581umiso": 352,
  "\u2581trabaho": 353,
  "\u2581men": 354,
  "\u2581So": 355,
  "\u2581K": 356,
  "e": 357,
  "\u25811:": 358,
  "\u2581anay": 359,
  "\u2581found": 360,
  "\u2581spiritual": 361,
  "\u2581nasayaat": 362,
  "\u2581heart": 363,
  "\u2581sasao": 364,
  "\u2581words": 365,
  "\u2581congregation": 366,
  "\u2581where": 367,
  "\u2581John": 368,
  "\u2581One": 369,
  "al": 370,
  "\u2581times": 371,
  "\u2581pamilia": 372,
  "\u2581pagarigan": 373,
  "\u2581ayat": 374,
  "\u2581dakes": 375,
  "\u2581home": 376,
  "\u2581agbalin": 377,
  "\u2581kalpasan": 378,
  "\u2581dakkel": 379,
  "\u2581espiritu": 380,
  "\u2581study": 381,
  "\u2581ketdi": 382,
  "\u2581artikulo": 383,
  "P": 384,
  "\u2581pagilian": 385,
  "\u2581kadagitoy": 386,
  "\u2581ones": 387,
  "\u2581Pagarian": 388,
  "\u2581each": 389,
  "\u2581book": 390,
  "\u2581That": 391,
  "\u258120": 392,
  "\u2581use": 393,
  "\u2581dagita": 394,
  "\u2581person": 395,
  "\u25816:": 396,
  "\u2581Ni": 397,
  "\u2581give": 398,
  "\u2581name": 399,
  "\u2581T": 400,
  "\u2581used": 401,
  "\u2581young": 402,
  "\u2581Isu": 403,
  "\u2581To": 404,
  "\u2581kasla": 405,
  "\u2581aramid": 406,
  "\u2581part": 407,
  "\u2581mismo": 408,
  "\u25818": 409,
  "\u2581da": 410,
  "\u2581Gapuna": 411,
  "\u2581human": 412,
  "\u2581long": 413,
  "\u2581say": 414,
  "\u2581naan": 415,
  "\u2581Some": 416,
  "\u25811,": 417,
  "\u2581today": 418,
  "\u2581find": 419,
  "\u2581might": 420,
  "\u2581sabsabali": 421,
  "\u2581feel": 422,
  "\u2581However": 423,
  "\u2581great": 424,
  "\u2581B": 425,
  "\u2581umuna": 426,
  "\u258112": 427,
  "\u2581kita": 428,
  "\u2581often": 429,
  "\u2581babai": 430,
  "\u2581agarup": 431,
  "\u2581Ma": 432,
  "\u2581ar": 433,
  "\u2581Kadagiti": 434,
  "\u2581apostol": 435,
  "\u2581get": 436,
  "\u2581pannaka": 437,
  "\u2581siglo": 438,
  "Ti": 439,
  "\u2581lalaki": 440,
  "\u2581personal": 441,
  "\u2581kangrunaan": 442,
  "\u2581ngarud": 443,
  "\u2581called": 444,
  "\u2581maipaay": 445,
  "\u2581same": 446,
  "\u2581Jerusalem": 447,
  "\u2581sadiay": 448,
  "),": 449,
  "\u2581babbai": 450,
  "\u2581pulos": 451,
  "\u2581truth": 452,
  "\u2581Kuna": 453,
  "\u2581manen": 454,
  "\u2581ubbing": 455,
  "\u2581never": 456,
  "am": 457,
  "\u2581\u25a1": 458,
  "\u2581against": 459,
  "\u2581pammati": 460,
  "\u2581every": 461,
  "\u2581too": 462,
  "\u2581back": 463,
  "\u2581masansan": 464,
  "\u2581lallaki": 465,
  "\u2581nagannak": 466,
  "\u2581Do": 467,
  "o": 468,
  "\u2581sakbay": 469,
  "\u2581down": 470,
  "\u2581kadakayo": 471,
  "\u2581Adu": 472,
  "\u2581nag": 473,
  "\u2581At": 474,
  "\u2581danum": 475,
  "\u2581though": 476,
  "\u2581put": 477,
  "\u25813": 478,
  "A": 479,
  "\u2581old": 480,
  "\u2581go": 481,
  "\u2581away": 482,
  "\u2581napateg": 483,
  "r": 484,
  "\u2581under": 485,
  "\u2581panawen": 486,
  "\u2581World": 487,
  "\u2581aramiden": 488,
  "\u2581Ket": 489,
  "\u2581place": 490,
  "\u2581pag": 491,
  "\u2581kaaduan": 492,
  "\u258110": 493,
  "\u2581kanayon": 494,
  "\u2581relihion": 495,
  "\u2581Di": 496,
  "\u2581kada": 497,
  "\u2581nasurok": 498,
  "\u2581E": 499,
  "\u2581Is": 500,
  "\u2581means": 501,
  "\u2581After": 502,
  "\u2581read": 503,
  "\u2581still": 504,
  "\u2581siudad": 505,
  "\u2581Juan": 506,
  "\u2581end": 507,
  "\u2581apay": 508,
  "\u2581three": 509,
  "\u2581article": 510,
  "\u2581came": 511,
  "\u2581agraman": 512,
  "\u2581during": 513,
  "\u2581keep": 514,
  "\u2581became": 515,
  "\u2581right": 516,
  "\u2581Footnote": 517,
  "\u2581himself": 518,
  "\u2581Word": 519,
  "\u2581bassit": 520,
  "in": 521,
  "\u2581ammo": 522,
  "\u2581There": 523,
  "\u2581why": 524,
  "\u2581wrote": 525,
  "\u2581kenka": 526,
  "\u2581sakit": 527,
  "\u2581water": 528,
  "\u258111": 529,
  "\u2581Dayta": 530,
  "\u2581century": 531,
  "\u258119": 532,
  "\u2581days": 533,
  "\u2581among": 534,
  "th": 535,
  "\u2581am": 536,
  "\u2581Line": 537,
  "\u2581brothers": 538,
  "\u2581United": 539,
  "\u2581Daytoy": 540,
  "\u2581nagan": 541,
  "\u2581Peter": 542,
  "\u2581want": 543,
  "\u2581live": 544,
  "\u2581apostle": 545,
  "\u2581learn": 546,
  "\u2581adipen": 547,
  "\u2581course": 548,
  "\u2581upon": 549,
  "\u258121": 550,
  "\u2581began": 551,
  "\u258116": 552,
  "\u2581taraon": 553,
  "The": 554,
  "\u2581later": 555,
  "\u2581P": 556,
  "\u2581nang": 557,
  "\u2581s": 558,
  "\u2581important": 559,
  "\u2581nagbalin": 560,
  "C": 561,
  "\u2581By": 562,
  "\u2581nasion": 563,
  "\u2581however": 564,
  "\u2581without": 565,
  "\u2581Kalpasan": 566,
  "tay": 567,
  "\u2581kadagidiay": 568,
  "\u2581animal": 569,
  "\u2581Africa": 570,
  "\u25816": 571,
  "\u258114": 572,
  "\u2581sao": 573,
  "\u2581nupay": 574,
  "\u2581child": 575,
  "\u2581With": 576,
  "\u2581tallo": 577,
  "\u2581show": 578,
  "\u2581naka": 579,
  "\u2581let": 580,
  "\u2581natay": 581,
  "\u2581agangay": 582,
  "\u2581Satanas": 583,
  "\u2581agnanayon": 584,
  "\u258118": 585,
  "\u2581kayat": 586,
  "es": 587,
  "\u2581while": 588,
  "\u2581On": 589,
  "\u2581told": 590,
  "\u2581Awan": 591,
  "\u2581M": 592,
  "\u2581word": 593,
  "\u2581Satan": 594,
  "\u2581rumbeng": 595,
  "\u2581nalabit": 596,
  "\u2581Kasta": 597,
  "\u2581between": 598,
  "\u2581dida": 599,
  "\u2581D": 600,
  "\u2581themselves": 601,
  "\u2581wife": 602,
  "c": 603,
  "\u2581saanda": 604,
  "\u2581ipapatay": 605,
  "\u2581annak": 606,
  "\u2581taga": 607,
  "\u2581nakaro": 608,
  "\u2581parikut": 609,
  "\u2581O": 610,
  "\u2581view": 611,
  "\u2581damag": 612,
  "\u25817": 613,
  "\u2581living": 614,
  "\u2581given": 615,
  "\u25814": 616,
  "\u2581dina": 617,
  "\u2581She": 618,
  "\u2581itan": 619,
  "\u258130": 620,
  "\u2581Judio": 621,
  "\u2581hope": 622,
  "\u2581My": 623,
  "\u2581worship": 624,
  "\u2581Pedro": 625,
  "re": 626,
  "Babaen": 627,
  "\u2581Father": 628,
  "\u25819": 629,
  "\u2581Job": 630,
  "\u2581able": 631,
  "\u2581Bayat": 632,
  "\u2581TI": 633,
  "\u2581news": 634,
  "\u2581Abraham": 635,
  "\u2581panagadal": 636,
  "\u2581fact": 637,
  "\u2581makatulong": 638,
  "\u2581number": 639,
  "\u2581napalabas": 640,
  "\u2581Then": 641,
  "\u2581Many": 642,
  "\u2581mind": 643,
  "\u2581blood": 644,
  "\u2581Wen": 645,
  "\u25818,": 646,
  "\u2581set": 647,
  "\u2581Matthew": 648,
  "\u2581both": 649,
  "\u2581kababalin": 650,
  "\u2581Sigu": 651,
  "\u2581grupo": 652,
  "\u2581food": 653,
  "\u2581few": 654,
  "\u2581little": 655,
  "\u2581Kinuna": 656,
  "\u258122": 657,
  "\u2581house": 658,
  "\u2581dara": 659,
  "\u2581power": 660,
  "\u2581Our": 661,
  "\u2581Salmo": 662,
  "\u2581mother": 663,
  "\u2581knowledge": 664,
  "....": 665,
  "\u2581Tapno": 666,
  "\u2581religious": 667,
  "\u2581From": 668,
  "\u2581talaga": 669,
  "\u2581Sao": 670,
  "\u2581matalek": 671,
  "\u2581Ag": 672,
  "\u2581Mateo": 673,
  "\u2581city": 674,
  "\u2581sa": 675,
  "\u2581Kinapudnona": 676,
  "\u2581always": 677,
  "\u25814.": 678,
  "\u2581gundaway": 679,
  "\u2581ari": 680,
  "\u2581really": 681,
  "\u2581U": 682,
  "\u2581de": 683,
  "\u2581service": 684,
  "\u2581ubing": 685,
  "\u2581material": 686,
  "\u2581kadagita": 687,
  "\u2581Kalpasanna": 688,
  "\u2581making": 689,
  "\u2581gave": 690,
  "\u2581father": 691,
  "\u258112:": 692,
  "\u2581peace": 693,
  "\u2581o": 694,
  "\u25aa": 695,
  "anna": 696,
  "\u2581result": 697,
  "\u2581ili": 698,
  "\u2581doing": 699,
  "\u2581hand": 700,
  "ma": 701,
  "\u2581Psalm": 702,
  "\u2581i": 703,
  "\u2581Jesu": 704,
  "\u2581panglakayen": 705,
  "\u2581Roma": 706,
  "\u2581Yet": 707,
  "\u2581faithful": 708,
  "\u2581pannakaammo": 709,
  "\u2581women": 710,
  "\u2581asked": 711,
  "\u2581ministry": 712,
  "\u2581full": 713,
  "\u2581school": 714,
  "\u2581problems": 715,
  "\u2581took": 716,
  "\u2581off": 717,
  "\u25812.": 718,
  "\u2581Even": 719,
  "\u2581high": 720,
  "\u2581think": 721,
  "\u2581oras": 722,
  "\u258113": 723,
  "\u2581kinunana": 724,
  "\u2581porsiento": 725,
  "\u2581States": 726,
  "\u2581serve": 727,
  "\u2581His": 728,
  "\u2581These": 729,
  "\u2581nadumaduma": 730,
  "\u258111:": 731,
  "\u2581since": 732,
  "\u2581percent": 733,
  "\u2581preaching": 734,
  "\u2581tulong": 735,
  "\u2581having": 736,
  "\u258125": 737,
  "U": 738,
  "\u2581sangatauan": 739,
  "\u2581linteg": 740,
  "\u258117": 741,
  "\u2581something": 742,
  "\u2581kakabsat": 743,
  "\u2581known": 744,
  "\u2581Scriptures": 745,
  "\u258110:": 746,
  "\u2581inton": 747,
  "ni": 748,
  "\u2581York": 749,
  "\u2581makita": 750,
  "\u2581pa": 751,
  "\u2581saludsod": 752,
  "on": 753,
  "\u2581agsipud": 754,
  "\u2581order": 755,
  "\u2581Yes": 756,
  "\u2581holy": 757,
  "\u2581King": 758,
  "\u2581system": 759,
  "\u2581uneg": 760,
  "\u2581nasken": 761,
  "\u2581Dr": 762,
  "\u2581left": 763,
  "\u2581panangmatmat": 764,
  "\u2581naisangsangayan": 765,
  "\u2581nasantuan": 766,
  "\u2581report": 767,
  "\u2581magasin": 768,
  "\u2581panggep": 769,
  "\u2581Genesis": 770,
  "\u2581humans": 771,
  "\u2581Society": 772,
  "\u2581kina": 773,
  "\u2581look": 774,
  "\u2581together": 775,
  "\u2581maka": 776,
  "\u2581balay": 777,
  "\u2581woman": 778,
  "\u2581mangaramid": 779,
  "\u2581ways": 780,
  "\u25815.": 781,
  "\u2581bulan": 782,
  "\u2581langit": 783,
  "\u2581care": 784,
  "\u2581mankind": 785,
  "\u2581reason": 786,
  "\u2581namnama": 787,
  "\u2581puso": 788,
  "\u258110.": 789,
  "dan": 790,
  "\u2581Kasuratan": 791,
  "\u2581agserbi": 792,
  "\u25815:": 793,
  "\u2581different": 794,
  "\u2581last": 795,
  "\u2581body": 796,
  "\u258114.": 797,
  "\u2581Watchtower": 798,
  "\u2581impormasion": 799,
  "\u2581kayo": 800,
  "\u2581future": 801,
  "\u2581better": 802,
  "\u2581agpaay": 803,
  "\u2581again": 804,
  "em": 805,
  "\u25817:": 806,
  "\u2581kalpasanna": 807,
  "\u2581Hall": 808,
  "\u2581consider": 809,
  "i": 810,
  "\u258113:": 811,
  "\u2581gagangay": 812,
  "\u2581daydiay": 813,
  "\u2581bagi": 814,
  "\u2581regular": 815,
  "\u2581Uray": 816,
  "\u2581Hebreo": 817,
  "\u2581lives": 818,
  "\u2581toward": 819,
  "\u2581experience": 820,
  "\u2581ever": 821,
  "\u2581whom": 822,
  "\u258122,": 823,
  "\u2581age": 824,
  "\u2581free": 825,
  "us": 826,
  "\u2581Unidos": 827,
  "\u2581gobierno": 828,
  "\u2581Estados": 829,
  "\u25818.": 830,
  "\u2581marriage": 831,
  "\u2581around": 832,
  "\u2581Solomon": 833,
  "\u2581husband": 834,
  "\u2581small": 835,
  "\u25817.": 836,
  "\u2581thought": 837,
  "\u2581far": 838,
  "\u2581son": 839,
  "\u2581Anian": 840,
  "K": 841,
  "\u2581someone": 842,
  "\u2581All": 843,
  "\u2581balakad": 844,
  "\u2581purpose": 845,
  "\u2581basol": 846,
  "\u2581agtultuloy": 847,
  "\u2581gubat": 848,
  "\u2581loving": 849,
  "\u2581sistema": 850,
  "nto": 851,
  "\u2581buyogen": 852,
  "\u2581Imbes": 853,
  "\u2581Daniel": 854,
  "danto": 855,
  "\u2581felt": 856,
  "\u2581J": 857,
  "\u258123": 858,
  "\u2581isuamin": 859,
  "\u2581disciples": 860,
  "\u2581Idiay": 861,
  "\u2581law": 862,
  "\u2581rabii": 863,
  "\u2581pagtaengan": 864,
  "\u2581prinsipio": 865,
  "\u258115,": 866,
  "l": 867,
  "\u2581needed": 868,
  "\u258113.": 869,
  "\u2581possible": 870,
  "\u2581questions": 871,
  "\u2581Your": 872,
  "\u2581learned": 873,
  "\u2581cannot": 874,
  "\u2581Isaiah": 875,
  "\u2581sin": 876,
  "ta": 877,
  "\u2581health": 878,
  "\u2581napasamak": 879,
  "\u2581Isaias": 880,
  "\u2581following": 881,
  "\u2581helped": 882,
  "\u258111.": 883,
  "\u2581best": 884,
  "\u2581damo": 885,
  "\u2581inaramid": 886,
  "\u2581done": 887,
  "\u25813.": 888,
  "anda": 889,
  "\u2581diak": 890,
  "\u2581friends": 891,
  "\u2581early": 892,
  "\u2581face": 893,
  "\u258112.": 894,
  "\u25819.": 895,
  "\u2581million": 896,
  "ar": 897,
  "\u2581believe": 898,
  "\u258116.": 899,
  "\u2581Pudno": 900,
  "\u2581awanan": 901,
  "\u2581along": 902,
  "\u2581ka": 903,
  "\u2581bring": 904,
  "no": 905,
  "\u2581hard": 906,
  "\u2581joy": 907,
  "\u2581Can": 908,
  "\u2581religion": 909,
  "\u2581nakaskasdaaw": 910,
  "\u2581war": 911,
  "\u2581until": 912,
  "\u2581Ari": 913,
  "\u2581went": 914,
  "\u2581next": 915,
  "\u25816.": 916,
  "\u2581tumulong": 917,
  "\u2581mainaig": 918,
  "\u258117.": 919,
  "\u2581Corinto": 920,
  "\u2581light": 921,
  "\u2581G": 922,
  "\u2581Tower": 923,
  "\u2581money": 924,
  "\u2581kadakami": 925,
  "\u2581cause": 926,
  "ag": 927,
  "\u2581N": 928,
  "\u2581servants": 929,
  "\u2581eyes": 930,
  "\u2581mapasamak": 931,
  "\u2581fellow": 932,
  "\u2581Son": 933,
  "\u2581fear": 934,
  "\u2581language": 935,
  "\u2581land": 936,
  "\u258150": 937,
  "\u2581Watch": 938,
  "\u2581matter": 939,
  "\u2581kuarta": 940,
  "\u2581moral": 941,
  "\u2581states": 942,
  "\u2581Masapul": 943,
  "\u2581form": 944,
  "\u2581Thus": 945,
  "\u2581natural": 946,
  "\u2581four": 947,
  "p": 948,
  "\u2581Proverbio": 949,
  "\u2581Proverbs": 950,
  "\u2022": 951,
  "\u2581milion": 952,
  "\u258131": 953,
  "\u2581ancient": 954,
  "\u2581\u2022": 955,
  "\u2581immuna": 956,
  "\u2581asawa": 957,
  "\u2581meetings": 958,
  "\u2581especially": 959,
  "\u2581happy": 960,
  "\u2581Credit": 961,
  "\u2581self": 962,
  "\u2581baybay": 963,
  "\u258124": 964,
  "\u2581talna": 965,
  "\u2581makagapu": 966,
  "ri": 967,
  "\u2581present": 968,
  "\u2581aya": 969,
  "\u2581An": 970,
  "\u258115.": 971,
  "\u2581According": 972,
  "\u2581brother": 973,
  "\u2581yourself": 974,
  "redit": 975,
  "\u25813,": 976,
  "\u2581maaddaan": 977,
  "\u2581close": 978,
  "\u2581information": 979,
  "\u2581Although": 980,
  "\u2581nalinteg": 981,
  "\u2581nations": 982,
  "\u2581prayer": 983,
  "\u2581Greek": 984,
  "\u2581sumaganad": 985,
  "\u2581wagas": 986,
  "\u2581maika": 987,
  "\u2581narigat": 988,
  "\u2581large": 989,
  "\u2581Japan": 990,
  "\u2581special": 991,
  "\u2581sigun": 992,
  "\u2581F": 993,
  "\u25818:": 994,
  "\u2581Nakristianuan": 995,
  "\u2581bagina": 996,
  "\u2581support": 997,
  "\u2581including": 998,
  "\u2581L": 999,
  "\u2581imbes": 1000,
  "\u2581going": 1001,
  "\u2581Nag": 1002,
  "\u2581Kadi": 1003,
  "\u2581dagus": 1004,
  "\u2581Since": 1005,
  "\u2581problem": 1006,
  "\u2581members": 1007,
  "O": 1008,
  "\u2581asideg": 1009,
  "\u258115:": 1010,
  "\u2581Moses": 1011,
  "\u2581Because": 1012,
  "ro": 1013,
  "\u2581enjoy": 1014,
  "\u2581bad": 1015,
  "\u2581nalaka": 1016,
  "\u2581Israelita": 1017,
  "\u2581magun": 1018,
  "\u2581certain": 1019,
  "\u2581annakda": 1020,
  "\u2581continue": 1021,
  "\u2581sawen": 1022,
  "le": 1023,
  "\u2581Moises": 1024,
  "\u2581soon": 1025,
  "or": 1026,
  "\u2581yet": 1027,
  "\u2581situation": 1028,
  "\u2581nangnangruna": 1029,
  "\u2581heaven": 1030,
  "\u258140": 1031,
  "\u2581Be": 1032,
  "\u2581naragsak": 1033,
  "\u2581wisdom": 1034,
  "\u2581panagbiag": 1035,
  "\u2581nor": 1036,
  "\u2581Dadduma": 1037,
  "\u2581reading": 1038,
  "\u2581nagkauna": 1039,
  "\u2581thus": 1040,
  "\u2581understand": 1041,
  "\u2581W": 1042,
  "\u2581control": 1043,
  "\u2581uppat": 1044,
  "\u2581real": 1045,
  "\u2581Nalabit": 1046,
  "\u2581case": 1047,
  "\u2581point": 1048,
  "\u2581masanguanan": 1049,
  "\u2581sungbat": 1050,
  "\u2581agbiag": 1051,
  "\u2581fine": 1052,
  "\u2581Of": 1053,
  "\u2581ditay": 1054,
  "\u2581rason": 1055,
  "\u2581magazine": 1056,
  "\u2581Aniat": 1057,
  "\u2581bilang": 1058,
  "\u2581kaipapanan": 1059,
  "\u2581share": 1060,
  "ic": 1061,
  "\u2581answer": 1062,
  "\u2581sangalubongan": 1063,
  "\u2581nadakamat": 1064,
  "\u2581People": 1065,
  "\u2581naayat": 1066,
  "ers": 1067,
  "\u2581Griego": 1068,
  "\u2581James": 1069,
  "\u2581brought": 1070,
  "\u2581pasamak": 1071,
  "\u2581relationship": 1072,
  "\u2581America": 1073,
  "\u2581teaching": 1074,
  "\u2581pang": 1075,
  "\u25819:": 1076,
  "\u2581pannakabalin": 1077,
  "\u2581gimong": 1078,
  "\u2581feelings": 1079,
  "\u2581ask": 1080,
  "\u2581difficult": 1081,
  "\u2581received": 1082,
  "\u2581doktor": 1083,
  "\u2581Who": 1084,
  "\u2581eskuelaan": 1085,
  "di": 1086,
  "ton": 1087,
  "\u258124:": 1088,
  "\u2581insurat": 1089,
  "\u2581saying": 1090,
  "\u2581Australia": 1091,
  "\u2581kind": 1092,
  "\u2581talk": 1093,
  "\u2581saw": 1094,
  "\u2581country": 1095,
  "\u2581kapadasan": 1096,
  "\u2581died": 1097,
  "ek": 1098,
  "\u2581attention": 1099,
  "\u2581whole": 1100,
  "\u2581Corinthians": 1101,
  "\u2581Not": 1102,
  "\u2581kaipapananna": 1103,
  "\u2581elders": 1104,
  "\u2581sense": 1105,
  "\u2581counsel": 1106,
  "\u2581Creator": 1107,
  "\u2581change": 1108,
  "No": 1109,
  "\u2581rigat": 1110,
  "\u2581mean": 1111,
  "\u2581While": 1112,
  "\u2581od": 1113,
  "\u2581Let": 1114,
  "\u2581Today": 1115,
  "\u2581kapanunotan": 1116,
  "\u2581avoid": 1117,
  "\u2581usaren": 1118,
  "\u2581giving": 1119,
  "\u2581taken": 1120,
  "pa": 1121,
  "\u2581countries": 1122,
  "\u2581makaay": 1123,
  "\u2581night": 1124,
  "\u2581seen": 1125,
  "\u2581makes": 1126,
  "\u2581Are": 1127,
  "\u2581heavenly": 1128,
  "\u2581Timothy": 1129,
  "\u2581adalan": 1130,
  "\u2581dead": 1131,
  "\u2581inaldaw": 1132,
  "ra": 1133,
  "\u2581needs": 1134,
  "la": 1135,
  "\u2581kastoy": 1136,
  "\u2581turn": 1137,
  "\u2581group": 1138,
  "\u2581wicked": 1139,
  "\u2581panagbalbaliw": 1140,
  "\u2581ina": 1141,
  "\u2581maitunos": 1142,
  "\u25819,": 1143,
  "\u2581message": 1144,
  "\u258118.": 1145,
  "\u2581Apo": 1146,
  "\u25816,": 1147,
  "\u2581question": 1148,
  "\u2581likely": 1149,
  "\u2581ruar": 1150,
  "\u2581simply": 1151,
  "\u2581lead": 1152,
  "\u2581Talaga": 1153,
  "\u2581asinoman": 1154,
  "\u2581desire": 1155,
  "\u2581naaramid": 1156,
  "\u2581Ita": 1157,
  "\u2581provide": 1158,
  "\u258117:": 1159,
  "\u2581baptized": 1160,
  "\u2581according": 1161,
  "\u2581Apocalipsis": 1162,
  "\u2581Ken": 1163,
  "\u2581Timoteo": 1164,
  "\u2581Lord": 1165,
  "\u2581matay": 1166,
  "\u2581agassawa": 1167,
  "\u2581nagsayaat": 1168,
  "\u2581simple": 1169,
  "\u2581speak": 1170,
  "\u2581Revelation": 1171,
  "\u2581mangipaay": 1172,
  "\u2581righteous": 1173,
  "\u2581nasaysayaat": 1174,
  "\u2581wrong": 1175,
  "\u2581maudi": 1176,
  "\u258126": 1177,
  "\u2581Luke": 1178,
  "\u2581m": 1179,
  "\u2581Jews": 1180,
  "\u2581past": 1181,
  "\u2581respect": 1182,
  "\u2581sanga": 1183,
  "\u2581mapan": 1184,
  "\u2581moved": 1185,
  "\u2581once": 1186,
  "\u2581conduct": 1187,
  "\u258132": 1188,
  "\u2581Namarsua": 1189,
  "\u2581Box": 1190,
  "\u2581reports": 1191,
  "\u2581try": 1192,
  "\u2581Bethel": 1193,
  "\u25815,": 1194,
  "\u2581salun": 1195,
  "\u2581Dur": 1196,
  "\u2581thing": 1197,
  "\u2581nailangitan": 1198,
  "\u2581padto": 1199,
  "M": 1200,
  "\u2581feet": 1201,
  "\u2581wanted": 1202,
  "\u2581Catholic": 1203,
  "\u2581here": 1204,
  "\u2581nalawag": 1205,
  "\u25814,": 1206,
  "\u2581latta": 1207,
  "\u2581Israelites": 1208,
  "\u2581account": 1209,
  "\u2581Siempre": 1210,
  "\u2581kasayaatan": 1211,
  "\u2581Pictures": 1212,
  "\u2581maibusor": 1213,
  "\u2581dalan": 1214,
  "\u2581suffering": 1215,
  "\u2581taking": 1216,
  "\u2581mensahe": 1217,
  "\u2581Now": 1218,
  "\u2581local": 1219,
  "\u2581pagsasao": 1220,
  "\u2581Panag": 1221,
  "is": 1222,
  "\u2581R": 1223,
  "\u2581near": 1224,
  "\u2581Awake": 1225,
  "\u2581anointed": 1226,
  "\u2581masarakan": 1227,
  "\u2581involved": 1228,
  "\u2581king": 1229,
  "as": 1230,
  "\u2581nothing": 1231,
  "\u2581sure": 1232,
  "\u2581Manipud": 1233,
  "\u2581panagdayaw": 1234,
  "\u2581Does": 1235,
  "\u2581Ta": 1236,
  "\u2581receive": 1237,
  "\u2581nagbayag": 1238,
  "\u2581five": 1239,
  "\u2581months": 1240,
  "enna": 1241,
  "man": 1242,
  "\u2581history": 1243,
  "\u2581H": 1244,
  "\u2581Samuel": 1245,
  "\u2581Such": 1246,
  "\u2581kayatna": 1247,
  "\u2581Canada": 1248,
  "\u2581THE": 1249,
  "\u2581church": 1250,
  "\u2581laengen": 1251,
  "\u2581knew": 1252,
  "\u2581agdama": 1253,
  "\u2581ago": 1254,
  "\u2581dati": 1255,
  "\u2581second": 1256,
  "\u2581sent": 1257,
  "\u2581Europa": 1258,
  "\u2581wise": 1259,
  "\u258119.": 1260,
  "\u2581ladawan": 1261,
  "\u2581whether": 1262,
  "\u2581Consider": 1263,
  "f": 1264,
  "\u2581salaysay": 1265,
  "\u2581Life": 1266,
  "\u2581ok": 1267,
  "\u2581Masansan": 1268,
  "\u2581ourselves": 1269,
  "\u2581agtalinaed": 1270,
  "T": 1271,
  "\u2581pioneer": 1272,
  "\u2581napulotan": 1273,
  "\u2581anghel": 1274,
  "\u2581Those": 1275,
  "\u2581strong": 1276,
  "\u2581kilometro": 1277,
  "\u2581benefit": 1278,
  "\u2581Acts": 1279,
  "\u2581already": 1280,
  "ay": 1281,
  "\u2581miles": 1282,
  "\u2581disease": 1283,
  "\u2581serving": 1284,
  "\u2581comes": 1285,
  "\u2581similar": 1286,
  "\u2581bilin": 1287,
  "\u2581public": 1288,
  "\u2581umili": 1289,
  "\u2581area": 1290,
  "\u2581saanna": 1291,
  "\u2581kameng": 1292,
  "\u2581Para": 1293,
  "\u2581ulidan": 1294,
  "\u2581Adam": 1295,
  "\u2581less": 1296,
  "\u2581Lucas": 1297,
  "\u2581maitutop": 1298,
  "\u2581anak": 1299,
  "\u2581Kaskasdi": 1300,
  "\u2581Law": 1301,
  "\u2581common": 1302,
  "\u2581epekto": 1303,
  "\u2581rag": 1304,
  "\u2581started": 1305,
  "\u2581dandani": 1306,
  "\u2581lawas": 1307,
  "L": 1308,
  "\u2581Church": 1309,
  "\u2581follow": 1310,
  "\u2581physical": 1311,
  "\u2581thinking": 1312,
  "\u2581AIDS": 1313,
  "\u2581al": 1314,
  "\u2581un": 1315,
  "\u2581using": 1316,
  "\u2581longer": 1317,
  "\u2581taught": 1318,
  "\u2581ministerio": 1319,
  "\u2581Their": 1320,
  "\u2581agturong": 1321,
  "\u2581nation": 1322,
  "do": 1323,
  "\u2581further": 1324,
  "\u2581Romans": 1325,
  "\u2581principles": 1326,
  "te": 1327,
  "\u258114,": 1328,
  "ad": 1329,
  "\u2581Agriingkayo": 1330,
  "\u2581kararag": 1331,
  "ne": 1332,
  "\u2581Kastoy": 1333,
  "\u2581sidong": 1334,
  "\u2581lost": 1335,
  "\u2581tell": 1336,
  "nak": 1337,
  "\u2581panangasaba": 1338,
  "\u2581call": 1339,
  "\u2581lima": 1340,
  "\u2581within": 1341,
  "G": 1342,
  "\u2581India": 1343,
  "\u2581heard": 1344,
  "\u258120.": 1345,
  "\u2581Aramid": 1346,
  "\u2581ITI": 1347,
  "\u2581agtawen": 1348,
  "\u258118:": 1349,
  "\u2581interest": 1350,
  "\u2581based": 1351,
  "\u2581married": 1352,
  "\u2581evidence": 1353,
  "\u25812,": 1354,
  "\u2581government": 1355,
  "\u2581sibibiag": 1356,
  "de": 1357,
  "\u2581aglawlaw": 1358,
  "\u2581Brazil": 1359,
  "\u2581works": 1360,
  "it": 1361,
  "\u2581agnanaed": 1362,
  "\u2581mai": 1363,
  "\u2581South": 1364,
  "\u2581allow": 1365,
  "\u2581clear": 1366,
  "\u2581act": 1367,
  "\u2581nadiosan": 1368,
  "\u2581divine": 1369,
  "\u2581templo": 1370,
  "\u2581Adan": 1371,
  "\u2581Dagitoy": 1372,
  "\u2581rather": 1373,
  "\u2581alone": 1374,
  "ve": 1375,
  "\u2581ayam": 1376,
  "\u2581kabsat": 1377,
  "D": 1378,
  "\u2581attitude": 1379,
  "\u2581Panang": 1380,
  "\u2581nabiit": 1381,
  "\u2581leave": 1382,
  "\u2581sigurado": 1383,
  "\u2581University": 1384,
  "\u2581imbaga": 1385,
  "\u258116,": 1386,
  "\u2581maikadua": 1387,
  "\u258128": 1388,
  "EN": 1389,
  "\u2581bendision": 1390,
  "\u2581happiness": 1391,
  "\u2581ipakita": 1392,
  "\u2581teksto": 1393,
  "\u2581II": 1394,
  "\u2581trust": 1395,
  "\u2581matters": 1396,
  "\u2581shows": 1397,
  "\u2581Roman": 1398,
  "\u258116:": 1399,
  "\u2581gives": 1400,
  "\u2581Will": 1401,
  "\u2581certainly": 1402,
  "\u2581temple": 1403,
  "\u258160": 1404,
  "\u2581km": 1405,
  "ur": 1406,
  "\u2581usar": 1407,
  "\u2581false": 1408,
  "\u2581klase": 1409,
  "\u2581pagalagadan": 1410,
  "\u2581Linteg": 1411,
  "\u2581miembro": 1412,
  "\u2581serious": 1413,
  "\u2581several": 1414,
  "\u2581die": 1415,
  "\u2581fully": 1416,
  "\u2581nagduduma": 1417,
  "\u2581organisasion": 1418,
  "iti": 1419,
  "\u2581coming": 1420,
  "\u25817,": 1421,
  "\u2581explains": 1422,
  "\u258111,": 1423,
  "\u2581nainkalintegan": 1424,
  "\u2581maawagan": 1425,
  "\u258127": 1426,
  "\u2581kagimongan": 1427,
  "\u2581showed": 1428,
  "\u2581itself": 1429,
  "\u2581kindness": 1430,
  "\u258121.": 1431,
  "\u2581teach": 1432,
  "B": 1433,
  "\u2581modern": 1434,
  "\u2581truly": 1435,
  "\u2581perhaps": 1436,
  "\u2581angin": 1437,
  "\u2581posible": 1438,
  "\u2581aw": 1439,
  "\u2581remain": 1440,
  "\u2581return": 1441,
  "akon": 1442,
  "\u2581Kahon": 1443,
  "\u2581stand": 1444,
  "\u258170": 1445,
  "\u258112,": 1446,
  "\u2581kingdom": 1447,
  "\u2581100": 1448,
  "\u2581enough": 1449,
  "\u2581friend": 1450,
  "\u2581sea": 1451,
  "il": 1452,
  "\u2581mangipakita": 1453,
  "\u2581Times": 1454,
  "\u2581got": 1455,
  "\u2581resulta": 1456,
  "\u00b7": 1457,
  "\u2581American": 1458,
  "\u2581Mexico": 1459,
  "\u2581babassit": 1460,
  "\u2581issue": 1461,
  "\u2581ngata": 1462,
  "\u2581above": 1463,
  "\u2581pagayatan": 1464,
  "\u258120:": 1465,
  "\u2581rikna": 1466,
  "si": 1467,
  "\u2581anyone": 1468,
  "\u2581estudiante": 1469,
  "\u2581saanen": 1470,
  "\u2581held": 1471,
  "\u258129": 1472,
  "\u2581mentioned": 1473,
  "\u2581provided": 1474,
  "\u2581born": 1475,
  "\u2581Nalawag": 1476,
  "\u2581six": 1477,
  "\u2581explained": 1478,
  "\u2581hours": 1479,
  "ness": 1480,
  "z": 1481,
  "\u2581perfect": 1482,
  "\u2581therefore": 1483,
  "\u2581greater": 1484,
  "\u2581meaning": 1485,
  "\u2581publiko": 1486,
  "\u2581lived": 1487,
  "\u2581soul": 1488,
  "\u2581half": 1489,
  "\u2581ama": 1490,
  "\u2581pain": 1491,
  "\u258110,": 1492,
  "\u2581nangrugi": 1493,
  "\u2581ten": 1494,
  "\u2581Witness": 1495,
  "\u2581individuals": 1496,
  "\u2581written": 1497,
  "\u2581Hebrew": 1498,
  "\u2581followers": 1499,
  "\u2581kadua": 1500,
  "dagiti": 1501,
  "\u2581kept": 1502,
  "\u2581prophet": 1503,
  "\u2581surat": 1504,
  "\u2581problema": 1505,
  "\u2581mula": 1506,
  "\u2581visit": 1507,
  "\u2581deep": 1508,
  "\u2581head": 1509,
  "\u2581misionero": 1510,
  "\u2581Rather": 1511,
  "\u2581effect": 1512,
  "g": 1513,
  "lo": 1514,
  "u": 1515,
  "\u2581init": 1516,
  "\u258137": 1517,
  "\u2581organization": 1518,
  "\u2581autoridad": 1519,
  "\u2581don": 1520,
  "\u2581dadakkel": 1521,
  "\u2581IN": 1522,
  "\u2581Maria": 1523,
  "\u2581loved": 1524,
  "\u2581pray": 1525,
  "\u2581sister": 1526,
  "\u2581nadalus": 1527,
  "\u2581tawenen": 1528,
  "\u2581napan": 1529,
  "\u2581Would": 1530,
  "\u2581anything": 1531,
  "\u2581almost": 1532,
  "\u2581makin": 1533,
  "\u2581animals": 1534,
  "\u2581maymaysa": 1535,
  "\u2581Katoliko": 1536,
  "\u2581National": 1537,
  "\u2581relasion": 1538,
  "\u2581kari": 1539,
  "\u2581idin": 1540,
  "\u2581millions": 1541,
  "\u2581righteousness": 1542,
  "li": 1543,
  "\u2581Kinunana": 1544,
  "\u2581pagarian": 1545,
  "\u2581thousands": 1546,
  "\u2581open": 1547,
  "\u258133": 1548,
  "\u2581kabaelan": 1549,
  "\u2581seem": 1550,
  "\u2581effort": 1551,
  "\u2581rule": 1552,
  "\u2581kabayatan": 1553,
  "\u2581opisial": 1554,
  "\u2581nalatak": 1555,
  "\u2581resurrection": 1556,
  "\u2581mamati": 1557,
  "\u2581panagasawa": 1558,
  "\u2581everlasting": 1559,
  "\u2581publikasion": 1560,
  "H": 1561,
  "\u2581Jewish": 1562,
  "sa": 1563,
  "\u2581lawag": 1564,
  "\u2581named": 1565,
  "\u2581wonderful": 1566,
  "\u2581kinalinteg": 1567,
  "\u2581sons": 1568,
  "\u2581peggad": 1569,
  "R": 1570,
  "\u2581maammuan": 1571,
  "w": 1572,
  "\u2581opisina": 1573,
  "\u2581least": 1574,
  "\u2581hands": 1575,
  "at": 1576,
  "\u2581wayawaya": 1577,
  "\u2581Joseph": 1578,
  "\u2581sacrifice": 1579,
  "\u2581mausar": 1580,
  "\u2581pammaneknek": 1581,
  "ia": 1582,
  "\u2581Anak": 1583,
  "\u2581authority": 1584,
  "\u2581continued": 1585,
  "el": 1586,
  "\u2581Most": 1587,
  "\u2581ngay": 1588,
  "\u2581sheep": 1589,
  "kay": 1590,
  "\u2581published": 1591,
  "\u2581older": 1592,
  "\u2581kapitulo": 1593,
  "\u2581itoy": 1594,
  "\u2581meeting": 1595,
  "\u2581Asia": 1596,
  "\u2581dekada": 1597,
  "\u2581Indeed": 1598,
  "\u2581pribilehio": 1599,
  "\u2581efforts": 1600,
  "\u2581La": 1601,
  "\u2581bato": 1602,
  "\u2581panunot": 1603,
  "\u2581moderno": 1604,
  "\u258122:": 1605,
  "\u2581nai": 1606,
  "\u2581strength": 1607,
  "ga": 1608,
  "\u2581karnero": 1609,
  "\u2581innem": 1610,
  "\u258113,": 1611,
  "\u2581period": 1612,
  "\u2581naggapu": 1613,
  "\u2581agaramid": 1614,
  "\u2581War": 1615,
  "\u2581basta": 1616,
  "\u2581nataengan": 1617,
  "\u2581Ka": 1618,
  "\u2581agserserbi": 1619,
  "\u2581various": 1620,
  "\u2581kinaranggas": 1621,
  "\u2581understanding": 1622,
  "\u2581Jacob": 1623,
  "\u2581move": 1624,
  "\u2581accept": 1625,
  "\u2581masirib": 1626,
  "\u2581air": 1627,
  "\u2581sirib": 1628,
  "\u2581stated": 1629,
  "\u2581English": 1630,
  "\u2581Mary": 1631,
  "\u2581Re": 1632,
  "\u2581youths": 1633,
  "\u2581\u25cf": 1634,
  "\u2581London": 1635,
  "\u2581Ad": 1636,
  "\u2581violence": 1637,
  "\u2581biagna": 1638,
  "\u2581Or": 1639,
  "\u2581Europe": 1640,
  "\u2581powerful": 1641,
  "\u2581adayo": 1642,
  "\u2581pannakaawat": 1643,
  "\u2581pudpudno": 1644,
  "\u2581spiritually": 1645,
  "st": 1646,
  "\u2581considered": 1647,
  "\u2581pages": 1648,
  "\u2581available": 1649,
  "\u2581everything": 1650,
  ").": 1651,
  "\u2581working": 1652,
  "um": 1653,
  "\u2581easy": 1654,
  "\u2581qualities": 1655,
  "\u2581families": 1656,
  "\u2581apostles": 1657,
  "You": 1658,
  "\u2581kunana": 1659,
  "\u2581adalanna": 1660,
  "\u2581sangapulo": 1661,
  "kan": 1662,
  "\u2581agparang": 1663,
  "\u2581deal": 1664,
  "\u2581programa": 1665,
  "\u2581School": 1666,
  "\u2581Gilead": 1667,
  "\u2581led": 1668,
  "\u2581parsua": 1669,
  "\u2581articles": 1670,
  "\u2581kaso": 1671,
  "\u2581Germany": 1672,
  "\u2581single": 1673,
  "\u2581pisikal": 1674,
  "\u2581True": 1675,
  "\u2581Another": 1676,
  "\u258123.": 1677,
  "\u00a9": 1678,
  "\u2581tree": 1679,
  "\u2581Great": 1680,
  "\u2581prophecy": 1681,
  "\u2581speaking": 1682,
  "ce": 1683,
  ",...": 1684,
  "\u2581hold": 1685,
  "\u2581poor": 1686,
  "\u2581manangaywan": 1687,
  "\u2581sisters": 1688,
  "\u2581inspired": 1689,
  "\u2581value": 1690,
  "\u2581re": 1691,
  "\u2581activity": 1692,
  "\u2581regarding": 1693,
  "\u2581circumstances": 1694,
  "\u2581Did": 1695,
  "\u2581hear": 1696,
  "\u2581panagbalin": 1697,
  "\u02b9": 1698,
  "\u2581described": 1699,
  "\u2581freedom": 1700,
  "\u2581Pagwanawanan": 1701,
  "ation": 1702,
  "\u2581naiduma": 1703,
  "\u2581worldwide": 1704,
  "\u2581text": 1705,
  "\u2581metro": 1706,
  "\u2581maaramid": 1707,
  "\u2581kunaen": 1708,
  "\u2581lugan": 1709,
  "\u2581side": 1710,
  "\u2581pakaigapuan": 1711,
  "\u2581nangato": 1712,
  "\u2581forever": 1713,
  "\u2581usually": 1714,
  "\u2581doubt": 1715,
  "\u2581gain": 1716,
  "\u2581gift": 1717,
  "\u2581Santiago": 1718,
  "\u2581promise": 1719,
  "\u2581students": 1720,
  "\u2581England": 1721,
  "\u2581sagut": 1722,
  "\u2581slave": 1723,
  "\u2581events": 1724,
  "\u2581remember": 1725,
  "\u2581myself": 1726,
  "\u2581please": 1727,
  "\u2581nainsiriban": 1728,
  "\u2581source": 1729,
  "\u2581congregations": 1730,
  "\u2581Like": 1731,
  "\u2581agas": 1732,
  "\u2581Wenno": 1733,
  "\u2581kaadu": 1734,
  "\u2581branch": 1735,
  "\u2581changed": 1736,
  "co": 1737,
  "\u2581Saul": 1738,
  "\u2581umay": 1739,
  "\u258122.": 1740,
  "\u2581Amin": 1741,
  "\u2581agpadpada": 1742,
  "\u2581legal": 1743,
  "\u2581social": 1744,
  "ng": 1745,
  "\u2581kinaawan": 1746,
  "\u2581birth": 1747,
  "\u2581whose": 1748,
  "\u2581daydi": 1749,
  "\u2581Devil": 1750,
  "\u2581asawana": 1751,
  "\u2581im": 1752,
  "\u2581served": 1753,
  "\u2581narelihiosuan": 1754,
  "\u2581shall": 1755,
  "\u2581tried": 1756,
  "\u2581sun": 1757,
  "\u2581letter": 1758,
  "bo": 1759,
  "\u258124.": 1760,
  "\u2581Diablo": 1761,
  "\u2581napanglaw": 1762,
  "\u2581May": 1763,
  "\u2581First": 1764,
  "\u2581simbaan": 1765,
  "\u2581pagimbagan": 1766,
  "\u2581mangi": 1767,
  "\u2581Hebrews": 1768,
  "\u2581Ar": 1769,
  "\u2581role": 1770,
  "\u2581newspaper": 1771,
  "\u2581nabileg": 1772,
  "\u2581urnos": 1773,
  "\u2581aramidentayo": 1774,
  "\u2581arak": 1775,
  "\u2581kararua": 1776,
  "\u2581panungpalan": 1777,
  "\u2581hearts": 1778,
  "\u2581comfort": 1779,
  "\u2581See": 1780,
  "\u2581centuries": 1781,
  "\u2581spoke": 1782,
  "\u2581heavens": 1783,
  "\u2581p": 1784,
  "\u2581Blurb": 1785,
  "\u2581odan": 1786,
  "\u2581pasiente": 1787,
  "\u2581class": 1788,
  "\u2581maigapu": 1789,
  "\u2581field": 1790,
  "\u2581nagadu": 1791,
  "\u2581kaadda": 1792,
  "\u2581short": 1793,
  "Dagiti": 1794,
  "\u258117,": 1795,
  "\u2581rest": 1796,
  "\u2581Mark": 1797,
  "\u2581actually": 1798,
  "\u2581books": 1799,
  "\u2581affect": 1800,
  "\u2581normal": 1801,
  "\u2581panagserbi": 1802,
  "\u2581ability": 1803,
  "\u2581Babilonia": 1804,
  "\u2581maawatan": 1805,
  "\u2581parts": 1806,
  "\u2581Lubong": 1807,
  "\u2581gunggona": 1808,
  "\u2581helps": 1809,
  "\u258119,": 1810,
  "\u2581opportunity": 1811,
  "\u2581sexual": 1812,
  "\u2581sientista": 1813,
  "\u2581decision": 1814,
  "\u2581lands": 1815,
  "\u2581seems": 1816,
  "\u2581medical": 1817,
  "po": 1818,
  "\u2581musika": 1819,
  "\u2581pannakadadael": 1820,
  "\u2581tarigagay": 1821,
  "\u2581Naka": 1822,
  "\u2581areas": 1823,
  "\u2581job": 1824,
  "\u2581paka": 1825,
  "\u2581recent": 1826,
  "3": 1827,
  "\u2581influence": 1828,
  "\u2581nadangkes": 1829,
  "less": 1830,
  "\u2581makagunggona": 1831,
  "\u2581awanen": 1832,
  "\u2581reach": 1833,
  "\u2581panagayat": 1834,
  "\u2581Dakkel": 1835,
  "\u2581Hence": 1836,
  "\u2581caused": 1837,
  "\u2581Still": 1838,
  "\u2581dakdakkel": 1839,
  "\u2581places": 1840,
  "\u2581building": 1841,
  "\u2581bunga": 1842,
  "\u2581walk": 1843,
  "\u2581Instead": 1844,
  "\u2581lenguahe": 1845,
  "\u2581offer": 1846,
  "\u2581subject": 1847,
  "\u2581activities": 1848,
  "\u2581created": 1849,
  "\u2581ibaga": 1850,
  "\u2581former": 1851,
  "\u2581Siasino": 1852,
  "\u2581force": 1853,
  "\u2581France": 1854,
  "\u2581witness": 1855,
  "\u2581Internet": 1856,
  "\u2581write": 1857,
  "\u2581eat": 1858,
  "\u2581proved": 1859,
  "\u2581vital": 1860,
  "\u2581natalged": 1861,
  "\u2581office": 1862,
  "\u2581Ama": 1863,
  "\u2581accepted": 1864,
  "\u2581mangted": 1865,
  "\u2581Sa": 1866,
  "\u2581Mang": 1867,
  "\u2581forth": 1868,
  "\u2581carry": 1869,
  "\u2581serbisio": 1870,
  "\u2581position": 1871,
  "\u2581standards": 1872,
  "\u2581grow": 1873,
  "\u2581puersa": 1874,
  "\u2581learning": 1875,
  "\u2581ammona": 1876,
  "\u2581takes": 1877,
  "able": 1878,
  "\u2581promises": 1879,
  "\u2581entire": 1880,
  "im": 1881,
  "\u258123]": 1882,
  "\u2581Ask": 1883,
  "\u2581happened": 1884,
  "\u2581itatta": 1885,
  "\u2581kagudua": 1886,
  "\u2581naisurat": 1887,
  "\u2581sometimes": 1888,
  "\u2581daily": 1889,
  "\u2581clean": 1890,
  "\u2581Just": 1891,
  "\u2581decided": 1892,
  "\u2581car": 1893,
  "\u2581indibidual": 1894,
  "\u2581amianan": 1895,
  "\u2581morning": 1896,
  "\u2581pressure": 1897,
  "\u2581naibatay": 1898,
  "\u2581answers": 1899,
  "\u2581sound": 1900,
  "\u2581More": 1901,
  "9": 1902,
  "ry": 1903,
  "\u2581music": 1904,
  "\u2581confidence": 1905,
  "\u2581kabakiran": 1906,
  "\u2581instance": 1907,
  "\u2581couple": 1908,
  "\u2581payunir": 1909,
  "ul": 1910,
  "\u2581advice": 1911,
  "\u2581Alemania": 1912,
  "\u2581prayers": 1913,
  "\u2581start": 1914,
  "\u2581else": 1915,
  "\u2581yantangay": 1916,
  "\u2581impakita": 1917,
  "\u2581panggepna": 1918,
  "\u2581Egipto": 1919,
  "\u2581isuda": 1920,
  "\u25817]": 1921,
  "\u2581everyone": 1922,
  "\u2581godly": 1923,
  "\u2581prove": 1924,
  "\u2581stop": 1925,
  "\u2581Romano": 1926,
  "enda": 1927,
  "se": 1928,
  "tan": 1929,
  "\u2581mannursuro": 1930,
  "\u2581reported": 1931,
  "\u2581state": 1932,
  "\u2581getting": 1933,
  "\u2581meet": 1934,
  "dak": 1935,
  "\u2581St": 1936,
  "\u2581throughout": 1937,
  "\u2581About": 1938,
  "\u2581indeed": 1939,
  "\u2581changes": 1940,
  "\u2581Health": 1941,
  "\u2581judgment": 1942,
  "\u2581results": 1943,
  "\u2581sadi": 1944,
  "\u2581appropriate": 1945,
  "\u2581added": 1946,
  "\u2581TV": 1947,
  "\u2581glory": 1948,
  "\u2581umad": 1949,
  "\u258117]": 1950,
  "\u2581turned": 1951,
  "\u2581address": 1952,
  "\u2581Children": 1953,
  "\u2581apply": 1954,
  "\u2581bunggoy": 1955,
  "\u2581panagungar": 1956,
  "ch": 1957,
  "ll": 1958,
  "\u2581examples": 1959,
  "\u2581kadawyan": 1960,
  "\u2581mangan": 1961,
  "Maipapan": 1962,
  "\u2581Ipakita": 1963,
  "\u2581week": 1964,
  "\u2581education": 1965,
  "\u2581clearly": 1966,
  "kam": 1967,
  "\u2581Efeso": 1968,
  "\u2581rebbeng": 1969,
  "\u2581umasping": 1970,
  "\u2581adipenna": 1971,
  "\u2581cases": 1972,
  "\u2581experienced": 1973,
  "\u2581kinadakes": 1974,
  "\u2581seven": 1975,
  "\u2581Later": 1976,
  "\u2581blessing": 1977,
  "\u2581ima": 1978,
  "tu": 1979,
  "\u2581malaksid": 1980,
  "\u2581complete": 1981,
  "\u2581beautiful": 1982,
  "\u2581seek": 1983,
  "\u2581mental": 1984,
  "\u2581ot": 1985,
  "4": 1986,
  "In": 1987,
  "ut": 1988,
  "\u2581earlier": 1989,
  "\u2581ulbod": 1990,
  "\u2581ground": 1991,
  "\u2581Russia": 1992,
  "\u2581panangisuro": 1993,
  "\u2581pakasaritaan": 1994,
  "\u2581honor": 1995,
  "\u2581listen": 1996,
  "\u2581kopia": 1997,
  "\u2581privilege": 1998,
  "\u2581sursuro": 1999,
  "\u2581Noe": 2000,
  "\u2581Read": 2001,
  "\u2581wonder": 2002,
  "\u2581daras": 2003,
  "\u2581daton": 2004,
  "\u2581exercise": 2005,
  "\u2581w": 2006,
  "\u2581ayan": 2007,
  "\u2581develop": 2008,
  "\u258115]": 2009,
  "\u258118,": 2010,
  "\u2581Have": 2011,
  "\u2581kombension": 2012,
  "\u2581concern": 2013,
  "\u2581thoughts": 2014,
  "\u2581line": 2015,
  "\u258134": 2016,
  "\u2581Insurat": 2017,
  "\u2581Kanayon": 2018,
  "\u2581maseknan": 2019,
  "\u2581inut": 2020,
  "\u2581biktima": 2021,
  "\u2581willing": 2022,
  "2": 2023,
  "\u2581behind": 2024,
  "\u2581bagim": 2025,
  "\u2581manag": 2026,
  "\u2581political": 2027,
  "\u2581Scriptural": 2028,
  "\u2581galad": 2029,
  "\u2581idinto": 2030,
  "\u2581kalsada": 2031,
  "God": 2032,
  "\u2581convention": 2033,
  "\u2581napigsa": 2034,
  "\u2581Pa": 2035,
  "5": 2036,
  "\u2581practice": 2037,
  "\u2581sign": 2038,
  "\u2581didigra": 2039,
  "\u2581nainaig": 2040,
  "be": 2041,
  "\u2581barko": 2042,
  "\u2581daughter": 2043,
  "\u2581historia": 2044,
  "\u2581Noah": 2045,
  "\u2581noted": 2046,
  "\u2581kanayonan": 2047,
  "\u2581nakatulong": 2048,
  "\u2581risk": 2049,
  "\u2581returned": 2050,
  "\u2581program": 2051,
  "\u2581laws": 2052,
  "\u2581either": 2053,
  "\u2581sex": 2054,
  "\u2581teachings": 2055,
  "nan": 2056,
  "\u2581mangasaba": 2057,
  "\u2581mannurat": 2058,
  "\u258125.": 2059,
  "\u2581appreciation": 2060,
  "\u2581City": 2061,
  "\u2581fire": 2062,
  "\u2581panagraem": 2063,
  "\u2581include": 2064,
  "\u2581built": 2065,
  "\u2581major": 2066,
  "\u2581direction": 2067,
  "\u2581Eva": 2068,
  "\u2581shown": 2069,
  "\u2581attend": 2070,
  "\u2581maintain": 2071,
  "\u2581minilion": 2072,
  "\u2581stay": 2073,
  "\u2581Biag": 2074,
  "\u2581offered": 2075,
  "\u2581Tract": 2076,
  "7": 2077,
  "\u2581girl": 2078,
  "\u2581suffer": 2079,
  "\u2581creation": 2080,
  "\u2581tumatayab": 2081,
  "\u2581appreciate": 2082,
  "\u2581reasons": 2083,
  "\u2581recorded": 2084,
  "\u2581'?": 2085,
  "\u2581gagayyem": 2086,
  "\u2581parent": 2087,
  "\u2581necessary": 2088,
  "\u2581training": 2089,
  "\u2581door": 2090,
  "\u2581rich": 2091,
  "\u2581Brother": 2092,
  "\u2581addition": 2093,
  "\u2581panagpampanunot": 2094,
  "\u2581dikay": 2095,
  "\u2581maikari": 2096,
  "\u2581Young": 2097,
  "\u2581aniat": 2098,
  "\u2581computer": 2099,
  "\u2581build": 2100,
  "\u2581resultana": 2101,
  "\u2581accurate": 2102,
  "\u2581flesh": 2103,
  "h": 2104,
  "\u2581Jose": 2105,
  "\u2581prison": 2106,
  "aw": 2107,
  "\u2581nagbaetan": 2108,
  "ba": 2109,
  "son": 2110,
  "\u2581Sakbay": 2111,
  "\u2581responsibility": 2112,
  "\u2581mata": 2113,
  "\u2581umdas": 2114,
  "\u2581quickly": 2115,
  "\u2581Yantangay": 2116,
  "\u2581desision": 2117,
  "\u2581neither": 2118,
  "\u2581naganna": 2119,
  "\u2581nausar": 2120,
  "\u2581perpekto": 2121,
  "\u2581panangaramid": 2122,
  "\u2581Latin": 2123,
  "Jehovah": 2124,
  "\u2581kinaragsak": 2125,
  "\u2581ang": 2126,
  "\u2581conditions": 2127,
  "\u258120,": 2128,
  "\u2581action": 2129,
  "\u2581treatment": 2130,
  "\u2581blessings": 2131,
  "\u2581chapter": 2132,
  "\u2581bin": 2133,
  "\u2581beginning": 2134,
  "so": 2135,
  "\u2581droga": 2136,
  "\u2581panagsagaba": 2137,
  "Na": 2138,
  "\u2581Nevertheless": 2139,
  "\u2581mangpataud": 2140,
  "Ma": 2141,
  "ig": 2142,
  "\u2581pangarigan": 2143,
  "\u2581Egypt": 2144,
  "\u2581Before": 2145,
  "\u2581aramidenda": 2146,
  "\u2581disso": 2147,
  "\u2581protect": 2148,
  "\u2581padi": 2149,
  "\u2581c": 2150,
  "\u2581lack": 2151,
  "\u2581\"\"": 2152,
  "\u2581bukodna": 2153,
  "\u258114:": 2154,
  "pe": 2155,
  "6": 2156,
  "\u2581regularly": 2157,
  "\u2581species": 2158,
  "\u2581destruction": 2159,
  "\u2581duadua": 2160,
  "\u2581baptism": 2161,
  "\u2581periodiko": 2162,
  "angay": 2163,
  "\u2581kalat": 2164,
  "\u2581Sea": 2165,
  "\u2581makadangran": 2166,
  "\u2581anger": 2167,
  "\u2581determined": 2168,
  "\u2581Sigurado": 2169,
  "\u2581harmony": 2170,
  "\u2581stress": 2171,
  "\u2581Agtutubo": 2172,
  "\u2581natauan": 2173,
  "\u2581lasag": 2174,
  "\u2581raised": 2175,
  "\u2581angels": 2176,
  "pi": 2177,
  "\u2581biagda": 2178,
  "\u2581helping": 2179,
  "\u2581impluensia": 2180,
  "ion": 2181,
  "\u2581pamiliana": 2182,
  "\u2581Others": 2183,
  "\u2581regard": 2184,
  "\u2581napasnek": 2185,
  "\u2581agsao": 2186,
  "\u2581developed": 2187,
  "\u2581nature": 2188,
  "\u2581Diak": 2189,
  "\u2581becoming": 2190,
  "\u2581International": 2191,
  "\u2581room": 2192,
  "\u2581panangusar": 2193,
  "\u2581sins": 2194,
  "\u2581allowed": 2195,
  "\u2581nabayagen": 2196,
  "\u2581Us": 2197,
  "\u2581feeling": 2198,
  "\u2581seksual": 2199,
  "\u2581appointed": 2200,
  "\u2581realize": 2201,
  "su": 2202,
  "\u2581individual": 2203,
  "ung": 2204,
  "\u2581condition": 2205,
  "\u2581languages": 2206,
  "\u2581literal": 2207,
  "\u2581loyal": 2208,
  "\u2581ransom": 2209,
  "\u2581selula": 2210,
  "go": 2211,
  "\u2581annakna": 2212,
  "\u2581ministro": 2213,
  "\u2581positive": 2214,
  "\u2581abagatan": 2215,
  "\u2581promised": 2216,
  "\u2581literature": 2217,
  "\u2581notes": 2218,
  "\u2581proper": 2219,
  "\u2581population": 2220,
  "\u2581interested": 2221,
  "\u2581foretold": 2222,
  "\u2581panangikagumaan": 2223,
  "\u2581looking": 2224,
  "\u2581krimen": 2225,
  "N": 2226,
  "\u258180": 2227,
  "\u2581contact": 2228,
  "\u2581per": 2229,
  "\u2581produce": 2230,
  "\u2581conscience": 2231,
  "\u2581precious": 2232,
  "\u2581encouraged": 2233,
  "\u2581outside": 2234,
  "\u2581inaramidna": 2235,
  "\u2581lot": 2236,
  "We": 2237,
  "\u00e9": 2238,
  "\u2581paraiso": 2239,
  "\u258126]": 2240,
  "\u2581record": 2241,
  "\u2581basis": 2242,
  "\u2581ilina": 2243,
  "\u2581pito": 2244,
  "\u2581Umuna": 2245,
  "\u2581Jeremias": 2246,
  "\u2581enjoyed": 2247,
  "\u2581Jeremiah": 2248,
  "\u2581panagtalek": 2249,
  "\u2581panangi": 2250,
  "\u2581Though": 2251,
  "\u2581nasungdo": 2252,
  "kon": 2253,
  "\u2581metten": 2254,
  "\u2581month": 2255,
  "\u2581agpannuray": 2256,
  "\u2581decisions": 2257,
  "\u2581alikamen": 2258,
  "\u2581increase": 2259,
  "\u2581speech": 2260,
  "\u2581imitate": 2261,
  "\u2581preach": 2262,
  "\u2581Moreover": 2263,
  "\u2581ammok": 2264,
  "\u2581arrived": 2265,
  "\u2581nearly": 2266,
  "\u2581practical": 2267,
  "\u2581spent": 2268,
  "\u2581Gubat": 2269,
  "\u2581manmano": 2270,
  "\u2581Further": 2271,
  "\u2581Therefore": 2272,
  "\u2581society": 2273,
  "\u2581beyond": 2274,
  "\u2581nasinged": 2275,
  "\u2581occasion": 2276,
  "\u2581fish": 2277,
  "\u2581trying": 2278,
  "\u2581agturay": 2279,
  "\u2581natibker": 2280,
  "\u2581pakarigatan": 2281,
  "\u2581related": 2282,
  "It": 2283,
  "\u2581anakna": 2284,
  "\u2581followed": 2285,
  "\u2581propeta": 2286,
  "ang": 2287,
  "ir": 2288,
  "\u25811990": 2289,
  "\u2581Kasla": 2290,
  "\u2581Malaksid": 2291,
  "\u2581kolor": 2292,
  "\u2581Soviet": 2293,
  "\u2581panangagas": 2294,
  "\u2581third": 2295,
  "\u2581addanto": 2296,
  "\u2581believers": 2297,
  "\u2581draw": 2298,
  "\u2581paradise": 2299,
  "\u2581soldado": 2300,
  "\u2581Le": 2301,
  "\u2581Nations": 2302,
  "\u2581bersikulo": 2303,
  "\u2581killed": 2304,
  "he": 2305,
  "\u2581ut": 2306,
  "\u2581kamaudiananna": 2307,
  "\u258125]": 2308,
  "\u2581general": 2309,
  "\u258145": 2310,
  "\u258190": 2311,
  "\u2581napeggad": 2312,
  "\u2581crowd": 2313,
  "\u2581isla": 2314,
  "garup": 2315,
  "\u2581white": 2316,
  "\u2581DAGIT": 2317,
  "\u2581Where": 2318,
  "\u2581agdaydayaw": 2319,
  "\u2581tay": 2320,
  "\u2581greatest": 2321,
  "\u2581homes": 2322,
  "\u2581prevent": 2323,
  "\u2581mammadto": 2324,
  "\u2581negosio": 2325,
  "\u2581siasino": 2326,
  "\u2581adun": 2327,
  "\u2581palawag": 2328,
  "\u2581quality": 2329,
  "\u2581emotional": 2330,
  "\u2581Man": 2331,
  "\u2581una": 2332,
  "\u258124,": 2333,
  "\u2581kaputotan": 2334,
  "\u2581studying": 2335,
  "\u2581studies": 2336,
  "\u2581Eve": 2337,
  "\u2581literatura": 2338,
  "\u2581praise": 2339,
  "\u2581pannangan": 2340,
  "ki": 2341,
  "\u2581covenant": 2342,
  "\u2581gayyem": 2343,
  "\u2581eventually": 2344,
  "\u2581karit": 2345,
  "\u2581provides": 2346,
  "\u2581hour": 2347,
  "\u25819]": 2348,
  "lu": 2349,
  "\u2581Baro": 2350,
  "\u2581knows": 2351,
  "\u2581leaders": 2352,
  "\u2581popular": 2353,
  "\u2581Panangmatmat": 2354,
  "\u2581challenge": 2355,
  "\u2581papadi": 2356,
  "\u2581youth": 2357,
  "\u2581European": 2358,
  "\u2581Perhaps": 2359,
  "\u2581spend": 2360,
  "\u2581eksperto": 2361,
  "kinamanangngaasi": 2362,
  "\u2581Maka": 2363,
  "\u2581business": 2364,
  "\u2581idea": 2365,
  "\u2581patay": 2366,
  "\u2581elder": 2367,
  "\u2581worked": 2368,
  "\u2581Tatang": 2369,
  "\u2581groups": 2370,
  "\u2581trees": 2371,
  "\u2581kultura": 2372,
  "un": 2373,
  "\u2581sleep": 2374,
  "\u258135": 2375,
  "\u2581Brooklyn": 2376,
  "\u2581beliefs": 2377,
  "\u2581doctor": 2378,
  "\u2581edyer": 2379,
  "\u2581interesado": 2380,
  "id": 2381,
  "\u2581psalmist": 2382,
  "\u2581Holy": 2383,
  "\u2581addada": 2384,
  "\u2581earthly": 2385,
  "\u2581ragsak": 2386,
  "\u2581Sangalubongan": 2387,
  "\u2581wants": 2388,
  "Read": 2389,
  "\u2581Francia": 2390,
  "\u2581rabaw": 2391,
  "\u2581pagbaludan": 2392,
  "\u2581member": 2393,
  "\u2581missionary": 2394,
  "\u2581Daga": 2395,
  "\u2581Nanang": 2396,
  "\u258129.": 2397,
  "\u2581begin": 2398,
  "\u2581salmista": 2399,
  "\u2581term": 2400,
  "\u2581Christendom": 2401,
  "\u2581Kakristianuan": 2402,
  "\u2581tells": 2403,
  "\u2581Love": 2404,
  "\u2581Ruth": 2405,
  "\u2581original": 2406,
  "\u2581success": 2407,
  "\u2581naawagan": 2408,
  "\u2581ready": 2409,
  "\u2581nangruna": 2410,
  "\u2581bantay": 2411,
  "\u2581Soon": 2412,
  "\u2581quite": 2413,
  "\u2581agpa": 2414,
  "\u2581evil": 2415,
  "\u2581dika": 2416,
  "\u2581napintas": 2417,
  "\u2581pagilasinan": 2418,
  "\u2581priest": 2419,
  "\u2581bileg": 2420,
  "\u2581completely": 2421,
  "\u2581invited": 2422,
  "\u2581pasurotna": 2423,
  "\u2581Ngarud": 2424,
  "\u2581drugs": 2425,
  "\u2581apuy": 2426,
  "\u2581panagregget": 2427,
  "\u2581agsubli": 2428,
  "\u2581baby": 2429,
  "Iti": 2430,
  "\u2581German": 2431,
  "\u2581cut": 2432,
  "\u2581fulfillment": 2433,
  "ine": 2434,
  "\u2581bear": 2435,
  "\u2581filled": 2436,
  "\u2581China": 2437,
  "\u2581fall": 2438,
  "\u2581siak": 2439,
  "\u2581agtrabaho": 2440,
  "\u2581asi": 2441,
  "\u2581scientists": 2442,
  "\u2581langlangit": 2443,
  "\u2581respond": 2444,
  "\u2581siensia": 2445,
  "\u2581Mesias": 2446,
  "\u2581passed": 2447,
  "bu": 2448,
  "\u2581express": 2449,
  "\u2581kayatda": 2450,
  "\u2581kinabaknang": 2451,
  "\u2581revealed": 2452,
  "unggal": 2453,
  "\u2581depression": 2454,
  "\u2581African": 2455,
  "\u2581big": 2456,
  "\u2581cell": 2457,
  "\u2581choose": 2458,
  "\u2581cities": 2459,
  "\u2581town": 2460,
  "\u2581workers": 2461,
  "\u2581Time": 2462,
  "\u2581nabaknang": 2463,
  "\u2581Pag": 2464,
  "\u2581kalintegan": 2465,
  "\u2581growing": 2466,
  "\u2581asidegen": 2467,
  "\u2581Inc": 2468,
  "\u2581walking": 2469,
  "Basaen": 2470,
  "\u2581aramidenna": 2471,
  "\u2581Each": 2472,
  "Saan": 2473,
  "\u2581sekso": 2474,
  "\u2581imatang": 2475,
  "\u2581bagida": 2476,
  "\u258118]": 2477,
  "gi": 2478,
  "\u2581behavior": 2479,
  "\u2581karayan": 2480,
  "\u2581kitaem": 2481,
  "\u2581Rome": 2482,
  "\u2581Da": 2483,
  "\u2581salvation": 2484,
  "\u2581abuse": 2485,
  "\u2581fruit": 2486,
  "\u2581patient": 2487,
  "\u2581security": 2488,
  "\u258110]": 2489,
  "\u2581play": 2490,
  "\u2581De": 2491,
  "\u2581priests": 2492,
  "\u258136": 2493,
  "\u2581Memorial": 2494,
  "\u2581Anakna": 2495,
  "\u2581Kamaudiananna": 2496,
  "\u2581assignment": 2497,
  "\u2581El": 2498,
  "\u2581makaammo": 2499,
  "\u2581trabahador": 2500,
  "\u2581ulo": 2501,
  "AL": 2502,
  "\u2581justice": 2503,
  "\u2581integrity": 2504,
  "\u2581mate": 2505,
  "\u2581uniberso": 2506,
  "\u2581British": 2507,
  "\u2581kayatmo": 2508,
  "\u2581seemed": 2509,
  "\u2581Encyclopedia": 2510,
  "\u2581kawes": 2511,
  "\u2581Isaac": 2512,
  "ter": 2513,
  "\u2581Babylon": 2514,
  "\u2581bagbagida": 2515,
  "\u2581benefits": 2516,
  "\u2581personality": 2517,
  "\u2581French": 2518,
  "\u2581happen": 2519,
  "paman": 2520,
  "\u2581f": 2521,
  "\u2581research": 2522,
  "\u2581showing": 2523,
  "\u2581voice": 2524,
  "\u2581Book": 2525,
  "\u2581eye": 2526,
  "\u2581irarang": 2527,
  "\u2581kabbaro": 2528,
  "\u2581traveling": 2529,
  "ru": 2530,
  "\u2581buklen": 2531,
  "\u2581ganggannaet": 2532,
  "\u2581Dagidiay": 2533,
  "\u2581discipline": 2534,
  "\u2581weeks": 2535,
  "\u2581ospital": 2536,
  "\u2581addan": 2537,
  "\u2581mapa": 2538,
  "\u2581oil": 2539,
  "\u2581aramidem": 2540,
  "\u2581expect": 2541,
  "ting": 2542,
  "\u2581aktual": 2543,
  "\u2581calls": 2544,
  "\u2581series": 2545,
  "\u2581pakairamanan": 2546,
  "\u2581Kina": 2547,
  "\u2581inted": 2548,
  "ket": 2549,
  "\u2581madadael": 2550,
  "If": 2551,
  "\u2581spread": 2552,
  "\u2581test": 2553,
  "\u2581Over": 2554,
  "\u2581ipalubos": 2555,
  "\u2581ud": 2556,
  "\u2581200": 2557,
  "\u2581Kasapulan": 2558,
  "\u2581finally": 2559,
  "\u2581gubuayan": 2560,
  "\u2581picture": 2561,
  "nanto": 2562,
  "\u2581although": 2563,
  "\u2581expression": 2564,
  "\u2581loss": 2565,
  "\u2581presence": 2566,
  "\u2581established": 2567,
  "\u2581causes": 2568,
  "\u2581laksid": 2569,
  "\u2581observed": 2570,
  "\u2581patien": 2571,
  "\u2581actions": 2572,
  "\u2581biagko": 2573,
  "\u2581kinapateg": 2574,
  "\u2581nagpateg": 2575,
  "\u2581kaaldawan": 2576,
  "\u2581explain": 2577,
  "\u2581final": 2578,
  "\u258165": 2579,
  "espite": 2580,
  "\u2581Keep": 2581,
  "\u2581agsagsagaba": 2582,
  "\u2581mapaspasamak": 2583,
  "\u2581progress": 2584,
  "\u2581kayatyo": 2585,
  "\u2581Christianity": 2586,
  "\u2581State": 2587,
  "\u2581protection": 2588,
  "\u2581Messiah": 2589,
  "\u2581maladaga": 2590,
  "\u2581tulag": 2591,
  "\u2581Also": 2592,
  "\u2581alive": 2593,
  "\u2581nadagsen": 2594,
  "\u2581relief": 2595,
  "\u2581seeking": 2596,
  "lin": 2597,
  "\u2581maki": 2598,
  "\u2581Umasping": 2599,
  "est": 2600,
  "\u2581kadaanan": 2601,
  "\u2581video": 2602,
  "\u2581eating": 2603,
  "\u2581kabusor": 2604,
  "\u2581naasi": 2605,
  "\u2581nalaing": 2606,
  "\u2581site": 2607,
  "\u2581type": 2608,
  "\u2581aktibidad": 2609,
  "\u2581imbagana": 2610,
  "\u2581las": 2611,
  "\u2581Napateg": 2612,
  "\u2581balitok": 2613,
  "\u2581prayed": 2614,
  "\u2581ipaay": 2615,
  "os": 2616,
  "\u2581prepared": 2617,
  "ci": 2618,
  "\u2581acts": 2619,
  "vi": 2620,
  "\u258121,": 2621,
  "\u2581V": 2622,
  "\u2581birds": 2623,
  "\u2581interests": 2624,
  "\u2581warning": 2625,
  "\u2581suffered": 2626,
  "\u2581knowing": 2627,
  "\u2581pannursuro": 2628,
  "\u2581bukodda": 2629,
  "\u2581guidance": 2630,
  "\u2581inside": 2631,
  "\u2581Ephesians": 2632,
  "\u2581choice": 2633,
  "\u2581pagaammo": 2634,
  "\u2581boy": 2635,
  "\u2581Her": 2636,
  "\u2581History": 2637,
  "\u2581praktikal": 2638,
  "\u2581agpayso": 2639,
  "\u2581pastor": 2640,
  "\u2581radio": 2641,
  "\u2581kayatko": 2642,
  "\u2581police": 2643,
  "\u2581bagik": 2644,
  "\u2581pina": 2645,
  "\u2581Two": 2646,
  "\u2581process": 2647,
  "\u2581turay": 2648,
  "8": 2649,
  "ca": 2650,
  "\u2581Nainkasuratan": 2651,
  "\u258128.": 2652,
  "\u2581authorities": 2653,
  "\u2581kaaldawantayo": 2654,
  "\u2581cope": 2655,
  "\u2581sick": 2656,
  "\u2581tinawen": 2657,
  "\u2581Rumbeng": 2658,
  "\u2581brain": 2659,
  "\u2581front": 2660,
  "\u2581immediately": 2661,
  "\u2581sumrek": 2662,
  "\u2581main": 2663,
  "\u2581adds": 2664,
  "\u2581kampo": 2665,
  "\u2581mangyeg": 2666,
  "\u2581recently": 2667,
  "ol": 2668,
  "\u2581Well": 2669,
  "\u2581agtignay": 2670,
  "\u2581goal": 2671,
  "ism": 2672,
  "\u2581deeply": 2673,
  "\u2581impablaak": 2674,
  "maysa": 2675,
  "\u258128:": 2676,
  "\u2581easily": 2677,
  "\u2581publication": 2678,
  "\u2581teacher": 2679,
  "\u2581ulit": 2680,
  "\u2581managsirarak": 2681,
  "\u2581gold": 2682,
  "\u2581panagbuteng": 2683,
  "\u2581believed": 2684,
  "\u2581science": 2685,
  "\u2581Nazi": 2686,
  "\u2581e": 2687,
  "\u2581firm": 2688,
  "\u2581buyot": 2689,
  "\u2581maibilang": 2690,
  "ity": 2691,
  "\u2581particularly": 2692,
  "\u2581strengthen": 2693,
  "gnagan": 2694,
  "\u2581realized": 2695,
  "\u2581ngamin": 2696,
  "\u2581lokal": 2697,
  "\u2581subbot": 2698,
  "\u2581ugali": 2699,
  "\u2581maaramidan": 2700,
  "\u2581persons": 2701,
  "\u2581usigentayo": 2702,
  "\u2581whatever": 2703,
  "\u2581eroplano": 2704,
  "\u2581island": 2705,
  "gu": 2706,
  "\u2581expressed": 2707,
  "\u2581naimpusuan": 2708,
  "\u2581nakaad": 2709,
  "\u2581required": 2710,
  "\u2581Its": 2711,
  "ap": 2712,
  "\u2581favor": 2713,
  "\u2581nabatad": 2714,
  "\u2581tengnga": 2715,
  "\u2581Paradise": 2716,
  "\u2581isyu": 2717,
  "\u2581late": 2718,
  "\u2581Cor": 2719,
  "ku": 2720,
  "\u2581treat": 2721,
  "\u2581epektibo": 2722,
  "\u2581produced": 2723,
  "\u2581universe": 2724,
  "ist": 2725,
  "\u2581heavy": 2726,
  "\u2581obey": 2727,
  "\u2581kaskasdi": 2728,
  "\u2581nakita": 2729,
  "\u2581devotion": 2730,
  "\u2581sanikua": 2731,
  "\u2581eskolar": 2732,
  "\u2581unique": 2733,
  "org": 2734,
  "\u2581tawtawen": 2735,
  "\u2581eight": 2736,
  "\u2581keeping": 2737,
  "\u2581key": 2738,
  "\u2581kompania": 2739,
  "\u2581mangrugi": 2740,
  "ling": 2741,
  "\u2581endure": 2742,
  "\u2581included": 2743,
  "\u2581nagserbi": 2744,
  "\u2581encourage": 2745,
  "F": 2746,
  "\u2581direkta": 2747,
  "\u2581missionaries": 2748,
  "\u2581copy": 2749,
  "\u2581environment": 2750,
  "bi": 2751,
  "Y": 2752,
  "\u2581date": 2753,
  "\u2581encouragement": 2754,
  "\u2581meant": 2755,
  "\u2581Marcos": 2756,
  "\u2581ebkas": 2757,
  "\u2581hospital": 2758,
  "\u2581makakita": 2759,
  "\u2581panangaywan": 2760,
  "See": 2761,
  "ha": 2762,
  "For": 2763,
  "\u2581North": 2764,
  "\u2581road": 2765,
  "\u2581panagkaykaysa": 2766,
  "\u2581idilig": 2767,
  "\u2581Family": 2768,
  "\u2581servant": 2769,
  "\u258128,": 2770,
  "\u2581carefully": 2771,
  "\u2581Filipos": 2772,
  "\u2581danger": 2773,
  "\u2581rinibu": 2774,
  "\u2581nangipaay": 2775,
  "\u2581basic": 2776,
  "\u2581discovered": 2777,
  "\u2581forward": 2778,
  "\u2581fulfilled": 2779,
  "\u2581addang": 2780,
  "\u2581mouth": 2781,
  "\u2581napno": 2782,
  "ug": 2783,
  "\u2581Juda": 2784,
  "\u2581goes": 2785,
  "kanto": 2786,
  "\u258131.": 2787,
  "ian": 2788,
  "\u2581active": 2789,
  "\u2581courage": 2790,
  "\u2581Through": 2791,
  "\u2581assigned": 2792,
  "\u2581blessed": 2793,
  "\u2581destroyed": 2794,
  "\u2581energy": 2795,
  "ep": 2796,
  "\u2581Similarly": 2797,
  "\u2581amak": 2798,
  "\u2581drug": 2799,
  "\u2581fight": 2800,
  "\u2581umawat": 2801,
  "\u2581kadakkelan": 2802,
  "\u2581Judah": 2803,
  "\u2581agkasapulan": 2804,
  "\u2581Good": 2805,
  "\u2581igid": 2806,
  "\u2581ikan": 2807,
  "\u2581punto": 2808,
  "\u2581red": 2809,
  "\u2581ruangan": 2810,
  "\u2581steps": 2811,
  "AN": 2812,
  "\u2581Indian": 2813,
  "\u2581ahead": 2814,
  "\u2581dangerous": 2815,
  "\u2581appear": 2816,
  "\u2581kanta": 2817,
  "\u2581Sumagmamano": 2818,
  "\u2581across": 2819,
  "\u2581makiraman": 2820,
  "\u2581tema": 2821,
  "\u2581Ingles": 2822,
  "\u2581hundreds": 2823,
  "\u2581polis": 2824,
  "\u2581Kanayonanna": 2825,
  "\u2581trials": 2826,
  "\u2581Should": 2827,
  "\u2581kasapulanda": 2828,
  "\u2581populasion": 2829,
  "\u2581dakayo": 2830,
  "\u258126.": 2831,
  "\u2581adal": 2832,
  "\u2581international": 2833,
  "\u2581panagaramid": 2834,
  "\u2581ammoda": 2835,
  "\u2581dumteng": 2836,
  "ate": 2837,
  "me": 2838,
  "\u2581maus": 2839,
  "\u2581News": 2840,
  "\u2581increased": 2841,
  "nga": 2842,
  "\u2581display": 2843,
  "\u2581affected": 2844,
  "\u2581instead": 2845,
  "ment": 2846,
  "more": 2847,
  "\u2581aware": 2848,
  "\u2581dayaw": 2849,
  "\u2581immay": 2850,
  "\u2581reached": 2851,
  "\u2581standing": 2852,
  "\u2581UN": 2853,
  "\u2581gapuna": 2854,
  "\u2581inusar": 2855,
  "\u2581linaon": 2856,
  "\u2581lakayna": 2857,
  "ab": 2858,
  "ge": 2859,
  "\u2581balud": 2860,
  "\u2581center": 2861,
  "\u2581isip": 2862,
  "\u2581manamati": 2863,
  "\u2581watch": 2864,
  "Do": 2865,
  "\u2581ekonomia": 2866,
  "\u2581Eden": 2867,
  "\u2581enemies": 2868,
  "\u2581step": 2869,
  "\u2581thousand": 2870,
  "\u2581agadal": 2871,
  "\u2581continues": 2872,
  "\u2581amount": 2873,
  "\u2581debosion": 2874,
  "\u2581visited": 2875,
  "\u2581Kabsat": 2876,
  "\u2581military": 2877,
  "\u2581cells": 2878,
  "\u2581despite": 2879,
  "\u2581ebidensia": 2880,
  "\u2581Mount": 2881,
  "\u2581carried": 2882,
  "\u2581napudno": 2883,
  "\u2581agbasa": 2884,
  "\u2581karkarna": 2885,
  "\u2581patarus": 2886,
  "\u2581points": 2887,
  "\u2581sacred": 2888,
  "\u2581Other": 2889,
  "\u2581dimo": 2890,
  "\u2581opened": 2891,
  "\u2581economic": 2892,
  "\u2581makapa": 2893,
  "\u2581pasdek": 2894,
  "\u2581Italia": 2895,
  "\u2581approach": 2896,
  "\u2581Union": 2897,
  "\u2581Paraiso": 2898,
  "\u2581ababa": 2899,
  "\u2581bagitayo": 2900,
  "\u2581inlawlawag": 2901,
  "\u2581extreme": 2902,
  "\u2581Amana": 2903,
  "ive": 2904,
  "\u2581Only": 2905,
  "\u2581edukasion": 2906,
  "\u2581naglaon": 2907,
  "\u2581Once": 2908,
  "\u2581mountain": 2909,
  "\u2581tribulation": 2910,
  "\u2581Kayat": 2911,
  "\u2581nailanad": 2912,
  "\u2581reflect": 2913,
  "\u2581claim": 2914,
  "\u2581pakdaar": 2915,
  "\u2581Britania": 2916,
  "ke": 2917,
  "\u2581naammuan": 2918,
  "\u2581responsible": 2919,
  "\u2581average": 2920,
  "\u2581dedicated": 2921,
  "\u2581kakaisuna": 2922,
  "\u258138": 2923,
  "\u2581crime": 2924,
  "\u2581drink": 2925,
  "\u2581story": 2926,
  "\u2581writer": 2927,
  "\u2581Inton": 2928,
  "\u2581Was": 2929,
  "\u2581imperfect": 2930,
  "\u2581sight": 2931,
  "\u2581tawenna": 2932,
  "\u2581abilidad": 2933,
  "\u2581global": 2934,
  "\u2581pannakaisalakan": 2935,
  "\u2581Makatulong": 2936,
  "\u2581brings": 2937,
  "\u2581cost": 2938,
  "\u2581kellaat": 2939,
  "\u2581nanipud": 2940,
  "\u2581din": 2941,
  "\u2581personalidad": 2942,
  "\u2581probably": 2943,
  "\u2581estilo": 2944,
  "\u2581humble": 2945,
  "\u2581break": 2946,
  "\u2581existence": 2947,
  "\u2581victims": 2948,
  "\u2581becomes": 2949,
  "\u2581declared": 2950,
  "\u2581doctors": 2951,
  "\u2581experiences": 2952,
  "\u2581black": 2953,
  "\u2581Here": 2954,
  "\u2581contrast": 2955,
  "\u2581espesipiko": 2956,
  "\u2581overseer": 2957,
  "\u2581pangngeddeng": 2958,
  "\u2581epektona": 2959,
  "\u2581importance": 2960,
  "\u2581Naimbag": 2961,
  "\u2581awagan": 2962,
  "ot": 2963,
  "awan": 2964,
  "\u2581relative": 2965,
  "\u2581responsabilidad": 2966,
  "\u2581uni": 2967,
  "\u2581Remember": 2968,
  "\u2581concerned": 2969,
  "\u2581neighbor": 2970,
  "1": 2971,
  "\u2581Translation": 2972,
  "\u2581pagan": 2973,
  "\u2581makisarita": 2974,
  "\u2581plant": 2975,
  "\u2581walo": 2976,
  "\u2581teachers": 2977,
  "\u2581Kitaenyo": 2978,
  "\u2581nalabes": 2979,
  "\u2581metal": 2980,
  "\u2581orihinal": 2981,
  "\u2581High": 2982,
  "\u2581nangaramid": 2983,
  "\u2581tinapay": 2984,
  "\u2581nabautisaran": 2985,
  "\u2581particular": 2986,
  "\u2581writing": 2987,
  "sion": 2988,
  "\u2581gas": 2989,
  "\u2581consequences": 2990,
  "\u2581aktibo": 2991,
  "\u2581effective": 2992,
  "\u2581effects": 2993,
  "\u2581faced": 2994,
  "\u2581Clearly": 2995,
  "\u2581attended": 2996,
  "\u2581command": 2997,
  "\u2581household": 2998,
  "\u2581napatpateg": 2999,
  "\u2581Joshua": 3000,
  "\u2581dinakamat": 3001,
  "\u2581growth": 3002,
  "\u2581limited": 3003,
  "\u2581persecution": 3004,
  "\u2581Aniaman": 3005,
  "\u25811993": 3006,
  "\u2581sipud": 3007,
  "\u2581edad": 3008,
  "\u2581genuine": 3009,
  "\u2581kadin": 3010,
  "\u2581low": 3011,
  "\u2581sika": 3012,
  "\u2581solusion": 3013,
  "\u2581involves": 3014,
  "\u2581mangisuro": 3015,
  "\u2581annongen": 3016,
  "\u2581sada": 3017,
  "\u2581sanguanan": 3018,
  "\u2581lose": 3019,
  "ya": 3020,
  "\u2581Me": 3021,
  "\u2581mangpa": 3022,
  "\u2581Organization": 3023,
  "\u2581minuto": 3024,
  "\u258116]": 3025,
  "\u2581biagtayo": 3026,
  "\u2581kinapudnona": 3027,
  "\u2581looked": 3028,
  "\u258142": 3029,
  "\u2581Saona": 3030,
  "\u2581recognize": 3031,
  "\u2581utek": 3032,
  "\u2581mercy": 3033,
  "\u2581race": 3034,
  "\u2581dedication": 3035,
  "\u2581attack": 3036,
  "\u2581court": 3037,
  "\u2581Paris": 3038,
  "\u2581agibumbunannag": 3039,
  "\u2581co": 3040,
  "\u2581kapatgan": 3041,
  "\u2581wives": 3042,
  "eng": 3043,
  "\u25811992": 3044,
  "\u25814;": 3045,
  "\u2581event": 3046,
  "io": 3047,
  "\u2581run": 3048,
  "nu": 3049,
  "\u2581Nasken": 3050,
  "hi": 3051,
  "\u2581Finally": 3052,
  "\u2581alcohol": 3053,
  "\u2581kahon": 3054,
  "\u2581mamagbalin": 3055,
  "\u25811995": 3056,
  "\u2581forget": 3057,
  "\u2581yourselves": 3058,
  "\u2581creatures": 3059,
  "\u2581taaw": 3060,
  "\u2581kinahustisia": 3061,
  "\u2581rain": 3062,
  "\u2581closer": 3063,
  "\u2581evening": 3064,
  "\u2581worth": 3065,
  "\u2581Spain": 3066,
  "\u2581desires": 3067,
  "\u2581elderly": 3068,
  "\u2581magna": 3069,
  "\u2581nasaknap": 3070,
  "\u2581vision": 3071,
  "\u2581save": 3072,
  "\u2581translation": 3073,
  "\u2581um": 3074,
  "we": 3075,
  "\u2581maliklikan": 3076,
  "\u2581placed": 3077,
  "\u2581Kunana": 3078,
  "\u2581leading": 3079,
  "\u2581minister": 3080,
  "\u2581publications": 3081,
  "\u2581agree": 3082,
  "\u2581kotse": 3083,
  "\u2581mapagtalkan": 3084,
  "\u2581pammatida": 3085,
  "\u2581produkto": 3086,
  "\u2581mas": 3087,
  "\u2581names": 3088,
  "\u2581seeing": 3089,
  "\u2581n": 3090,
  "\u2581naaddaan": 3091,
  "\u2581search": 3092,
  "\u2581August": 3093,
  "men": 3094,
  "\u2581Among": 3095,
  "\u2581Ebanghelio": 3096,
  "\u2581altar": 3097,
  "\u2581chosen": 3098,
  "\u2581due": 3099,
  "\u2581wine": 3100,
  "\u2581Under": 3101,
  "\u2581ibagbaga": 3102,
  "\u2581komunidad": 3103,
  "\u2581affection": 3104,
  "\u2581panangipakita": 3105,
  "\u2581Robert": 3106,
  "\u2581flock": 3107,
  "\u2581klero": 3108,
  "\u2581nagtultuloy": 3109,
  "\u2581spoken": 3110,
  "\u2581Italy": 3111,
  "\u2581unity": 3112,
  "que": 3113,
  "\u2581image": 3114,
  "\u2581warm": 3115,
  "\u2581Version": 3116,
  "\u2581answered": 3117,
  "\u2581higher": 3118,
  "\u2581village": 3119,
  "\u2581baketna": 3120,
  "\u2581makapag": 3121,
  "\u2581pure": 3122,
  "\u258113]": 3123,
  "\u2581nangted": 3124,
  "\u25811997": 3125,
  "\u2581Institute": 3126,
  "like": 3127,
  "\u2581viewed": 3128,
  "\u00e1": 3129,
  "\u2581Usigenyo": 3130,
  "\u258127.": 3131,
  "\u2581negative": 3132,
  "\u2581panangiwanwan": 3133,
  "\u2581sort": 3134,
  "\u2581Daydiay": 3135,
  "\u2581makaparagsak": 3136,
  "\u2581timek": 3137,
  "tor": 3138,
  "lay": 3139,
  "pal": 3140,
  "\u2581Day": 3141,
  "\u2581East": 3142,
  "\u2581factors": 3143,
  "\u2581Lines": 3144,
  "\u2581includes": 3145,
  "\u2581ipakitana": 3146,
  "\u2581panunoten": 3147,
  "\u2581weight": 3148,
  "akto": 3149,
  "\u2581cover": 3150,
  "\u2581iglesia": 3151,
  "\u2581level": 3152,
  "\u2581maikatlo": 3153,
  "\u2581nairaman": 3154,
  "\u2581practices": 3155,
  "\u2581virus": 3156,
  "\u2581Inlawlawag": 3157,
  "\u2581dimteng": 3158,
  "\u2581kaano": 3159,
  "\u2581agpada": 3160,
  "\u2581hearing": 3161,
  "\u2581conclusion": 3162,
  "\u2581panagsao": 3163,
  "\u2581principle": 3164,
  "up": 3165,
  "du": 3166,
  "rs": 3167,
  "\u2581Readers": 3168,
  "\u2581puraw": 3169,
  "\u2581failed": 3170,
  "\u2581pasurot": 3171,
  "and": 3172,
  "ho": 3173,
  "ah": 3174,
  "kayto": 3175,
  "\u2581violent": 3176,
  "\u2581agar": 3177,
  "\u2581publishers": 3178,
  "\u2581refused": 3179,
  "\u2581sagrado": 3180,
  "\u2581kankanayon": 3181,
  "\u2581PAGE": 3182,
  "\u2581kings": 3183,
  "\u2581magunggonaan": 3184,
  "\u2581nakapuy": 3185,
  "\u2581billion": 3186,
  "\u2581nagsurat": 3187,
  "\u2581telebision": 3188,
  "ted": 3189,
  "\u2581Am": 3190,
  "\u2581Un": 3191,
  "\u2581naindaklan": 3192,
  "\u2581train": 3193,
  "all": 3194,
  "ie": 3195,
  "\u2581Earth": 3196,
  "\u2581mapukaw": 3197,
  "\u2581hundred": 3198,
  "\u2581reasonable": 3199,
  "\u2581PANID": 3200,
  "\u2581behalf": 3201,
  "\u2581goals": 3202,
  "\u2581kanser": 3203,
  "\u2581libre": 3204,
  "\u2581manner": 3205,
  "\u2581nauneg": 3206,
  "\u2581Spanish": 3207,
  "\u2581kurang": 3208,
  "\u2581lallakay": 3209,
  "\u2581specific": 3210,
  "\u2581nangi": 3211,
  "\u2581situtulok": 3212,
  "\u2581sana": 3213,
  "\u2581baba": 3214,
  "\u2581impaay": 3215,
  "\u2581milagro": 3216,
  "\u2581remained": 3217,
  "mang": 3218,
  "\u2581lattan": 3219,
  "\u2581talking": 3220,
  "\u2581greatly": 3221,
  "Let": 3222,
  "\u258130.": 3223,
  "\u2581designed": 3224,
  "\u2581drinking": 3225,
  "\u2581pagannurotan": 3226,
  "\u2581Elias": 3227,
  "\u2581River": 3228,
  "\u2581attending": 3229,
  "\u2581makatawen": 3230,
  "\u2581naranggas": 3231,
  "\u2581occur": 3232,
  "\u2581tongue": 3233,
  "\u258135.": 3234,
  "\u258155": 3235,
  "\u2581imagine": 3236,
  "\u2581requires": 3237,
  "\u2581developing": 3238,
  "\u2581naballigi": 3239,
  "\u2581William": 3240,
  "\u2581bus": 3241,
  "\u2581community": 3242,
  "\u2581kinapakumbaba": 3243,
  "\u2581mabasa": 3244,
  "\u2581natalna": 3245,
  "\u2581plants": 3246,
  "\u2581remains": 3247,
  "\u2581situasion": 3248,
  "\u2581forms": 3249,
  "\u2581timmabuno": 3250,
  "\u2581BY": 3251,
  "\u2581Pannaka": 3252,
  "\u2581cancer": 3253,
  "\u2581kinatalged": 3254,
  "\u2581politika": 3255,
  "\u2581accounts": 3256,
  "\u2581aduan": 3257,
  "\u2581lana": 3258,
  "\u2581ginasut": 3259,
  "\u2581Al": 3260,
  "\u2581illness": 3261,
  "\u2581response": 3262,
  "\u2581measure": 3263,
  "\u2581size": 3264,
  "\u2581wide": 3265,
  "\u2581West": 3266,
  "\u2581fill": 3267,
  "\u2581sipapasnek": 3268,
  "\u2581angel": 3269,
  "\u2581total": 3270,
  "\u2581army": 3271,
  "\u2581ayaten": 3272,
  "\u2581baka": 3273,
  "\u2581forest": 3274,
  "\u2581interes": 3275,
  "\u2581tears": 3276,
  "\u258148": 3277,
  "\u2581Bagi": 3278,
  "\u2581improve": 3279,
  "\u2581nagtalinaed": 3280,
  "\u2581tren": 3281,
  "\u2581warned": 3282,
  "\u258114;": 3283,
  "\u2581biddut": 3284,
  "\u2581dumngeg": 3285,
  "\u2581top": 3286,
  "\u2581doktrina": 3287,
  "\u2581ilustrasion": 3288,
  "\u2581lie": 3289,
  "\u2581dios": 3290,
  "\u2581examine": 3291,
  "\u2581thank": 3292,
  "\u2581appeared": 3293,
  "\u2581asking": 3294,
  "\u2581pioneers": 3295,
  "ck": 3296,
  "\u2581Nabatad": 3297,
  "\u2581pinag": 3298,
  "\u2581Testament": 3299,
  "\u2581Usigentayo": 3300,
  "\u2581concerning": 3301,
  "\u2581listed": 3302,
  "\u2581truths": 3303,
  "\u2581values": 3304,
  "He": 3305,
  "\u2581Britain": 3306,
  "\u2581Eclesiastes": 3307,
  "\u25811991": 3308,
  "\u25815]": 3309,
  "\u2581Ecclesiastes": 3310,
  "\u2581grew": 3311,
  "\u2581surface": 3312,
  "land": 3313,
  "\u2581expected": 3314,
  "\u2581non": 3315,
  "\u2581association": 3316,
  "\u258133.": 3317,
  "\u2581April": 3318,
  "dakkel": 3319,
  "\u2581termino": 3320,
  "\u2581Abril": 3321,
  "\u2581Ammo": 3322,
  "\u2581relatives": 3323,
  "\u2581300": 3324,
  "\u2581magazines": 3325,
  "\u2581Mother": 3326,
  "\u2581company": 3327,
  "\u2581tangay": 3328,
  "gsipud": 3329,
  "\u2581Lot": 3330,
  "\u2581issues": 3331,
  "\u2581discuss": 3332,
  "\u2581putt": 3333,
  "\u2581reality": 3334,
  "\u2581Without": 3335,
  "\u2581kinasirib": 3336,
  "\u2581valuable": 3337,
  "natayo": 3338,
  "\u2581bangir": 3339,
  "\u2581historiador": 3340,
  "\u2581kill": 3341,
  "\u2581arrangement": 3342,
  "\u2581si": 3343,
  "\u2581skin": 3344,
  "\u2581wild": 3345,
  "\u2581cultivate": 3346,
  "\u2581join": 3347,
  "\u2581observe": 3348,
  "\u2581secret": 3349,
  "\u2581San": 3350,
  "\u2581belief": 3351,
  "\u2581foot": 3352,
  "enyo": 3353,
  "\u2581agbuteng": 3354,
  "\u2581anian": 3355,
  "\u2581merely": 3356,
  "\u2581nagkuna": 3357,
  "\u2581quoted": 3358,
  "\u2581sharing": 3359,
  "\u2581itay": 3360,
  "\u2581tribu": 3361,
  "tar": 3362,
  "\u2581Philippians": 3363,
  "\u2581kukua": 3364,
  "\u2581managbasol": 3365,
  "\u2581napakumbaba": 3366,
  "saan": 3367,
  "tic": 3368,
  "\u2581Aya": 3369,
  "\u2581sadino": 3370,
  "\u2581seed": 3371,
  "\u2581Really": 3372,
  "\u2581ammotayo": 3373,
  "\u2581minutes": 3374,
  "\u2581rekord": 3375,
  "op": 3376,
  "\u2581bilion": 3377,
  "\u2581Parents": 3378,
  "\u2581box": 3379,
  "\u2581buya": 3380,
  "\u2581convinced": 3381,
  "\u2581urged": 3382,
  "\u2581appears": 3383,
  "\u2581bread": 3384,
  "\u2581napolitikaan": 3385,
  "\u2581religions": 3386,
  "\u2581resurrected": 3387,
  "\u2581harm": 3388,
  "\u2581media": 3389,
  "\u2581illustration": 3390,
  "\u2581vast": 3391,
  "\u2581communication": 3392,
  "\u2581decades": 3393,
  "\u2581gone": 3394,
  "\u2581nalaklaka": 3395,
  "\u2581note": 3396,
  "\u2581Land": 3397,
  "\u2581kaaduanna": 3398,
  "\u2581nagsubli": 3399,
  "\u2581pagiwarnak": 3400,
  "\u2581sacrifices": 3401,
  "\u2581matulongan": 3402,
  "\u2581pungtot": 3403,
  "\u2581bituen": 3404,
  "\u2581focus": 3405,
  "\u2581presented": 3406,
  "\u2581Nasayaat": 3407,
  "\u2581describes": 3408,
  "\u2581foreign": 3409,
  "This": 3410,
  "\u2581opposition": 3411,
  "\u25812,000": 3412,
  "\u2581nakaam": 3413,
  "\u2581Iglesia": 3414,
  "\u2581dayag": 3415,
  "\u2581gameng": 3416,
  "\u2581siasinoman": 3417,
  "\u2581waters": 3418,
  "\u2581Orthodox": 3419,
  "\u2581atap": 3420,
  "\u2581huge": 3421,
  "\u2581travel": 3422,
  "\u2581mangay": 3423,
  "\u2581rock": 3424,
  "\u2581verse": 3425,
  "gan": 3426,
  "\u2581kanito": 3427,
  "ber": 3428,
  "\u258110;": 3429,
  "\u25812000": 3430,
  "\u2581direksion": 3431,
  "\u2581divorce": 3432,
  "\u2581kasapulantayo": 3433,
  "\u2581basaen": 3434,
  "\u2581cold": 3435,
  "\u2581kaunaan": 3436,
  "\u2581naipaltiing": 3437,
  "\u2581pass": 3438,
  "\u2581manglapped": 3439,
  "\u2581overcome": 3440,
  "et": 3441,
  "ten": 3442,
  "\u2581Colosas": 3443,
  "\u2581atension": 3444,
  "\u2581maikkat": 3445,
  "\u2581nagbiag": 3446,
  "\u2581prepare": 3447,
  "ud": 3448,
  "\u2581appearance": 3449,
  "\u2581nakitana": 3450,
  "\u2581nariribuk": 3451,
  "\u2581panangukom": 3452,
  "\u2581personally": 3453,
  "\u2581comments": 3454,
  "\u2581isursuro": 3455,
  "\u2581napaut": 3456,
  "\u2581napukaw": 3457,
  "\u2581Center": 3458,
  "\u2581Human": 3459,
  "\u2581churches": 3460,
  "\u2581kakasta": 3461,
  "\u2581ngato": 3462,
  "anyo": 3463,
  "\u2581addaanda": 3464,
  "\u2581pamiliada": 3465,
  "\u258123,": 3466,
  "\u2581puli": 3467,
  "\u2581pannakaseknan": 3468,
  "\u2581situations": 3469,
  "\u2581Journal": 3470,
  "\u2581fail": 3471,
  "\u2581girls": 3472,
  "\u2581sumaruno": 3473,
  "\u2581tumabuno": 3474,
  "\u2581battle": 3475,
  "ip": 3476,
  "\u2581Bantay": 3477,
  "\u2581pammatitayo": 3478,
  "\u2581Mayo": 3479,
  "\u2581Michael": 3480,
  "\u2581delight": 3481,
  "\u2581detalye": 3482,
  "\u2581lesson": 3483,
  "\u2581contains": 3484,
  "\u2581camp": 3485,
  "\u2581poverty": 3486,
  "\u2581damage": 3487,
  "\u2581espiritualidad": 3488,
  "\u2581panagbasa": 3489,
  "\u2581fell": 3490,
  "\u2581nakalkaldaang": 3491,
  "\u2581George": 3492,
  "\u2581agtalek": 3493,
  "\u2581assawa": 3494,
  "\u2581langa": 3495,
  "\u2581student": 3496,
  "\u2581Aleman": 3497,
  "\u2581Kabayatan": 3498,
  "\u2581korte": 3499,
  "\u2581rehion": 3500,
  "\u2581Disiembre": 3501,
  "\u2581Sal": 3502,
  "\u2581konsiensia": 3503,
  "\u2581California": 3504,
  "\u2581Pay": 3505,
  "\u2581annakyo": 3506,
  "\u2581patients": 3507,
  "\u2581500": 3508,
  "\u2581makina": 3509,
  "\u2581wars": 3510,
  "When": 3511,
  "ary": 3512,
  "\u2581Addaan": 3513,
  "\u2581imperpekto": 3514,
  "\u2581mo": 3515,
  "\u2581paper": 3516,
  "\u2581awaten": 3517,
  "\u2581nasarakan": 3518,
  "\u2581Hitler": 3519,
  "\u2581forces": 3520,
  "\u25816]": 3521,
  "\u2581Dagita": 3522,
  "\u2581region": 3523,
  "\u2581successful": 3524,
  "\u2581Dua": 3525,
  "\u2581loyalty": 3526,
  "There": 3527,
  "\u2581request": 3528,
  "\u2581Elijah": 3529,
  "\u2581challenges": 3530,
  "\u2581diseases": 3531,
  "\u2581direct": 3532,
  "\u2581kinaimbag": 3533,
  "\u2581rejoice": 3534,
  "\u258121]": 3535,
  "\u2581Nasurok": 3536,
  "\u2581card": 3537,
  "\u2581purposes": 3538,
  "\u2581Kayatko": 3539,
  "\u2581gifts": 3540,
  "\u2581disiplina": 3541,
  "\u2581rate": 3542,
  "\u2581sabong": 3543,
  "\u2581gayam": 3544,
  "\u2581marikna": 3545,
  "\u2581survive": 3546,
  "\u2581Sometimes": 3547,
  "\u2581exist": 3548,
  "\u2581kabaelanna": 3549,
  "\u2581pana": 3550,
  "\u2581Anna": 3551,
  "\u2581Karaman": 3552,
  "\u2581enter": 3553,
  "\u2581grateful": 3554,
  "\u2581mayat": 3555,
  "\u2581July": 3556,
  "\u2581tignay": 3557,
  "\u2581Imbaga": 3558,
  "\u2581Kunaen": 3559,
  "\u2581busy": 3560,
  "\u2581lies": 3561,
  "Ni": 3562,
  "\u2581estimated": 3563,
  "\u2581indicate": 3564,
  "\u2581sentro": 3565,
  "\u2581Sunday": 3566,
  "\u2581variety": 3567,
  "kin": 3568,
  "\u2581Judas": 3569,
  "\u2581pakasuotan": 3570,
  "\u2581safe": 3571,
  "\u2581(1)": 3572,
  "\u2581panagkararag": 3573,
  "\u2581purok": 3574,
  "v": 3575,
  "\u2581balo": 3576,
  "\u2581formed": 3577,
  "\u2581hot": 3578,
  "\u2581opening": 3579,
  "\u2581opinion": 3580,
  "\u2581positibo": 3581,
  "\u2581reveal": 3582,
  "\u2581tulongan": 3583,
  "pan": 3584,
  "\u2581Asino": 3585,
  "\u2581Body": 3586,
  "\u2581insuratna": 3587,
  "\u2581pusotayo": 3588,
  "\u2581sadinoman": 3589,
  "\u2581healthy": 3590,
  "\u2581December": 3591,
  "\u2581Hulio": 3592,
  "\u2581beauty": 3593,
  "\u2581extent": 3594,
  "\u2581guard": 3595,
  "\u2581guide": 3596,
  "\u2581Nang": 3597,
  "\u2581ipapatayna": 3598,
  "\u2581makuna": 3599,
  "\u258144": 3600,
  "\u2581Agosto": 3601,
  "\u2581Help": 3602,
  "\u2581aggapu": 3603,
  "\u2581associated": 3604,
  "\u2581national": 3605,
  "les": 3606,
  "\u2581gods": 3607,
  "\u2581helpful": 3608,
  "\u2581letters": 3609,
  "\u2581severe": 3610,
  "\u2581pagay": 3611,
  "\u2581timmulong": 3612,
  "\u2581agsapa": 3613,
  "\u2581aramidenyo": 3614,
  "\u2581tulongannatayo": 3615,
  "\u2581uses": 3616,
  "\u2581welcome": 3617,
  "\u2581aid": 3618,
  "\u2581encouraging": 3619,
  "\u2581nagtaud": 3620,
  "\u2581sangakabbalayan": 3621,
  "\u2581(2)": 3622,
  "\u2581kaitungpalan": 3623,
  "\u2581mangdadael": 3624,
  "V": 3625,
  "\u2581wait": 3626,
  "tayon": 3627,
  "\u2581correct": 3628,
  "va": 3629,
  "\u25818]": 3630,
  "\u2581careful": 3631,
  "\u2581emosional": 3632,
  "\u2581maar": 3633,
  "\u2581ministeri": 3634,
  "\u2581wind": 3635,
  "\u2581apagbiit": 3636,
  "\u2581color": 3637,
  "\u2581degree": 3638,
  "\u2581listening": 3639,
  "W": 3640,
  "tin": 3641,
  "\u2581agur": 3642,
  "\u2581aspeto": 3643,
  "\u2581credit": 3644,
  "\u2581mere": 3645,
  "\u2581writes": 3646,
  "\u258141": 3647,
  "\u2581discussion": 3648,
  "\u2581kemikal": 3649,
  "\u2581tradision": 3650,
  "\u2581younger": 3651,
  "\u2581Mo": 3652,
  "\u2581agay": 3653,
  "\u2581boluntario": 3654,
  "\u2581September": 3655,
  "\u2581agtuturay": 3656,
  "\u2581impressed": 3657,
  "\u2581saanto": 3658,
  "\u2581teritoria": 3659,
  "\u2581Cain": 3660,
  "\u2581garden": 3661,
  "\u2581space": 3662,
  "\u2581construction": 3663,
  "\u2581masakbayan": 3664,
  "\u2581Republic": 3665,
  "\u2581agbalinda": 3666,
  "\u2581secular": 3667,
  "\u2581statement": 3668,
  "\u2581Biblical": 3669,
  "\u2581singasing": 3670,
  "Adda": 3671,
  "mon": 3672,
  "\u2581anxiety": 3673,
  "\u2581scientific": 3674,
  "ies": 3675,
  "\u2581Baybay": 3676,
  "\u2581Take": 3677,
  "\u2581broshur": 3678,
  "\u2581judge": 3679,
  "\u2581pagannayasan": 3680,
  "\u2581rise": 3681,
  "\u2581television": 3682,
  "\u2581referred": 3683,
  "\u2581Pranses": 3684,
  "\u2581male": 3685,
  "\u2581napapatay": 3686,
  "\u2581endurance": 3687,
  "\u2581makapapatay": 3688,
  "\u2581nadadael": 3689,
  "\u2581nagpa": 3690,
  "\u2581studied": 3691,
  "\u2581adults": 3692,
  "\u2581Pennsylvania": 3693,
  "\u2581buy": 3694,
  "\u2581karaman": 3695,
  "\u2581saved": 3696,
  "0,000": 3697,
  "\u2581balasang": 3698,
  "\u2581humility": 3699,
  "\u2581okasion": 3700,
  "\u2581organized": 3701,
  "\u2581kaduana": 3702,
  "ww": 3703,
  "\u2581June": 3704,
  "\u2581maaw": 3705,
  "uan": 3706,
  "\u2581Kaaduan": 3707,
  "\u2581advantage": 3708,
  "\u2581conversation": 3709,
  "\u2581pannakilangen": 3710,
  "\u2581saantayo": 3711,
  "uk": 3712,
  "\u2581Court": 3713,
  "\u2581HIV": 3714,
  "\u2581Oktubre": 3715,
  "\u2581acceptable": 3716,
  "\u2581padana": 3717,
  "\u2581caring": 3718,
  "\u2581maragsakan": 3719,
  "\u2581financial": 3720,
  "\u2581treated": 3721,
  "\u2581Faith": 3722,
  "\u2581natakuatan": 3723,
  "\u2581territory": 3724,
  "ipud": 3725,
  "\u258143": 3726,
  "\u2581Being": 3727,
  "\u2581count": 3728,
  "\u2581insekto": 3729,
  "\u2581leaving": 3730,
  "\u2581amang": 3731,
  "\u2581bringing": 3732,
  "\u2581estoria": 3733,
  "\u2581Work": 3734,
  "\u2581god": 3735,
  "\u2581wish": 3736,
  "\u2581inhabitants": 3737,
  "\u2581Island": 3738,
  "\u2581forgive": 3739,
  "\u2581obedient": 3740,
  "\u2581tumaud": 3741,
  "\u258139": 3742,
  "\u2581capital": 3743,
  "\u2581pusona": 3744,
  "\u2581understood": 3745,
  "Ag": 3746,
  "\u2581fast": 3747,
  "\u2581inkari": 3748,
  "\u2581prophecies": 3749,
  "\u2581sincere": 3750,
  "kamin": 3751,
  "\u2581Josue": 3752,
  "\u2581silaw": 3753,
  "\u258125,": 3754,
  "\u2581ibubusor": 3755,
  "\u2581lider": 3756,
  "\u2581maipakita": 3757,
  "ph": 3758,
  "sen": 3759,
  "\u25811,000": 3760,
  "\u2581Christmas": 3761,
  "\u2581Mainayon": 3762,
  "\u2581internasional": 3763,
  "\u2581panagsirarak": 3764,
  "\u2581obedience": 3765,
  "\u2581Dikay": 3766,
  "\u2581surely": 3767,
  "kas": 3768,
  "\u2581agnaed": 3769,
  "\u2581saanak": 3770,
  "\u2581Exodus": 3771,
  "\u2581minds": 3772,
  "\u2581nangatngato": 3773,
  "\u25813;": 3774,
  "\u2581hair": 3775,
  "\u2581essential": 3776,
  "\u2581kadakkel": 3777,
  "\u2581panagbiagda": 3778,
  "\u2581Museum": 3779,
  "\u2581escape": 3780,
  "\u2581hurt": 3781,
  "\u2581moving": 3782,
  "\u2581October": 3783,
  "\u2581prospect": 3784,
  "mer": 3785,
  "ub": 3786,
  "\u2581Galacia": 3787,
  "\u2581panagtignay": 3788,
  "\u2581applied": 3789,
  "\u2581consideration": 3790,
  "\u2581panangidumduma": 3791,
  "\u2581panguluen": 3792,
  "\u2581pleasure": 3793,
  "min": 3794,
  "\u2581Dika": 3795,
  "\u2581Enero": 3796,
  "\u2581Kaano": 3797,
  "\u2581Nagbalin": 3798,
  "\u2581agtulnog": 3799,
  "\u2581akem": 3800,
  "\u2581nakabasol": 3801,
  "\u2581siled": 3802,
  "\u2581trained": 3803,
  "\u2581Agingga": 3804,
  "\u2581Questions": 3805,
  "\u2581adut": 3806,
  "\u2581eksakto": 3807,
  "\u2581pre": 3808,
  "den": 3809,
  "\u2581immoral": 3810,
  "\u2581mountains": 3811,
  "\u2581proyekto": 3812,
  "ita": 3813,
  "\u2581Basaen": 3814,
  "\u2581agusar": 3815,
  "\u2581concluded": 3816,
  "\u2581leksion": 3817,
  "\u2581phone": 3818,
  "\u2581piesta": 3819,
  "one": 3820,
  "\u2581Ezekiel": 3821,
  "\u2581Li": 3822,
  "\u2581Service": 3823,
  "\u2581Si": 3824,
  "\u2581list": 3825,
  "\u2581nakapatpateg": 3826,
  "\u2581development": 3827,
  "\u2581eternal": 3828,
  "\u2581generation": 3829,
  "\u2581rights": 3830,
  "ken": 3831,
  "\u2581ninamnama": 3832,
  "KAYO": 3833,
  "ran": 3834,
  "\u2581Charles": 3835,
  "\u2581Naminsan": 3836,
  "\u2581Poland": 3837,
  "\u2581determinado": 3838,
  "\u2581stone": 3839,
  "par": 3840,
  "\u2581Ireland": 3841,
  "\u2581imbilin": 3842,
  "\u2581Ha": 3843,
  "\u2581drawn": 3844,
  "\u2581wen": 3845,
  "ver": 3846,
  "\u2581naam": 3847,
  "\u2581rumang": 3848,
  "wa": 3849,
  "\u2581aywan": 3850,
  "\u2581telepono": 3851,
  "\u2581Ko": 3852,
  "\u2581mangammo": 3853,
  "AR": 3854,
  "\u2581Hunio": 3855,
  "\u2581aramidek": 3856,
  "\u2581asino": 3857,
  "Awan": 3858,
  "ze": 3859,
  "\u2581Patien": 3860,
  "\u2581agdaldaliasat": 3861,
  "\u2581espesial": 3862,
  "\u2581forgiveness": 3863,
  "\u2581naited": 3864,
  "\u2581nasursurok": 3865,
  "der": 3866,
  "\u258132.": 3867,
  "\u2581medio": 3868,
  "\u2581Ezequiel": 3869,
  "\u2581leaves": 3870,
  "\u2581occurred": 3871,
  "ja": 3872,
  "\u2581hustisia": 3873,
  "\u2581reaksion": 3874,
  "\u2581Ra": 3875,
  "\u2581naipatarus": 3876,
  "\u2581style": 3877,
  "\u2581January": 3878,
  "\u2581baketko": 3879,
  "\u2581maay": 3880,
  "\u2581napartak": 3881,
  "\u2581abut": 3882,
  "\u2581pammaregta": 3883,
  "\u2581translated": 3884,
  "ong": 3885,
  "\u2581maadaltayo": 3886,
  "\u2581nagparang": 3887,
  "\u2581Colossians": 3888,
  "\u2581Tesalonica": 3889,
  "ista": 3890,
  "\u2581Don": 3891,
  "\u2581Nangrugi": 3892,
  "\u2581Setiembre": 3893,
  "\u2581anakmo": 3894,
  "\u2581below": 3895,
  "\u2581maminsan": 3896,
  "\u2581panangipateg": 3897,
  "\u2581preached": 3898,
  "\u2581seriously": 3899,
  "\u2581Kitaem": 3900,
  "\u2581Ministry": 3901,
  "\u2581friendship": 3902,
  "\u2581compassion": 3903,
  "\u2581makapainteres": 3904,
  "\u2581released": 3905,
  "\u2581setting": 3906,
  "\u2581shepherd": 3907,
  "\u2581March": 3908,
  "\u2581agkuna": 3909,
  "\u2581highly": 3910,
  "\u2581mangibaga": 3911,
  "\u2581Mar": 3912,
  "\u2581bodies": 3913,
  "\u2581gistay": 3914,
  "\u2581governments": 3915,
  "\u2581nearby": 3916,
  "\u2581planet": 3917,
  "\u2581Kasanotay": 3918,
  "\u2581Sin": 3919,
  "\u2581TO": 3920,
  "\u2581discussed": 3921,
  "\u2581evident": 3922,
  "\u2581unayen": 3923,
  "\u2581difference": 3924,
  "\u2581nadayaw": 3925,
  "AK": 3926,
  "\u2581panagturay": 3927,
  "\u2581pateg": 3928,
  "out": 3929,
  "\u2581balasitang": 3930,
  "\u2581nakakita": 3931,
  "\u2581nakem": 3932,
  "kar": 3933,
  "\u2581easier": 3934,
  "\u2581forced": 3935,
  "\u2581kalidad": 3936,
  "\u2581manang": 3937,
  "\u2581wealth": 3938,
  "ty": 3939,
  "\u2581buis": 3940,
  "\u2581culture": 3941,
  "\u2581marigatan": 3942,
  "\u2581matungpal": 3943,
  "\u2581pro": 3944,
  "\u2581sangsangkamaysa": 3945,
  "\u2581sovereignty": 3946,
  "\u2581Deuteronomio": 3947,
  "\u2581Deuteronomy": 3948,
  "\u2581tuladen": 3949,
  "\u2581Medical": 3950,
  "\u2581researchers": 3951,
  "\u2581trouble": 3952,
  "\u2581Baal": 3953,
  "\u2581emotions": 3954,
  "\u2581pakasdaawan": 3955,
  "\u2581superior": 3956,
  "\u2581Make": 3957,
  "\u2581mature": 3958,
  "ish": 3959,
  "\u2581blind": 3960,
  "\u2581causing": 3961,
  "\u2581reward": 3962,
  "tion": 3963,
  "\u2581Pamilia": 3964,
  "\u2581g": 3965,
  "\u2581naannad": 3966,
  "\u2581nasapa": 3967,
  "\u2581official": 3968,
  "\u2581powers": 3969,
  "\u25811996": 3970,
  "\u2581Aniada": 3971,
  "\u2581Con": 3972,
  "\u2581largest": 3973,
  "\u2581nakaparsuaan": 3974,
  "\u25811998": 3975,
  "\u2581mataginayon": 3976,
  "\u2581timmaud": 3977,
  "\u2581waiting": 3978,
  "\u2581fulfill": 3979,
  "\u2581inumen": 3980,
  "\u2581makaliwliwa": 3981,
  "\u2581neighbors": 3982,
  "\u2581sirkito": 3983,
  "\u2581surprise": 3984,
  "Compare": 3985,
  "our": 3986,
  "za": 3987,
  "\u2581Exodo": 3988,
  "\u2581porma": 3989,
  "\u2581supply": 3990,
  "\u2581tatangko": 3991,
  "\u2581Association": 3992,
  "\u2581Saludsod": 3993,
  "\u2581circuit": 3994,
  "\u2581facts": 3995,
  "\u2581panaglabas": 3996,
  "\u2581panagtrabaho": 3997,
  "tayto": 3998,
  "\u2581agbalinto": 3999,
  "\u2581nailista": 4000,
  "\u2581pagtaenganda": 4001,
  "\u2581team": 4002,
  "\u2581Thank": 4003,
  "\u2581Usigem": 4004,
  "\u2581bed": 4005,
  "\u2581ilawlawag": 4006,
  "ING": 4007,
  "\u2581offering": 4008,
  "\u2581Y": 4009,
  "\u2581potential": 4010,
  "\u2581pursue": 4011,
  "\u2581river": 4012,
  "\u2581joined": 4013,
  "\u2581Galatians": 4014,
  "\u2581Kasanotayo": 4015,
  "\u2581maulit": 4016,
  "ismo": 4017,
  "\u2581Pagarianna": 4018,
  "\u2581Tim": 4019,
  "\u2581mangsalaknib": 4020,
  "\u2581solution": 4021,
  "\u2581pammatina": 4022,
  "\u2581rummuar": 4023,
  "gen": 4024,
  "\u2581Both": 4025,
  "\u2581darkness": 4026,
  "\u2581describe": 4027,
  "\u2581insuro": 4028,
  "\u2581makapabileg": 4029,
  "IN": 4030,
  "\u2581pamiliak": 4031,
  "\u2581prophets": 4032,
  "\u2581aksidente": 4033,
  "\u2581famous": 4034,
  "\u2581librona": 4035,
  "\u2581naindagaan": 4036,
  "\u2581napalalo": 4037,
  "\u2581promote": 4038,
  "\u2581worse": 4039,
  "\u2581Eastern": 4040,
  "\u2581Judea": 4041,
  "\u2581complex": 4042,
  "\u2581cry": 4043,
  "\u2581ramanenna": 4044,
  "\u2581views": 4045,
  "RI": 4046,
  "\u2581commanded": 4047,
  "\u2581committed": 4048,
  "\u2581militar": 4049,
  "\u2581recognized": 4050,
  "\u2581slaves": 4051,
  "\u2581nine": 4052,
  "\u2581patience": 4053,
  "\u2581sit": 4054,
  "but": 4055,
  "\u2581boys": 4056,
  "\u2581covered": 4057,
  "\u2581meal": 4058,
  "\u2581panagdaydayaw": 4059,
  "\u2581Russian": 4060,
  "\u2581mabayag": 4061,
  "\u2581naibasar": 4062,
  "\u2581saanmo": 4063,
  "My": 4064,
  "\u2581agballigi": 4065,
  "\u2581lakayko": 4066,
  "nag": 4067,
  "\u2581Go": 4068,
  "\u2581Nasantuan": 4069,
  "\u2581carrying": 4070,
  "\u2581indicates": 4071,
  "\u2581majority": 4072,
  "\u2581Every": 4073,
  "\u2581bumusbusor": 4074,
  "\u2581entertainment": 4075,
  "\u2581mangusar": 4076,
  "\u258112]": 4077,
  "tra": 4078,
  "\u258146": 4079,
  "\u2581adulto": 4080,
  "\u2581evidently": 4081,
  "\u2581factor": 4082,
  "\u2581likewise": 4083,
  "\u2581pangrugian": 4084,
  "\u2581sirmata": 4085,
  "\u2581subjects": 4086,
  "qui": 4087,
  "\u2581NI": 4088,
  "\u2581beneficial": 4089,
  "\u2581destroy": 4090,
  "\u2581k": 4091,
  "\u2581naki": 4092,
  "\u2581rikrikna": 4093,
  "\u2581survey": 4094,
  "ler": 4095,
  "\u2581Has": 4096,
  "\u2581Nigeria": 4097,
  "\u2581entered": 4098,
  "\u2581impossible": 4099,
  "\u2581teaches": 4100,
  "responsibilities": 4101,
  "\u2581pannakaidadanes": 4102,
  "\u2581stopped": 4103,
  "\u2581bukel": 4104,
  "\u2581iron": 4105,
  "\u2581panamati": 4106,
  "\u2581pannakai": 4107,
  "\u2581confident": 4108,
  "\u2581disciple": 4109,
  "\u2581heat": 4110,
  "\u2581inauna": 4111,
  "\u2581masakit": 4112,
  "\u2581natan": 4113,
  "\u2581offspring": 4114,
  "\u2581pannakapnek": 4115,
  "\u2581serye": 4116,
  "\u2581worshipers": 4117,
  "\u258126,": 4118,
  "\u2581Abel": 4119,
  "\u2581Bueno": 4120,
  "\u2581OF": 4121,
  "\u2581Western": 4122,
  "\u2581distress": 4123,
  "\u2581ibilang": 4124,
  "\u2581teoria": 4125,
  "\u2581Marso": 4126,
  "\u2581Ro": 4127,
  "\u2581iyaadu": 4128,
  "\u2581malapdan": 4129,
  "\u2581react": 4130,
  "DIAY": 4131,
  "\u2581agbalbaliw": 4132,
  "\u2581teknolohia": 4133,
  "\u2581enemy": 4134,
  "\u2581smoking": 4135,
  "\u2581strive": 4136,
  "\u2581Naragsak": 4137,
  "\u2581art": 4138,
  "\u2581malipatan": 4139,
  "\u2581responded": 4140,
  "\u2581ideas": 4141,
  "\u2581nainget": 4142,
  "\u2581narugit": 4143,
  "\u2581rugrugi": 4144,
  "\u2581shared": 4145,
  "\u2581unable": 4146,
  "What": 4147,
  "\u2581constantly": 4148,
  "\u2581demons": 4149,
  "\u2581immadu": 4150,
  "\u2581nasalun": 4151,
  "\u2581send": 4152,
  "ER": 4153,
  "\u2581aso": 4154,
  "\u2581ill": 4155,
  "og": 4156,
  "\u2581chief": 4157,
  "\u2581moment": 4158,
  "\u2581ngudo": 4159,
  "%": 4160,
  "x": 4161,
  "\u2581Kasanot": 4162,
  "\u2581grown": 4163,
  "\u2581panangpapatay": 4164,
  "\u2581directly": 4165,
  "\u2581liwliwa": 4166,
  "\u2581ruin": 4167,
  "\u2581trade": 4168,
  "naka": 4169,
  "\u2581assist": 4170,
  "\u2581closely": 4171,
  "\u2581didiosen": 4172,
  "\u2581instruction": 4173,
  "\u2581soil": 4174,
  "\u2581agsakit": 4175,
  "\u2581obtain": 4176,
  "pon": 4177,
  "\u2581agkararag": 4178,
  "\u2581mangiturong": 4179,
  "\u2581siuumiso": 4180,
  "antayo": 4181,
  "\u2581decide": 4182,
  "\u2581pamiliami": 4183,
  "\u2581accomplish": 4184,
  "\u2581bautismo": 4185,
  "\u2581brochure": 4186,
  "\u2581dry": 4187,
  "ec": 4188,
  "pag": 4189,
  "\u25811914": 4190,
  "\u2581habits": 4191,
  "\u2581pagayatanna": 4192,
  "\u2581refers": 4193,
  "\u2581stars": 4194,
  "anmi": 4195,
  "mar": 4196,
  "\u2581Govern": 4197,
  "\u2581adult": 4198,
  "\u2581copies": 4199,
  "ari": 4200,
  "\u2581Nagsayaat": 4201,
  "\u2581nalabaga": 4202,
  "\u2581pattern": 4203,
  "\u2581soldiers": 4204,
  "Idi": 4205,
  "\u25811999": 4206,
  "\u2581Science": 4207,
  "\u2581hatred": 4208,
  "\u2581katulongan": 4209,
  "\u2581pananggun": 4210,
  "sh": 4211,
  "\u2581150": 4212,
  "\u25812001": 4213,
  "\u2581NO": 4214,
  "\u2581female": 4215,
  "\u2581ginggined": 4216,
  "\u2581providing": 4217,
  "\u2581increasing": 4218,
  "\u2581Committee": 4219,
  "\u2581Hav": 4220,
  "\u2581arban": 4221,
  "\u2581gapuanan": 4222,
  "\u2581napa": 4223,
  "\u2581reveals": 4224,
  "way": 4225,
  "\u2581Americano": 4226,
  "\u2581agtartrabaho": 4227,
  "\u2581makapnek": 4228,
  "\u2581dealing": 4229,
  "\u2581entitled": 4230,
  "\u2581nabara": 4231,
  "\u2581negatibo": 4232,
  "\u2581Gagangay": 4233,
  "\u2581Kabayatanna": 4234,
  "\u2581agaplikar": 4235,
  "\u2581products": 4236,
  "\u2581nagun": 4237,
  "\u2581north": 4238,
  "\u2581pangngarig": 4239,
  "\u2581pasetna": 4240,
  "\u2581zeal": 4241,
  "\u2581Ilawlawag": 4242,
  "\u2581Manarawidwid": 4243,
  "\u2581kunkunana": 4244,
  "pas": 4245,
  "\u2581BABA": 4246,
  "\u2581Report": 4247,
  "\u2581kano": 4248,
  "\u2581manifest": 4249,
  "\u2581simmaganad": 4250,
  "\u2581receiving": 4251,
  "sis": 4252,
  "\u2581journey": 4253,
  "\u2581makaipaay": 4254,
  "\u2581napauluan": 4255,
  "\u2581telling": 4256,
  "per": 4257,
  "\u2581Ba": 4258,
  "\u2581contrary": 4259,
  "\u2581create": 4260,
  "\u2581kinapanglaw": 4261,
  "\u2581makaaramid": 4262,
  "\u2581Columbia": 4263,
  "\u2581buteng": 4264,
  "\u2581immorality": 4265,
  "\u2581lay": 4266,
  "\u2581mail": 4267,
  "\u2581sidadaan": 4268,
  "\u2581troubled": 4269,
  "age": 4270,
  "\u25811970": 4271,
  "\u2581estado": 4272,
  "\u2581industria": 4273,
  "\u2581panangabuso": 4274,
  "\u2581tanem": 4275,
  "pu": 4276,
  "ster": 4277,
  "\u2581gathered": 4278,
  "\u2581laud": 4279,
  "\u2581madlaw": 4280,
  "\u2581overseers": 4281,
  "\u2581victim": 4282,
  "ipanggep": 4283,
  "\u2581Ngamin": 4284,
  "\u2581approval": 4285,
  "\u2581\u25c6": 4286,
  "ris": 4287,
  "\u2581benneg": 4288,
  "\u2581naminsan": 4289,
  "\u2581conclude": 4290,
  "\u2581papel": 4291,
  "\u2581skills": 4292,
  "\u2581trial": 4293,
  "lat": 4294,
  "\u2581Nakalkaldaang": 4295,
  "\u2581Pagyamanan": 4296,
  "\u2581amana": 4297,
  "\u2581chose": 4298,
  "\u2581atmosphere": 4299,
  "\u2581inna": 4300,
  "\u2581unana": 4301,
  "\u2581Peace": 4302,
  "\u2581Se": 4303,
  "\u2581background": 4304,
  "\u2581compared": 4305,
  "\u2581generally": 4306,
  "\u2581kalgaw": 4307,
  "\u2581tudo": 4308,
  "\u2581Fariseo": 4309,
  "\u2581Grecia": 4310,
  "\u2581Te": 4311,
  "\u2581nagdakkel": 4312,
  "\u2581paid": 4313,
  "ina": 4314,
  "\u2581Amatayo": 4315,
  "\u2581constant": 4316,
  "\u2581notice": 4317,
  "\u2581aside": 4318,
  "ner": 4319,
  "\u2581Sadiay": 4320,
  "\u2581harvest": 4321,
  "\u2581identify": 4322,
  "\u2581manamnama": 4323,
  "\u2581Aaron": 4324,
  "\u2581Religion": 4325,
  "\u2581panggedan": 4326,
  "\u2581remarkable": 4327,
  "\u2581surbey": 4328,
  "Daytoy": 4329,
  "\u258129,": 4330,
  "\u2581Ho": 4331,
  "\u2581ipa": 4332,
  "\u2581planeta": 4333,
  "\u258125:": 4334,
  "\u2581Gospel": 4335,
  "\u2581komento": 4336,
  "\u2581located": 4337,
  "\u2581naibaga": 4338,
  "\u2581perform": 4339,
  "\u2581retrato": 4340,
  "\u2581awis": 4341,
  "\u2581handle": 4342,
  "\u2581listaan": 4343,
  "\u2581pusoda": 4344,
  "\u2581pagtrabahuan": 4345,
  "\u2581demonstrate": 4346,
  "\u2581pagbalinen": 4347,
  "\u2581pampanunoten": 4348,
  "AS": 4349,
  "od": 4350,
  "\u2581igam": 4351,
  "\u2581pannaki": 4352,
  "\u2581Ay": 4353,
  "\u2581assured": 4354,
  "\u2581kitaenyo": 4355,
  "\u2581komunikasion": 4356,
  "\u2581raise": 4357,
  "Para": 4358,
  "\u2581agkunkuna": 4359,
  "\u2581houses": 4360,
  "\u2581require": 4361,
  "\u2581Agbasbasa": 4362,
  "\u2581ko": 4363,
  "\u2581panagteppel": 4364,
  "\u2581panagyaman": 4365,
  "\u2581praying": 4366,
  "\u2581satisfaction": 4367,
  "\u2581trabahoda": 4368,
  "\u2581144,000": 4369,
  "\u2581Lo": 4370,
  "\u2581agbayag": 4371,
  "\u2581ages": 4372,
  "\u2581distance": 4373,
  "\u2581kasasaadda": 4374,
  "\u2581Natay": 4375,
  "\u2581WHO": 4376,
  "\u2581panangilawlawag": 4377,
  "\u2581rules": 4378,
  "\u2581threat": 4379,
  "\u2581tiny": 4380,
  "\u2581balanced": 4381,
  "\u2581discreet": 4382,
  "\u2581invitation": 4383,
  "\u2581joyful": 4384,
  "\u2581kamali": 4385,
  "\u2581propesor": 4386,
  "\u2581BIBLE": 4387,
  "\u2581agtarigagay": 4388,
  "\u2581dark": 4389,
  "\u2581Watching": 4390,
  "\u2581balligi": 4391,
  "\u2581nangisit": 4392,
  "\u2581plan": 4393,
  "\u2581slow": 4394,
  "con": 4395,
  "\u2581Could": 4396,
  "\u2581anamong": 4397,
  "\u2581balance": 4398,
  "\u2581basbassit": 4399,
  "\u2581daya": 4400,
  "\u2581outstanding": 4401,
  "\u2581Kings": 4402,
  "\u2581Mat": 4403,
  "\u2581husbands": 4404,
  "\u2581impadamag": 4405,
  "\u2581siam": 4406,
  "ac": 4407,
  "\u25811950": 4408,
  "\u2581Imagine": 4409,
  "\u2581Impakita": 4410,
  "\u2581inana": 4411,
  "\u2581kayattayo": 4412,
  "\u2581Agparang": 4413,
  "\u2581caught": 4414,
  "\u2581details": 4415,
  "\u2581kakabsattayo": 4416,
  "\u2581liklikan": 4417,
  "\u2581mangtignay": 4418,
  "\u2581puro": 4419,
  "\u2581struggle": 4420,
  "\u2581trip": 4421,
  "\u2581wood": 4422,
  "Idiligyo": 4423,
  "\u2581Tao": 4424,
  "\u2581okupado": 4425,
  "\u2581pointed": 4426,
  "com": 4427,
  "ok": 4428,
  "ow": 4429,
  "\u258175": 4430,
  "\u2581Trinidad": 4431,
  "\u2581chance": 4432,
  "\u2581makipaset": 4433,
  "\u2581aramidna": 4434,
  "\u2581numbers": 4435,
  "\u2581t": 4436,
  "\u25811980": 4437,
  "\u2581Web": 4438,
  "\u2581afraid": 4439,
  "\u2581natda": 4440,
  "\u2581sports": 4441,
  "\u2581sumarungkar": 4442,
  "ero": 4443,
  "\u258120]": 4444,
  "\u2581Bill": 4445,
  "\u2581connection": 4446,
  "\u2581master": 4447,
  "\u2581narikut": 4448,
  "\u2581panagibtur": 4449,
  "\u2581panagusar": 4450,
  "\u2581billit": 4451,
  "\u2581gatad": 4452,
  "\u2581lasting": 4453,
  "\u2581mamag": 4454,
  "\u2581naemma": 4455,
  "\u2581probision": 4456,
  "\u2581ruler": 4457,
  "\u2581Japanese": 4458,
  "\u2581Pina": 4459,
  "\u2581Red": 4460,
  "\u2581YOU": 4461,
  "\u2581exactly": 4462,
  "\u2581AWAKE": 4463,
  "\u2581naipasngay": 4464,
  "\u2581sango": 4465,
  "\u2581Note": 4466,
  "\u2581aspects": 4467,
  "\u2581bagiyo": 4468,
  "\u2581identified": 4469,
  "\u2581inkeddeng": 4470,
  "\u2581saantay": 4471,
  "\u2581determine": 4472,
  "\u2581espirituna": 4473,
  "\u2581experts": 4474,
  "\u2581feels": 4475,
  "\u2581performed": 4476,
  "\u2581silver": 4477,
  "\u2581terms": 4478,
  "\u2581ice": 4479,
  "\u2581lower": 4480,
  "\u2581significant": 4481,
  "\u2581street": 4482,
  "bar": 4483,
  "\u2581\"[": 4484,
  "\u2581(3)": 4485,
  "\u2581directed": 4486,
  "\u2581resist": 4487,
  "\u2581ended": 4488,
  "\u2581imoralidad": 4489,
  "\u2581kangatuan": 4490,
  "\u2581recalls": 4491,
  "\u2581sakripisio": 4492,
  "\u2581apparently": 4493,
  "\u2581conflict": 4494,
  "\u2581panagtulnog": 4495,
  "\u2581Moscow": 4496,
  "\u2581Narigat": 4497,
  "\u2581mangbukel": 4498,
  "\u2581pinansial": 4499,
  "\u2581pumanaw": 4500,
  "\u2581traditional": 4501,
  "ron": 4502,
  "\u258133:": 4503,
  "\u2581Russell": 4504,
  "\u2581calling": 4505,
  "\u2581clergy": 4506,
  "\u2581nakitak": 4507,
  "\u2581nanangko": 4508,
  "\u2581summer": 4509,
  "ard": 4510,
  "ley": 4511,
  "\u2581insight": 4512,
  "\u2581panangapresiar": 4513,
  "\u2581pride": 4514,
  "\u2581Car": 4515,
  "\u2581Ditay": 4516,
  "\u2581Ru": 4517,
  "\u2581finding": 4518,
  "\u2581instrumento": 4519,
  "\u2581sought": 4520,
  "J": 4521,
  "if": 4522,
  "\u2581AGRIING": 4523,
  "\u2581agsagaba": 4524,
  "\u2581asamblea": 4525,
  "\u2581bird": 4526,
  "\u2581speaks": 4527,
  "ous": 4528,
  "sia": 4529,
  "\u2581atiddog": 4530,
  "\u2581bisin": 4531,
  "\u2581granted": 4532,
  "\u2581imposible": 4533,
  "\u2581kasapulanna": 4534,
  "\u2581nabayag": 4535,
  "\u2581surprised": 4536,
  "\u2581visitors": 4537,
  "\u2581Greece": 4538,
  "\u2581bearing": 4539,
  "\u2581clothing": 4540,
  "\u2581nakaay": 4541,
  "\u2581useful": 4542,
  "rang": 4543,
  "\u25811919": 4544,
  "\u2581kudil": 4545,
  "\u2581Co": 4546,
  "\u2581agus": 4547,
  "\u2581gura": 4548,
  "\u2581witnessing": 4549,
  "\u2581400": 4550,
  "\u2581makabael": 4551,
  "\u2581ministers": 4552,
  "\u2581Netherlands": 4553,
  "\u2581Saanda": 4554,
  "\u2581additional": 4555,
  "\u2581agtaud": 4556,
  "\u2581attendance": 4557,
  "\u2581kabalio": 4558,
  "\u2581riches": 4559,
  "eg": 4560,
  "ff": 4561,
  "\u2581Mai": 4562,
  "\u2581dadakkelko": 4563,
  "\u2581mangikeddeng": 4564,
  "\u2581Mapa": 4565,
  "\u2581Out": 4566,
  "\u2581leads": 4567,
  "\u2581medisina": 4568,
  "\u2581panagbiagna": 4569,
  "\u2581symptoms": 4570,
  "\u2581yes": 4571,
  "\u2581Dagus": 4572,
  "\u2581imoral": 4573,
  "\u2581maawat": 4574,
  "\u2581market": 4575,
  "\u2581napili": 4576,
  "\u2581reference": 4577,
  "\u2581Britannica": 4578,
  "\u2581Nobiembre": 4579,
  "\u2581Switzerland": 4580,
  "\u2581Bo": 4581,
  "\u2581Compare": 4582,
  "\u2581Death": 4583,
  "\u2581green": 4584,
  "\u2581honest": 4585,
  "\u2581kabambantayan": 4586,
  "\u2581pan": 4587,
  "\u2581reduce": 4588,
  "\u2581degrees": 4589,
  "om": 4590,
  "\u2581Learn": 4591,
  "\u2581fruitage": 4592,
  "\u2581lengguahe": 4593,
  "\u2581project": 4594,
  "\u2581Itatta": 4595,
  "\u2581expressions": 4596,
  "\u2581pimmanaw": 4597,
  "\u2581president": 4598,
  "\u2581rejected": 4599,
  "\u2581wall": 4600,
  "adu": 4601,
  "bang": 4602,
  "\u2581Star": 4603,
  "\u2581appreciated": 4604,
  "\u2581nairanta": 4605,
  "vo": 4606,
  "\u2581mangaywan": 4607,
  "\u2581temperatura": 4608,
  "rin": 4609,
  "\u2581immun": 4610,
  "\u2581presidente": 4611,
  "\u2581resulted": 4612,
  "\u25811988": 4613,
  "\u258127,": 4614,
  "\u2581Department": 4615,
  "\u2581Matt": 4616,
  "\u2581marvelous": 4617,
  "\u2581nalawa": 4618,
  "\u2581critical": 4619,
  "\u2581delivered": 4620,
  "\u2581diyo": 4621,
  "\u2581opportunities": 4622,
  "\u2581replied": 4623,
  "by": 4624,
  "\u2581Look": 4625,
  "\u2581daughters": 4626,
  "\u2581failure": 4627,
  "\u2581iramanna": 4628,
  "\u2581pagbalinenna": 4629,
  "\u2581palso": 4630,
  "\u2581task": 4631,
  "\u2581Jordan": 4632,
  "\u2581agpanunot": 4633,
  "\u2581isuro": 4634,
  "\u2581kinaagum": 4635,
  "\u2581ladingit": 4636,
  "\u2581middle": 4637,
  "\u2581Domingo": 4638,
  "\u2581contribute": 4639,
  "\u2581northern": 4640,
  "\u2581officials": 4641,
  "\u2581touch": 4642,
  "\u2581apart": 4643,
  "\u2581claimed": 4644,
  "\u2581pagano": 4645,
  "\u2581paglinglingayan": 4646,
  "\u2581pigsa": 4647,
  "\u2581mannakabalin": 4648,
  "\u2581salt": 4649,
  "nce": 4650,
  "\u2581Regard": 4651,
  "\u2581diet": 4652,
  "\u2581services": 4653,
  "\u2581sickness": 4654,
  "\u2581store": 4655,
  "\u2581Makapainteres": 4656,
  "\u2581November": 4657,
  "\u2581b": 4658,
  "\u2581conventions": 4659,
  "\u2581umakar": 4660,
  "\u2581umanamong": 4661,
  "chi": 4662,
  "\u2581indicated": 4663,
  "\u2581nadungngo": 4664,
  "\u2581nanangna": 4665,
  "\u2581pirak": 4666,
  "\u2581simmaruno": 4667,
  "\u2581trabahona": 4668,
  "\u2581ur": 4669,
  "\u2581immakar": 4670,
  "\u2581impa": 4671,
  "\u2581professor": 4672,
  "\u2581safety": 4673,
  "cy": 4674,
  "\u2581numerous": 4675,
  "\u25811994": 4676,
  "\u2581Sarah": 4677,
  "\u2581agawid": 4678,
  "\u2581makikadua": 4679,
  "\u258119]": 4680,
  "\u2581director": 4681,
  "\u2581methods": 4682,
  "ant": 4683,
  "\u2581arinunos": 4684,
  "\u2581neutral": 4685,
  "\u2581ribu": 4686,
  "\u2581tend": 4687,
  "\u2581Often": 4688,
  "\u2581deliver": 4689,
  "\u2581gene": 4690,
  "\u2581mapag": 4691,
  "\u2581pannakaurnosna": 4692,
  "\u2581remove": 4693,
  "\u2581successfully": 4694,
  "\u2581Encyclop\u00e6dia": 4695,
  "\u2581Maitunos": 4696,
  "\u2581Prov": 4697,
  "\u2581assistance": 4698,
  "\u2581gatas": 4699,
  "\u2581hate": 4700,
  "\u2581kinasungdo": 4701,
  "\u2581mailasin": 4702,
  "\u2581naglabas": 4703,
  "\u2581pakaseknan": 4704,
  "\u2581119": 4705,
  "\u25813,000": 4706,
  "\u2581Paulo": 4707,
  "\u2581agpaut": 4708,
  "\u2581arte": 4709,
  "\u2581ebolusion": 4710,
  "\u2581managayat": 4711,
  "\u2581natulnog": 4712,
  "\u2581winter": 4713,
  "ES": 4714,
  "\u2581gun": 4715,
  "\u2581simrek": 4716,
  "\u2581won": 4717,
  "\u2581Dictionary": 4718,
  "\u2581Think": 4719,
  "\u2581kaasping": 4720,
  "\u2581makitatayo": 4721,
  "\u2581panangtulong": 4722,
  "\u2581ship": 4723,
  "jw": 4724,
  "\u2581conducted": 4725,
  "\u2581impadto": 4726,
  "\u2581song": 4727,
  "\u2581abundance": 4728,
  "\u2581ban": 4729,
  "\u2581kabaelanda": 4730,
  "\u2581played": 4731,
  "AM": 4732,
  "\u2581Naan": 4733,
  "\u2581exposed": 4734,
  "\u2581price": 4735,
  "\u2581temporario": 4736,
  "uli": 4737,
  "\u2581Never": 4738,
  "\u2581Vatican": 4739,
  "\u2581dangers": 4740,
  "\u2581separate": 4741,
  "\u2581Z": 4742,
  "\u2581disorder": 4743,
  "\u2581inawat": 4744,
  "\u2581mothers": 4745,
  "\u2581sinful": 4746,
  "\u2581Nakaskasdaaw": 4747,
  "\u2581agsolsolo": 4748,
  "\u2581lying": 4749,
  "\u2581pusok": 4750,
  "ado": 4751,
  "ite": 4752,
  "\u2581peaceful": 4753,
  "\u2581riribuk": 4754,
  "\u2581stood": 4755,
  "\u2581suratna": 4756,
  "\u2581naipablaak": 4757,
  "\u2581pagduaduaan": 4758,
  "\u2581promedio": 4759,
  "\u25811945": 4760,
  "\u2581happens": 4761,
  "hether": 4762,
  "sar": 4763,
  "\u2581accompany": 4764,
  "\u2581alas": 4765,
  "\u2581nakasagana": 4766,
  "\u2581relates": 4767,
  "\u2581straight": 4768,
  "\u2581surgery": 4769,
  "\u25811914,": 4770,
  "\u2581BIBLIA": 4771,
  "\u2581goodness": 4772,
  "\u2581koriente": 4773,
  "\u2581natimbeng": 4774,
  "ala": 4775,
  "apay": 4776,
  "\u2581herself": 4777,
  "\u2581opposite": 4778,
  "\u2581panagpa": 4779,
  "\u2581pictures": 4780,
  "nton": 4781,
  "\u2581Get": 4782,
  "\u2581agreed": 4783,
  "\u2581pelikula": 4784,
  "\u2581smoke": 4785,
  "\u2581walls": 4786,
  "\u2581kualidad": 4787,
  "\u2581Spirit": 4788,
  "\u2581dust": 4789,
  "\u2581emosion": 4790,
  "\u2581freely": 4791,
  "\u2581loves": 4792,
  "\u2581physically": 4793,
  "\u2581throne": 4794,
  "\u2581united": 4795,
  "\u2581autor": 4796,
  "\u2581mabalinmo": 4797,
  "\u2581panangusig": 4798,
  "\u258172": 4799,
  "\u2581Says": 4800,
  "\u2581disaster": 4801,
  "\u2581game": 4802,
  "\u2581kilo": 4803,
  "\u2581traveled": 4804,
  "\u2581wear": 4805,
  "wenno": 4806,
  "\u2581belong": 4807,
  "\u2581okan": 4808,
  "au": 4809,
  "\u25813]": 4810,
  "\u2581Daily": 4811,
  "\u2581Eventually": 4812,
  "\u2581Sweden": 4813,
  "\u2581kasasaadna": 4814,
  "\u2581mangilawlawag": 4815,
  "\u2581pannakapaay": 4816,
  "\u2581Krismas": 4817,
  "\u2581endeavor": 4818,
  "\u2581fearing": 4819,
  "\u2581nasnasion": 4820,
  "\u2581primary": 4821,
  "\u2581succeed": 4822,
  "\u2581NGA": 4823,
  "\u2581couples": 4824,
  "\u2581kasumbangirna": 4825,
  "\u2581masigurado": 4826,
  "\u2581Panunotem": 4827,
  "iko": 4828,
  "\u2581contain": 4829,
  "\u2581scholars": 4830,
  "\u2581sees": 4831,
  "\u2581south": 4832,
  "\u258130,": 4833,
  "\u2581Australian": 4834,
  "\u2581February": 4835,
  "\u2581Students": 4836,
  "\u2581relihiuso": 4837,
  "\u2581suicide": 4838,
  "\u2581uminum": 4839,
  "\u2581awanton": 4840,
  "\u2581mannalon": 4841,
  "\u2581numero": 4842,
  "\u2581private": 4843,
  "\u2581simbolo": 4844,
  "q": 4845,
  "ria": 4846,
  "\u2581Research": 4847,
  "\u2581urbon": 4848,
  "\u2581visiting": 4849,
  "\u2581\u2015": 4850,
  "\u2581Old": 4851,
  "\u2581Richard": 4852,
  "\u2581content": 4853,
  "\u2581gumatang": 4854,
  "\u2581ing": 4855,
  "\u2581mangtarus": 4856,
  "\u2581milk": 4857,
  "\u2581petsa": 4858,
  "\u2581Ben": 4859,
  "\u2581Pebrero": 4860,
  "\u2581Sara": 4861,
  "\u2581X": 4862,
  "\u2581add": 4863,
  "\u2581arranged": 4864,
  "\u2581sad": 4865,
  "All": 4866,
  "\u258151": 4867,
  "\u2581Answer": 4868,
  "\u2581Thomas": 4869,
  "\u2581agbibiag": 4870,
  "\u2581claims": 4871,
  "\u2581keeps": 4872,
  "\u2581release": 4873,
  "atted": 4874,
  "mu": 4875,
  "sin": 4876,
  "\u2581Bar": 4877,
  "\u2581mighty": 4878,
  "\u2581patakder": 4879,
  "\u2581persona": 4880,
  "NA": 4881,
  "kadagiti": 4882,
  "\u258134.": 4883,
  "\u2581Katolika": 4884,
  "\u2581makitada": 4885,
  "\u2581none": 4886,
  "\u2581saka": 4887,
  "\u2581suddenly": 4888,
  "\u2581commandments": 4889,
  "\u2581panagleddaang": 4890,
  "\u2581Espa\u00f1a": 4891,
  "\u2581anti": 4892,
  "\u2581applying": 4893,
  "\u2581games": 4894,
  "\u2581involve": 4895,
  "\u2581situtured": 4896,
  "\u2581clothes": 4897,
  "\u2581feed": 4898,
  "\u2581items": 4899,
  "\u2581kriminal": 4900,
  "\u2581limitado": 4901,
  "\u2581paltog": 4902,
  "\u2581panagrang": 4903,
  "ever": 4904,
  "\u2581nangtignay": 4905,
  "\u2581panangiladawan": 4906,
  "\u2581ritual": 4907,
  "\u2581zealous": 4908,
  "nd": 4909,
  "\u2581Adtoy": 4910,
  "\u2581design": 4911,
  "\u2581floor": 4912,
  "\u2581itlog": 4913,
  "\u2581sword": 4914,
  "\u2581Henry": 4915,
  "\u2581natataengan": 4916,
  "\u2581serves": 4917,
  "\u2581usigen": 4918,
  "\u2581Dina": 4919,
  "\u2581armas": 4920,
  "\u2581bless": 4921,
  "\u2581mabalinda": 4922,
  "\u2581papa": 4923,
  "\u2581scale": 4924,
  "\u2581weapons": 4925,
  "\u2581saad": 4926,
  "put": 4927,
  "\u2581Korea": 4928,
  "\u2581Protestante": 4929,
  "\u2581cross": 4930,
  "\u2581napaneknekan": 4931,
  "\u2581ruot": 4932,
  "\u2581scene": 4933,
  "\u2581stake": 4934,
  "\u2581Pharisees": 4935,
  "\u2581Professor": 4936,
  "\u2581medicine": 4937,
  "\u2581tangatang": 4938,
  "\u2581touched": 4939,
  "\u2581Park": 4940,
  "\u2581amma": 4941,
  "\u2581familiar": 4942,
  "\u2581heed": 4943,
  "\u2581kalikaguman": 4944,
  "\u2581namnamaen": 4945,
  "\u2581pinili": 4946,
  "\u2581sold": 4947,
  "\u2581ukom": 4948,
  "\u2581Washington": 4949,
  "\u2581arms": 4950,
  "\u2581exists": 4951,
  "\u2581masursurotayo": 4952,
  "\u2581pagassawaan": 4953,
  "\u2581plano": 4954,
  "\u2581pusom": 4955,
  "\u2581weak": 4956,
  "\u2581Panunotenyo": 4957,
  "\u2581agpili": 4958,
  "\u2581ammuen": 4959,
  "\u2581assawada": 4960,
  "\u2581bag": 4961,
  "\u2581karne": 4962,
  "\u2581pannakaupay": 4963,
  "\u2581photo": 4964,
  "\u2581suggestions": 4965,
  "\u2581dandanin": 4966,
  "\u2581gradually": 4967,
  "\u2581harmful": 4968,
  "\u2581umadani": 4969,
  "\u2581walked": 4970,
  "50": 4971,
  "\u2581Ibaga": 4972,
  "\u2581Please": 4973,
  "\u2581karina": 4974,
  "\u2581Kinapudno": 4975,
  "\u2581Pulos": 4976,
  "\u2581Umiso": 4977,
  "\u2581interesting": 4978,
  "\u2581takder": 4979,
  "\u2581thanks": 4980,
  "tur": 4981,
  "\u2581beloved": 4982,
  "\u2581fit": 4983,
  "\u2581labor": 4984,
  "\u2581lessons": 4985,
  "\u2581napalabasen": 4986,
  "\u2581range": 4987,
  "\u2581remaining": 4988,
  "res": 4989,
  "\u25814]": 4990,
  "\u2581agpegpeggad": 4991,
  "\u2581bisita": 4992,
  "\u2581direktor": 4993,
  "\u2581disenio": 4994,
  "\u2581hardly": 4995,
  "\u2581inner": 4996,
  "\u2581Bin": 4997,
  "\u2581En": 4998,
  "\u2581Joel": 4999,
  "\u2581angry": 5000,
  "\u2581illustrate": 5001,
  "\u2581length": 5002,
  "\u2581temptation": 5003,
  "\u2581turning": 5004,
  "amin": 5005,
  "ized": 5006,
  "\u2581Assembly": 5007,
  "\u2581Mosaic": 5008,
  "\u2581bagyo": 5009,
  "\u2581daan": 5010,
  "\u2581fresh": 5011,
  "\u2581refer": 5012,
  "\u2581Post": 5013,
  "\u2581Surely": 5014,
  "\u2581assembly": 5015,
  "\u2581dagidi": 5016,
  "\u2581proseso": 5017,
  "\u2581season": 5018,
  "\u2581serioso": 5019,
  "\u2581sigud": 5020,
  "baba": 5021,
  "\u2581compare": 5022,
  "\u2581satisfying": 5023,
  "\u2581talon": 5024,
  "\u2581agbalintayo": 5025,
  "\u2581basura": 5026,
  "\u2581nakalasat": 5027,
  "\u2581removed": 5028,
  "\u2581scriptures": 5029,
  "\u2581Israelite": 5030,
  "\u2581abandoned": 5031,
  "\u2581makaparegta": 5032,
  "\u2581nasaksakbay": 5033,
  "\u2581occasions": 5034,
  "\u2581relationships": 5035,
  "\u2581sititibker": 5036,
  "\u2581verses": 5037,
  "\u2581anakda": 5038,
  "\u2581doctrine": 5039,
  "\u2581engage": 5040,
  "\u2581excellent": 5041,
  "\u2581tonelada": 5042,
  "\u2581tuktukoyen": 5043,
  "\u258111]": 5044,
  "\u2581broken": 5045,
  "\u2581cares": 5046,
  "\u2581dinto": 5047,
  "\u2581kapaut": 5048,
  "\u2581reaching": 5049,
  "\u2581Canaan": 5050,
  "\u2581apartment": 5051,
  "\u2581babbaket": 5052,
  "\u2581begins": 5053,
  "\u2581con": 5054,
  "\u2581distrito": 5055,
  "\u2581resources": 5056,
  "\u2581Chinese": 5057,
  "\u2581Diostayo": 5058,
  "\u2581finished": 5059,
  "\u2581kampilan": 5060,
  "\u2581maikuna": 5061,
  "\u2581nakarkaro": 5062,
  "\u2581proof": 5063,
  "say": 5064,
  "\u2581glorious": 5065,
  "\u2581maiparit": 5066,
  "\u2581makagun": 5067,
  "\u2581rebbengen": 5068,
  "ex": 5069,
  "\u2581impierno": 5070,
  "\u2581kindly": 5071,
  "\u2581siaannad": 5072,
  "\u2581tuleng": 5073,
  "\u2581Visit": 5074,
  "\u2581arapaap": 5075,
  "\u2581asawam": 5076,
  "\u2581dumakkel": 5077,
  "\u2581kabesera": 5078,
  "\u2581memory": 5079,
  "\u2581nababbaba": 5080,
  "\u2581panagsigarilio": 5081,
  "\u2581saksi": 5082,
  "\u2581strengthened": 5083,
  "\u2581Daya": 5084,
  "\u2581Lake": 5085,
  "\u2581Photo": 5086,
  "\u2581allows": 5087,
  "\u2581attempt": 5088,
  "\u2581maupay": 5089,
  "\u2581rugi": 5090,
  "\u2581signs": 5091,
  "\u258140:": 5092,
  "\u2581isuna": 5093,
  "\u2581nasingpet": 5094,
  "\u2581Nisan": 5095,
  "\u2581Truth": 5096,
  "\u2581listened": 5097,
  "\u2581plans": 5098,
  "\u2581tons": 5099,
  "\u2581armies": 5100,
  "\u2581makalasat": 5101,
  "\u2581makasarak": 5102,
  "\u2581mi": 5103,
  "\u2581naibalud": 5104,
  "\u2581speed": 5105,
  "\u2581usarenda": 5106,
  "\u2581worshippers": 5107,
  "&": 5108,
  "\u2581Agpayso": 5109,
  "\u2581Sadly": 5110,
  "\u2581Toronto": 5111,
  "\u2581ammom": 5112,
  "\u2581bangkay": 5113,
  "\u2581enabl": 5114,
  "\u2581posibilidad": 5115,
  "\u2581properly": 5116,
  "\u2581kasanot": 5117,
  "\u2581makitana": 5118,
  "\u2581sekular": 5119,
  "\u2581suggests": 5120,
  "\u2581tract": 5121,
  "\u2581attacks": 5122,
  "\u2581mangipapaay": 5123,
  "\u2581mention": 5124,
  "\u2581nagdumaan": 5125,
  "\u2581ngiwat": 5126,
  "\u2581prophetic": 5127,
  "lang": 5128,
  "pro": 5129,
  "sang": 5130,
  "\u2581companions": 5131,
  "\u2581faithfully": 5132,
  "\u2581unusual": 5133,
  "\u2581weather": 5134,
  "lag": 5135,
  "ven": 5136,
  "\u2581Mr": 5137,
  "\u2581Pro": 5138,
  "\u2581Sungbat": 5139,
  "\u2581dealings": 5140,
  "\u2581inhabited": 5141,
  "\u2581pannaturog": 5142,
  "\u2581southern": 5143,
  "\u2581treasure": 5144,
  "las": 5145,
  "\u2581Isursuro": 5146,
  "\u2581imana": 5147,
  "\u2581mass": 5148,
  "\u2581naikeddeng": 5149,
  "\u2581tender": 5150,
  "bal": 5151,
  "\u258149": 5152,
  "\u2581dwell": 5153,
  "\u2581intense": 5154,
  "\u2581observes": 5155,
  "\u2581running": 5156,
  "\u2581sarsarita": 5157,
  "How": 5158,
  "dakami": 5159,
  "\u25812]": 5160,
  "\u2581Naindaklan": 5161,
  "\u2581difficulties": 5162,
  "\u2581dress": 5163,
  "\u2581naaramidan": 5164,
  "\u2581Amos": 5165,
  "\u2581Likewise": 5166,
  "\u2581Men": 5167,
  "\u2581Philip": 5168,
  "\u2581Teach": 5169,
  "\u2581carbon": 5170,
  "zi": 5171,
  "\u2581Trinity": 5172,
  "\u2581rimmang": 5173,
  "\u2581wedding": 5174,
  "sta": 5175,
  "\u2581considering": 5176,
  "\u2581ek": 5177,
  "\u2581nakaaramid": 5178,
  "\u2581reaction": 5179,
  "\u2581refuge": 5180,
  "\u2581dear": 5181,
  "\u2581offers": 5182,
  "\u2581rulers": 5183,
  "\u2581sintoma": 5184,
  "day": 5185,
  "\u2581conscious": 5186,
  "\u2581instructions": 5187,
  "\u2581kumbension": 5188,
  "\u2581technology": 5189,
  "\u2581Early": 5190,
  "\u2581Sabbath": 5191,
  "\u2581mangar": 5192,
  "\u2581pagnaedan": 5193,
  "\u2581panangipaay": 5194,
  "\u2581undeserved": 5195,
  "cal": 5196,
  "\u2581Child": 5197,
  "\u2581balbalay": 5198,
  "\u2581riknak": 5199,
  "\u2581upright": 5200,
  "\u2581wickedness": 5201,
  "unos": 5202,
  "\u2581coast": 5203,
  "\u2581dokumento": 5204,
  "\u2581narikna": 5205,
  "\u2581possibly": 5206,
  "\u2581secure": 5207,
  "for": 5208,
  "\u2581Thessalonians": 5209,
  "\u2581customs": 5210,
  "\u2581historian": 5211,
  "\u2581kurso": 5212,
  "\u258166": 5213,
  "\u2581Ditoy": 5214,
  "\u2581WHAT": 5215,
  "\u2581Zealand": 5216,
  "\u2581anakko": 5217,
  "\u2581operasion": 5218,
  "\u2581sipapanunot": 5219,
  "ology": 5220,
  "\u2581Agbalin": 5221,
  "\u2581Dan": 5222,
  "\u2581Hu": 5223,
  "\u2581Sermon": 5224,
  "\u2581Vi": 5225,
  "\u2581apostolna": 5226,
  "\u2581bigat": 5227,
  "\u2581mistakes": 5228,
  "\u2581nagsagaba": 5229,
  "\u2581naipadamag": 5230,
  "wan": 5231,
  "\u2581accomplished": 5232,
  "\u2581ngipen": 5233,
  "\u2581painful": 5234,
  "\u2581resolve": 5235,
  "\u2581Sydney": 5236,
  "\u2581anus": 5237,
  "\u2581naituding": 5238,
  "\u2581noticed": 5239,
  "\u2581panagdaliasat": 5240,
  "\u2581panaginum": 5241,
  "\u2581panangikasaba": 5242,
  "\u2581Ex": 5243,
  "\u2581Idiligyo": 5244,
  "\u2581awanto": 5245,
  "\u2581kaikarian": 5246,
  "\u2581panangted": 5247,
  "\u2581pannakadangran": 5248,
  "\u2581path": 5249,
  "ful": 5250,
  "\u2581Po": 5251,
  "\u2581pannakisarita": 5252,
  "They": 5253,
  "\u2581DNA": 5254,
  "\u2581Heb": 5255,
  "\u2581Per": 5256,
  "\u2581Study": 5257,
  "\u2581adalen": 5258,
  "\u2581advance": 5259,
  "\u2581fields": 5260,
  "\u2581koman": 5261,
  "\u2581laid": 5262,
  "\u2581moon": 5263,
  "\u2581nayanak": 5264,
  "\u2581wondered": 5265,
  "ance": 5266,
  "red": 5267,
  "\u2581Maragsakan": 5268,
  "\u2581blue": 5269,
  "\u2581reject": 5270,
  "\u2581struck": 5271,
  "\u2581Gu": 5272,
  "\u2581Maikadua": 5273,
  "\u2581islands": 5274,
  "\u2581kanen": 5275,
  "anak": 5276,
  "che": 5277,
  "\u2581kinapintas": 5278,
  "\u2581model": 5279,
  "\u2581stick": 5280,
  "\u2581systems": 5281,
  "\u2581ugma": 5282,
  "\u2581Pharaoh": 5283,
  "\u2581Way": 5284,
  "\u2581agyaman": 5285,
  "\u2581annakmi": 5286,
  "\u2581kalding": 5287,
  "\u2581manayon": 5288,
  "\u2581naregta": 5289,
  "\u2581snow": 5290,
  "\u2581tax": 5291,
  "\u2581Mannakabalin": 5292,
  "\u2581flowers": 5293,
  "\u2581images": 5294,
  "\u2581kinaulbod": 5295,
  "\u2581payen": 5296,
  "\u2581requirements": 5297,
  "\u2581simmangpet": 5298,
  "\u2581100,000": 5299,
  "\u2581Libro": 5300,
  "\u2581Panawen": 5301,
  "\u2581Su": 5302,
  "\u2581broke": 5303,
  "\u2581completed": 5304,
  "\u2581determination": 5305,
  "\u2581firmly": 5306,
  "\u2581reminded": 5307,
  "\u25811930": 5308,
  "\u258147": 5309,
  "\u2581Whatever": 5310,
  "\u2581frequently": 5311,
  "\u2581literally": 5312,
  "\u2581mabasatayo": 5313,
  "\u2581movement": 5314,
  "\u2581pampanunot": 5315,
  "\u2581quit": 5316,
  "\u2581saritaan": 5317,
  "\u2581widely": 5318,
  "\u2581annakko": 5319,
  "\u2581ha": 5320,
  "\u2581involving": 5321,
  "\u2581mabalinna": 5322,
  "\u2581root": 5323,
  "\u2581souls": 5324,
  "\u2581suot": 5325,
  "\u2581types": 5326,
  "ON": 5327,
  "\u2581Nai": 5328,
  "\u2581Second": 5329,
  "\u2581drive": 5330,
  "\u2581ears": 5331,
  "\u2581kuarto": 5332,
  "\u2581nuclear": 5333,
  "\u2581pannagna": 5334,
  "\u2581pleased": 5335,
  "\u2581pounds": 5336,
  "\u2581printed": 5337,
  "\u2581threatened": 5338,
  "\u2581tobacco": 5339,
  "\u2581writings": 5340,
  "\u2581Faraon": 5341,
  "\u2581Nabayag": 5342,
  "\u2581agpatingga": 5343,
  "\u2581agsasao": 5344,
  "\u2581datayo": 5345,
  "\u2581origin": 5346,
  "\u2581siraragsak": 5347,
  "\u2581warns": 5348,
  "\u2581aglaplapusanan": 5349,
  "\u2581boat": 5350,
  "\u2581impact": 5351,
  "\u2581introduced": 5352,
  "\u2581makarikna": 5353,
  "\u2581provisions": 5354,
  "ser": 5355,
  "\u258124]": 5356,
  "\u2581Art": 5357,
  "\u2581affairs": 5358,
  "\u2581anymore": 5359,
  "\u2581gets": 5360,
  "\u2581grand": 5361,
  "\u2581marry": 5362,
  "\u2581padada": 5363,
  "\u2581quick": 5364,
  "\u2581sand": 5365,
  "\u2581IDI": 5366,
  "\u2581audience": 5367,
  "\u2581career": 5368,
  "\u2581dana": 5369,
  "\u2581kallabes": 5370,
  "\u2581pammadayaw": 5371,
  "ent": 5372,
  "\u258110,000": 5373,
  "\u2581abundant": 5374,
  "\u2581bond": 5375,
  "\u2581habit": 5376,
  "\u2581schools": 5377,
  "Kitaen": 5378,
  "cu": 5379,
  "fi": 5380,
  "panag": 5381,
  "sak": 5382,
  "\u2581Tawen": 5383,
  "\u2581bomba": 5384,
  "\u2581larger": 5385,
  "\u2581nabati": 5386,
  "\u2581nuklear": 5387,
  "\u258122;": 5388,
  "\u2581Basaem": 5389,
  "\u2581agpapada": 5390,
  "\u2581pangulo": 5391,
  "\u2581wipe": 5392,
  "\u2581Council": 5393,
  "\u2581Pam": 5394,
  "\u2581Scientist": 5395,
  "\u2581ayatna": 5396,
  "\u2581buildings": 5397,
  "\u2581li": 5398,
  "\u2581maam": 5399,
  "\u2581nagballigi": 5400,
  "\u2581pagkapuyan": 5401,
  "OR": 5402,
  "\u2581communicate": 5403,
  "\u2581foundation": 5404,
  "\u2581lovers": 5405,
  "\u2581mangnamnama": 5406,
  "Dikay": 5407,
  "dis": 5408,
  "\u2581heartfelt": 5409,
  "\u2581ik": 5410,
  "\u2581kalakian": 5411,
  "\u2581mild": 5412,
  "\u2581onto": 5413,
  "\u2581pader": 5414,
  "\u2581routine": 5415,
  "\u2581120": 5416,
  "\u258144.": 5417,
  "\u2581Armageddon": 5418,
  "\u2581Besides": 5419,
  "\u2581Dad": 5420,
  "\u2581accident": 5421,
  "\u2581agayat": 5422,
  "\u2581deaths": 5423,
  "\u2581relations": 5424,
  "\u2581sientipiko": 5425,
  "\u2581sigarilio": 5426,
  "\u2581standard": 5427,
  "\u2581aged": 5428,
  "\u2581agsasaruno": 5429,
  "\u2581awag": 5430,
  "\u2581maiparbeng": 5431,
  "\u2581principal": 5432,
  "\u2581station": 5433,
  "\u2581telephone": 5434,
  "As": 5435,
  "salun": 5436,
  "\u2581Manila": 5437,
  "\u2581access": 5438,
  "\u2581concentration": 5439,
  "\u2581spite": 5440,
  "ED": 5441,
  "\u2581Central": 5442,
  "\u2581Col": 5443,
  "\u2581Kenya": 5444,
  "\u2581agmaymaysa": 5445,
  "\u2581anamongan": 5446,
  "\u2581lakay": 5447,
  "\u2581matarusan": 5448,
  "\u2581nagbalbaliw": 5449,
  "\u2581nawaya": 5450,
  "\u2581pannakabagi": 5451,
  "\u2581pribado": 5452,
  "\u2581rupa": 5453,
  ",000,000": 5454,
  "line": 5455,
  "\u2581Agnanayon": 5456,
  "\u2581Nanipud": 5457,
  "\u2581aramidda": 5458,
  "\u2581enerhia": 5459,
  "\u2581fighting": 5460,
  "\u2581ipapaay": 5461,
  "\u2581panagbiahe": 5462,
  "\u2581privileges": 5463,
  "\u2581sarming": 5464,
  "\u2581bakteria": 5465,
  "\u2581calm": 5466,
  "\u2581charge": 5467,
  "\u2581depressed": 5468,
  "\u2581dream": 5469,
  "\u2581rulership": 5470,
  "\u2581utang": 5471,
  "\u2581Austria": 5472,
  "\u2581aspect": 5473,
  "\u2581evolution": 5474,
  "\u2581facing": 5475,
  "\u2581figure": 5476,
  "\u2581instruksion": 5477,
  "\u2581nangipakita": 5478,
  "\u2581refuse": 5479,
  "\u2581relihioso": 5480,
  "\u2581stories": 5481,
  "\u2581Congregation": 5482,
  "\u2581Women": 5483,
  "\u2581agdayaw": 5484,
  "\u2581anxious": 5485,
  "\u2581concerns": 5486,
  "\u2581industry": 5487,
  "\u2581looks": 5488,
  "\u2581manuskrito": 5489,
  "\u2581mariknak": 5490,
  "\u2581pangngaasiyo": 5491,
  "\u258129:": 5492,
  "\u2581addaak": 5493,
  "\u2581district": 5494,
  "\u2581influenced": 5495,
  "\u2581kosta": 5496,
  "\u2581nasaem": 5497,
  "\u2581niebe": 5498,
  "\u2581property": 5499,
  "\u2581sirok": 5500,
  "\u2581widow": 5501,
  "law": 5502,
  "\u2581Im": 5503,
  "\u2581Within": 5504,
  "\u2581holding": 5505,
  "\u2581leon": 5506,
  "\u2581mangngeg": 5507,
  "\u2581natured": 5508,
  "\u2581spouse": 5509,
  "AD": 5510,
  "\u2581Ukraine": 5511,
  "\u2581annual": 5512,
  "\u2581immawat": 5513,
  "\u2581method": 5514,
  "\u2581panagduadua": 5515,
  "\u2581pilosopia": 5516,
  "\u2581playing": 5517,
  "\u2581suggested": 5518,
  "AY": 5519,
  "rus": 5520,
  "\u00e3o": 5521,
  "\u2581Ayat": 5522,
  "\u2581annakmo": 5523,
  "\u2581ideya": 5524,
  "\u2581injustice": 5525,
  "\u2581kangrunaanna": 5526,
  "\u2581maapektaran": 5527,
  "\u2581mine": 5528,
  "\u2581puon": 5529,
  "\u2581tribes": 5530,
  "\u2581union": 5531,
  "\u2581Layus": 5532,
  "\u2581nadayag": 5533,
  "\u2581nadutokan": 5534,
  "\u2581restored": 5535,
  "\u2581usarenna": 5536,
  "Jesus": 5537,
  "ram": 5538,
  "\u2581Armagedon": 5539,
  "\u2581Itan": 5540,
  "\u2581Jonas": 5541,
  "\u2581impakitana": 5542,
  "\u2581inaramidda": 5543,
  "\u2581kitaen": 5544,
  "\u2581pleasant": 5545,
  "\u2581reputation": 5546,
  "\u2581tiendaan": 5547,
  "\u258134,": 5548,
  "\u2581Aldaw": 5549,
  "\u2581Islands": 5550,
  "\u2581Mu": 5551,
  "\u2581bigbigen": 5552,
  "\u2581check": 5553,
  "\u2581comforting": 5554,
  "\u2581kualipikado": 5555,
  "\u2581naipaay": 5556,
  "\u2581possess": 5557,
  "\u2581rendered": 5558,
  "\u2581Wall": 5559,
  "\u2581arrested": 5560,
  "\u2581brief": 5561,
  "\u2581makadadael": 5562,
  "\u2581production": 5563,
  "\u258131,": 5564,
  "\u2581Bay": 5565,
  "\u2581Nangnangruna": 5566,
  "\u2581Persia": 5567,
  "\u2581attitudes": 5568,
  "\u2581deeds": 5569,
  "\u2581depekto": 5570,
  "\u2581mangpaneknek": 5571,
  "\u2581namin": 5572,
  "\u2581ran": 5573,
  "\u2581ulep": 5574,
  "\u25811940": 5575,
  "\u2581Kaaduanna": 5576,
  "\u2581grief": 5577,
  "\u2581innocent": 5578,
  "\u2581natungpal": 5579,
  "\u2581taste": 5580,
  "\u2581visits": 5581,
  "\u2581Buyog": 5582,
  "\u2581Rights": 5583,
  "\u2581base": 5584,
  "\u2581features": 5585,
  "\u2581flight": 5586,
  "\u2581nangrugin": 5587,
  "\u2581nanumo": 5588,
  "\u2581watching": 5589,
  "\u2581nairekord": 5590,
  "\u2581previous": 5591,
  "\u2581table": 5592,
  "\u258100": 5593,
  "\u258114]": 5594,
  "\u2581agbasbasa": 5595,
  "\u2581agtawenak": 5596,
  "\u2581dedikado": 5597,
  "\u2581likudan": 5598,
  "\u2581pada": 5599,
  "\u2581pagbanagan": 5600,
  "\u2581pagtaenganyo": 5601,
  "\u2581panagsasao": 5602,
  "long": 5603,
  "\u2581Almighty": 5604,
  "\u2581agsapul": 5605,
  "\u2581bulsek": 5606,
  "\u2581fun": 5607,
  "\u2581ikkaten": 5608,
  "\u2581konklusion": 5609,
  "\u2581magmagna": 5610,
  "\u2581permanente": 5611,
  "\u2581sang": 5612,
  "\u2581indefinite": 5613,
  "\u2581kapartak": 5614,
  "\u2581naammuak": 5615,
  "kita": 5616,
  "\u258152": 5617,
  "\u2581location": 5618,
  "bangon": 5619,
  "\u2581lines": 5620,
  "\u2581nagtignay": 5621,
  "\u2581panangawat": 5622,
  "\u2581provision": 5623,
  "\u2581paniempo": 5624,
  "yon": 5625,
  "\u2581eager": 5626,
  "\u2581fly": 5627,
  "\u2581inlawlawagna": 5628,
  "\u2581journal": 5629,
  "\u2581kabsatna": 5630,
  "\u2581levels": 5631,
  "\u2581malaria": 5632,
  "\u2581paulo": 5633,
  "lan": 5634,
  "\u2581naipasdek": 5635,
  "\u2581replaced": 5636,
  "\u2581tests": 5637,
  "\u2581tured": 5638,
  "RA": 5639,
  "pin": 5640,
  "\u2581Upon": 5641,
  "\u2581approached": 5642,
  "\u2581drama": 5643,
  "\u2581infected": 5644,
  "\u2581intedna": 5645,
  "\u2581naibaon": 5646,
  "\u2581otherwise": 5647,
  "\u2581umas": 5648,
  "ray": 5649,
  "\u2581demonstrated": 5650,
  "\u2581kaarruba": 5651,
  "\u2581pieces": 5652,
  "\u2581readily": 5653,
  "\u2581sursurat": 5654,
  "0": 5655,
  "ger": 5656,
  "yonto": 5657,
  "\u2581burden": 5658,
  "\u2581dying": 5659,
  "\u2581insurance": 5660,
  "\u2581kaaddana": 5661,
  "\u2581panangsurot": 5662,
  "\u2581pannakapukaw": 5663,
  "\u2581pollution": 5664,
  "\u2581resulting": 5665,
  "\u2581twice": 5666,
  "\u2581umadu": 5667,
  "IT": 5668,
  "\u2581Espiritu": 5669,
  "\u2581dignity": 5670,
  "\u2581ear": 5671,
  "\u2581feature": 5672,
  "\u2581footnote": 5673,
  "\u2581inggana": 5674,
  "\u2581kasuratan": 5675,
  "\u2581ketdin": 5676,
  "\u2581matignay": 5677,
  "\u2581minuyongan": 5678,
  "\u2581pi": 5679,
  "\u2581tagiragsaken": 5680,
  "\u2581writers": 5681,
  "\u2581farm": 5682,
  "\u2581invisible": 5683,
  "\u2581katupag": 5684,
  "\u2581kinadalus": 5685,
  "\u2581makitam": 5686,
  "\u2581naangay": 5687,
  "\u2581paglintegan": 5688,
  "\u2581qualified": 5689,
  "\u2581readers": 5690,
  "\u2581supposed": 5691,
  "nakami": 5692,
  "\u2581Catholics": 5693,
  "\u2581Gentil": 5694,
  "\u2581contained": 5695,
  "\u2581dadakkelda": 5696,
  "\u2581healing": 5697,
  "\u2581kabaelantayo": 5698,
  "\u2581maibatay": 5699,
  "\u2581meat": 5700,
  "\u2581repeatedly": 5701,
  "\u2581wilderness": 5702,
  "\u2581Propesor": 5703,
  "\u2581awit": 5704,
  "\u2581doliar": 5705,
  "\u2581equal": 5706,
  "\u2581fourth": 5707,
  "\u2581kape": 5708,
  "\u2581kasar": 5709,
  "\u2581obligation": 5710,
  "\u2581programs": 5711,
  "\u2581reflected": 5712,
  "\u2581suggest": 5713,
  "\u2581suroten": 5714,
  "\u2581Kayatna": 5715,
  "\u2581Nalaka": 5716,
  "\u2581Pi": 5717,
  "\u2581Portugal": 5718,
  "\u2581Up": 5719,
  "\u2581elepante": 5720,
  "\u2581lamisaan": 5721,
  "\u2581naipadto": 5722,
  "\u2581ngatuen": 5723,
  "\u2581Diosmo": 5724,
  "\u2581Library": 5725,
  "\u2581Three": 5726,
  "\u2581associate": 5727,
  "\u2581glad": 5728,
  "\u2581madanagan": 5729,
  "\u2581mildness": 5730,
  "\u2581pakabigbigan": 5731,
  "\u2581prominent": 5732,
  "\u2581tulang": 5733,
  "rum": 5734,
  "\u2581Dandani": 5735,
  "\u2581Pammati": 5736,
  "\u2581Paskua": 5737,
  "\u2581afterward": 5738,
  "\u2581agsursuro": 5739,
  "\u2581bound": 5740,
  "\u2581d": 5741,
  "\u2581operation": 5742,
  "\u2581parapo": 5743,
  "\u2581spirituality": 5744,
  "\u2581theme": 5745,
  "Look": 5746,
  "baro": 5747,
  "hu": 5748,
  "\u2581Kinakristiano": 5749,
  "\u2581everywhere": 5750,
  "\u2581kabagian": 5751,
  "\u2581mabalintay": 5752,
  "\u2581maitulong": 5753,
  "\u2581represent": 5754,
  "\u2581spring": 5755,
  "\u2581worthy": 5756,
  "\u2581Map": 5757,
  "\u2581asks": 5758,
  "\u2581citizens": 5759,
  "\u2581kadagidi": 5760,
  "\u2581linawas": 5761,
  "\u2581machine": 5762,
  "\u2581maparmek": 5763,
  "\u2581panangituray": 5764,
  "\u2581permanent": 5765,
  "\u2581tumultulong": 5766,
  "\u258153": 5767,
  "\u2581Grand": 5768,
  "\u2581Makita": 5769,
  "\u2581diborsio": 5770,
  "\u2581masalakniban": 5771,
  "\u2581matmatan": 5772,
  "\u2581miracles": 5773,
  "\u2581nagbalinda": 5774,
  "\u2581sangaili": 5775,
  "\u2581tradition": 5776,
  "ial": 5777,
  "\u2581Damag": 5778,
  "\u2581Mosaiko": 5779,
  "\u2581ammoyo": 5780,
  "\u2581bara": 5781,
  "\u2581basolna": 5782,
  "\u2581hit": 5783,
  "\u2581managdaydayaw": 5784,
  "\u2581recall": 5785,
  "\u2581solid": 5786,
  "\u2581streets": 5787,
  "nes": 5788,
  "\u2581isolated": 5789,
  "\u2581nababa": 5790,
  "\u2581palubosan": 5791,
  "\u2581panagtalinaed": 5792,
  "\u2581Inglatera": 5793,
  "\u2581Kadagitoy": 5794,
  "\u2581Pacific": 5795,
  "\u2581Shortly": 5796,
  "\u2581deaf": 5797,
  "\u2581fornication": 5798,
  "\u2581kumarkaro": 5799,
  "\u2581matagiragsak": 5800,
  "\u2581naikari": 5801,
  "\u2581panamarsua": 5802,
  "\u2581pannakausar": 5803,
  "\u2581patauden": 5804,
  "\u2581post": 5805,
  "lia": 5806,
  "\u2581Ps": 5807,
  "\u2581apektaranna": 5808,
  "\u2581bagbagiyo": 5809,
  "\u2581negosiante": 5810,
  "\u2581panangadal": 5811,
  "\u2581rebellion": 5812,
  "\u2581supported": 5813,
  "\u2581Jonah": 5814,
  "\u2581Karayan": 5815,
  "\u2581Makaparagsak": 5816,
  "\u2581masursuro": 5817,
  "\u2581matulonganna": 5818,
  "\u2581nakedngan": 5819,
  "\u2581obtained": 5820,
  "\u2581songs": 5821,
  "\u2581Estudiante": 5822,
  "\u2581ark": 5823,
  "\u2581companion": 5824,
  "\u2581kakabsatna": 5825,
  "\u2581paneknekan": 5826,
  "\u2581render": 5827,
  "\u2581selfish": 5828,
  "\u2581shepherds": 5829,
  "\u2581speaker": 5830,
  "ik": 5831,
  "\u2581Chronicles": 5832,
  "\u2581Year": 5833,
  "\u2581banko": 5834,
  "\u2581burning": 5835,
  "\u2581childhood": 5836,
  "\u2581kinds": 5837,
  "\u2581masungbatan": 5838,
  "\u2581prisoners": 5839,
  "\u2581theory": 5840,
  "\u2581Amazon": 5841,
  "\u2581agkedked": 5842,
  "\u2581nagsao": 5843,
  "\u2581passing": 5844,
  "\u2581punishment": 5845,
  "\u2581sky": 5846,
  "\u2581waste": 5847,
  "AG": 5848,
  "\u2581Posible": 5849,
  "\u2581forests": 5850,
  "\u2581iyad": 5851,
  "\u2581naulpit": 5852,
  "\u2581pagsasaritaan": 5853,
  "\u2581panangtrato": 5854,
  "\u2581sitting": 5855,
  "\u2581win": 5856,
  "IS": 5857,
  "ther": 5858,
  "\u2581Halls": 5859,
  "\u2581Hospital": 5860,
  "\u2581NASA": 5861,
  "\u2581Name": 5862,
  "\u2581agsardeng": 5863,
  "\u2581chapters": 5864,
  "\u2581makilangen": 5865,
  "\u2581motivated": 5866,
  "\u2581pabuya": 5867,
  "let": 5868,
  "\u2581Makinlaud": 5869,
  "\u2581blame": 5870,
  "\u2581except": 5871,
  "\u2581kabangibang": 5872,
  "\u2581mikrobio": 5873,
  "\u2581naibangon": 5874,
  "\u2581napuskol": 5875,
  "\u2581seeds": 5876,
  "\u2581sukog": 5877,
  "\u2581$1": 5878,
  "\u25812003": 5879,
  "\u2581Estado": 5880,
  "\u2581Heights": 5881,
  "\u2581Italian": 5882,
  "\u2581Kangrunaan": 5883,
  "\u2581Laglagipenyo": 5884,
  "\u2581climate": 5885,
  "\u2581naipasango": 5886,
  "\u2581sangagasut": 5887,
  "\u2581thereafter": 5888,
  "\u2581widespread": 5889,
  "IA": 5890,
  "adda": 5891,
  "pabang": 5892,
  "\u2581admits": 5893,
  "\u2581bulkan": 5894,
  "\u2581differences": 5895,
  "\u2581kinaimperpekto": 5896,
  "\u2581object": 5897,
  "\u2581panagbabawi": 5898,
  "\u2581tagtagiragsaken": 5899,
  "\u2581traffic": 5900,
  "ally": 5901,
  "of": 5902,
  "\u00f3": 5903,
  "\u2581Diagram": 5904,
  "\u2581Maki": 5905,
  "\u2581Sinai": 5906,
  "\u2581Sud": 5907,
  "\u2581admitted": 5908,
  "\u2581appeal": 5909,
  "\u2581cm": 5910,
  "\u2581commercial": 5911,
  "\u2581error": 5912,
  "\u2581immune": 5913,
  "\u2581limit": 5914,
  "\u2581mannanakaw": 5915,
  "\u2581commission": 5916,
  "\u2581discernment": 5917,
  "\u2581mangala": 5918,
  "\u2581nangina": 5919,
  "led": 5920,
  "\u258135:": 5921,
  "\u2581Natakuatan": 5922,
  "\u2581terrible": 5923,
  "Di": 5924,
  "ding": 5925,
  "pateg": 5926,
  "pp": 5927,
  "und": 5928,
  "\u2581Martin": 5929,
  "\u2581arise": 5930,
  "\u2581empty": 5931,
  "\u2581nagbasol": 5932,
  "awat": 5933,
  "\u2581Flood": 5934,
  "\u2581Rutherford": 5935,
  "\u2581Tattao": 5936,
  "\u2581quiet": 5937,
  "\u2581sake": 5938,
  "\u2581tawid": 5939,
  "parang": 5940,
  "\u2581Home": 5941,
  "\u2581Jonathan": 5942,
  "\u2581Masarakan": 5943,
  "\u2581Simon": 5944,
  "\u2581agbabawi": 5945,
  "\u2581agkaka": 5946,
  "\u2581custom": 5947,
  "\u2581gathering": 5948,
  "\u2581panangsukimat": 5949,
  "\u2581piece": 5950,
  "\u2581scholar": 5951,
  "\u2581sibaballigi": 5952,
  "\u2581suplay": 5953,
  "\u2581unless": 5954,
  "Ta": 5955,
  "\u2581Agyamanak": 5956,
  "\u2581Tiempo": 5957,
  "\u2581central": 5958,
  "\u2581chemical": 5959,
  "\u2581civil": 5960,
  "\u2581establish": 5961,
  "\u2581maipagarup": 5962,
  "\u2581mairaman": 5963,
  "\u2581mark": 5964,
  "\u2581mulmula": 5965,
  "\u2581naalas": 5966,
  "\u2581newly": 5967,
  "\u2581SONGS": 5968,
  "\u2581agsurat": 5969,
  "\u2581anakyo": 5970,
  "\u2581bang": 5971,
  "\u2581kakaduana": 5972,
  "\u2581makiasawa": 5973,
  "\u2581nagtaudan": 5974,
  "\u2581nataenganen": 5975,
  "\u2581patpatien": 5976,
  "\u2581paying": 5977,
  "US": 5978,
  "are": 5979,
  "\u2581600": 5980,
  "\u2581Bas": 5981,
  "\u2581NY": 5982,
  "\u2581Siak": 5983,
  "\u2581bulong": 5984,
  "\u2581kinaanus": 5985,
  "\u2581ought": 5986,
  "\u2581parke": 5987,
  "\u2581shape": 5988,
  "j": 5989,
  "pus": 5990,
  "\u258127:": 5991,
  "\u258156": 5992,
  "\u2581Hope": 5993,
  "\u2581KANTA": 5994,
  "\u2581Little": 5995,
  "\u2581buok": 5996,
  "\u2581distant": 5997,
  "\u2581ig": 5998,
  "\u2581saanka": 5999,
  "\u2581visible": 6000,
  "\u2581worker": 6001,
  "ham": 6002,
  "\u2581Empire": 6003,
  "\u2581corruption": 6004,
  "\u2581kg": 6005,
  "\u2581lumasat": 6006,
  "\u2581pinarsua": 6007,
  "\u2581simamatalek": 6008,
  "\u2581sulisog": 6009,
  "\u2581survived": 6010,
  "\u25811939": 6011,
  "\u2581declare": 6012,
  "\u2581gang": 6013,
  "\u2581maibaga": 6014,
  "\u2581maikapat": 6015,
  "\u2581sobra": 6016,
  "20": 6017,
  "\u2581Jean": 6018,
  "\u2581Water": 6019,
  "\u2581current": 6020,
  "\u2581determinasion": 6021,
  "\u2581midst": 6022,
  "\u2581reasoning": 6023,
  "\u2581remnant": 6024,
  "\u2581temperature": 6025,
  "\u2581Following": 6026,
  "\u2581Give": 6027,
  "\u2581agresulta": 6028,
  "\u2581alert": 6029,
  "\u2581asawak": 6030,
  "\u2581asin": 6031,
  "\u2581driving": 6032,
  "\u2581gagayyemko": 6033,
  "\u2581iyaplikar": 6034,
  "\u2581maammuantayo": 6035,
  "\u2581pornograpia": 6036,
  "\u2581pressures": 6037,
  "\u2581rely": 6038,
  "\u2581temporary": 6039,
  "\u2581witnesses": 6040,
  "annak": 6041,
  "tal": 6042,
  "\u25812002": 6043,
  "\u2581FOR": 6044,
  "\u2581anag": 6045,
  "\u2581creature": 6046,
  "\u2581diabetes": 6047,
  "\u2581impalubos": 6048,
  "\u2581iyeg": 6049,
  "\u2581katutubo": 6050,
  "\u2581reperensia": 6051,
  "lam": 6052,
  "\u25811960": 6053,
  "\u258130:": 6054,
  "\u2581AND": 6055,
  "\u2581Lu": 6056,
  "\u2581kumurang": 6057,
  "\u2581nagannakda": 6058,
  "\u2581napasaran": 6059,
  "\u2581ruling": 6060,
  "\u2581tawa": 6061,
  "\u00ed": 6062,
  "\u25812004": 6063,
  "\u2581Ga": 6064,
  "\u2581Makindaya": 6065,
  "\u2581bay": 6066,
  "\u2581fuel": 6067,
  "\u2581gagayyemna": 6068,
  "\u2581mangilasin": 6069,
  "\u2581viewpoint": 6070,
  "ated": 6071,
  "ical": 6072,
  "\u2581ANIA": 6073,
  "\u2581depends": 6074,
  "\u2581marked": 6075,
  "\u2581officer": 6076,
  "\u2581tolda": 6077,
  "mangan": 6078,
  "\u2581Ammok": 6079,
  "\u2581Caesar": 6080,
  "\u2581ED": 6081,
  "\u2581acted": 6082,
  "\u2581balayna": 6083,
  "\u2581burned": 6084,
  "\u2581insects": 6085,
  "\u2581mid": 6086,
  "\u2581nasin": 6087,
  "\u2581piguratibo": 6088,
  "\u2581topiko": 6089,
  "\u2581tropical": 6090,
  "ua": 6091,
  "\u2581Micah": 6092,
  "\u2581dadaelen": 6093,
  "\u2581dog": 6094,
  "\u2581ethnic": 6095,
  "\u2581gather": 6096,
  "\u2581gratitude": 6097,
  "\u2581greed": 6098,
  "\u2581spending": 6099,
  "gar": 6100,
  "\u2581Dinakamat": 6101,
  "\u2581Imbagana": 6102,
  "\u2581adopted": 6103,
  "\u2581divided": 6104,
  "\u2581horse": 6105,
  "\u2581makontrol": 6106,
  "\u2581sapulen": 6107,
  "EM": 6108,
  "\u2581Awanen": 6109,
  "\u2581Ca": 6110,
  "\u2581author": 6111,
  "\u2581balayda": 6112,
  "\u2581extended": 6113,
  "\u2581kakadua": 6114,
  "\u2581losing": 6115,
  "\u2581naasawaan": 6116,
  "\u2581nalamiis": 6117,
  "\u2581obispo": 6118,
  "mal": 6119,
  "pen": 6120,
  "\u2581afternoon": 6121,
  "\u2581drawing": 6122,
  "\u2581employment": 6123,
  "\u2581gained": 6124,
  "\u2581pammagbaga": 6125,
  "\u2581royal": 6126,
  "\u2581ub": 6127,
  "00": 6128,
  "his": 6129,
  "\u2581changing": 6130,
  "\u2581demand": 6131,
  "\u2581discern": 6132,
  "\u2581eksena": 6133,
  "\u2581gambling": 6134,
  "\u2581producing": 6135,
  "\u2581residents": 6136,
  "\u2581stones": 6137,
  "\u2581victory": 6138,
  "aramid": 6139,
  "lak": 6140,
  "\u2581Naisangsangayan": 6141,
  "\u2581Pope": 6142,
  "\u2581adultery": 6143,
  "\u2581aran": 6144,
  "\u2581bu": 6145,
  "\u2581camps": 6146,
  "\u2581dwelling": 6147,
  "\u2581highest": 6148,
  "\u2581maipa": 6149,
  "\u2581pinarsuana": 6150,
  "\u2581sumurot": 6151,
  "\u2581Herald": 6152,
  "\u2581aleng": 6153,
  "\u2581amazing": 6154,
  "\u2581imperio": 6155,
  "\u2581naipakita": 6156,
  "\u2581odda": 6157,
  "\u2581panangraut": 6158,
  "\u2581protected": 6159,
  "\u2581worldly": 6160,
  "Young": 6161,
  "port": 6162,
  "\u25811985": 6163,
  "\u2581Mikias": 6164,
  "\u2581ayup": 6165,
  "\u2581bar": 6166,
  "\u2581berde": 6167,
  "\u2581enjoying": 6168,
  "\u2581kinamanangaasi": 6169,
  "\u2581naipamaysa": 6170,
  "\u2581napapateg": 6171,
  "\u2581panagkasapulan": 6172,
  "\u2581torture": 6173,
  "\u2581Sangapulo": 6174,
  "\u2581Tulag": 6175,
  "\u2581agsapsapul": 6176,
  "\u2581endured": 6177,
  "\u2581impakaammo": 6178,
  "\u2581ipasimudaag": 6179,
  "\u2581nagpintas": 6180,
  "\u2581rinugian": 6181,
  "\u2581sources": 6182,
  "ili": 6183,
  "\u2581Hapones": 6184,
  "\u2581Long": 6185,
  "\u2581Relihion": 6186,
  "\u2581Sam": 6187,
  "\u2581atmospera": 6188,
  "\u2581elements": 6189,
  "\u2581ordered": 6190,
  "pet": 6191,
  "rab": 6192,
  "\u2581Age": 6193,
  "\u2581Natural": 6194,
  "\u2581addaantayo": 6195,
  "\u2581diario": 6196,
  "\u2581explanation": 6197,
  "\u2581interamente": 6198,
  "\u2581landok": 6199,
  "\u2581medikal": 6200,
  "\u2581naammuanna": 6201,
  "44,": 6202,
  "great": 6203,
  "ium": 6204,
  "ros": 6205,
  "\u2581Fear": 6206,
  "\u2581Ne": 6207,
  "\u2581naisina": 6208,
  "\u2581primarily": 6209,
  "\u2581product": 6210,
  "\u2581sum": 6211,
  "\u2581Nagadu": 6212,
  "\u2581Naikari": 6213,
  "\u2581Sosiedad": 6214,
  "\u2581Ur": 6215,
  "\u2581commonly": 6216,
  "\u2581genetic": 6217,
  "\u2581leader": 6218,
  "\u2581moves": 6219,
  "\u2581natayen": 6220,
  "\u2581stayed": 6221,
  "\u2581Isa": 6222,
  "\u2581Living": 6223,
  "\u2581acting": 6224,
  "\u2581agsuratkayo": 6225,
  "\u2581dila": 6226,
  "\u2581empleado": 6227,
  "\u2581iturayan": 6228,
  "\u2581letra": 6229,
  "\u2581motibo": 6230,
  "\u2581native": 6231,
  "\u2581panangiturong": 6232,
  "\u2581pasahero": 6233,
  "\u2581professional": 6234,
  "\u2581sisasagana": 6235,
  "\u2581square": 6236,
  "\u2581turns": 6237,
  "\u2581Far": 6238,
  "\u2581Impadamag": 6239,
  "\u2581Much": 6240,
  "\u2581abilities": 6241,
  "\u2581agrag": 6242,
  "\u2581kababalinda": 6243,
  "AT": 6244,
  "pos": 6245,
  "\u2581Food": 6246,
  "\u2581arrangements": 6247,
  "\u2581heads": 6248,
  "\u2581lapped": 6249,
  "\u2581nainkasigudan": 6250,
  "\u2581pick": 6251,
  "\u2581saem": 6252,
  "\u2581sinned": 6253,
  "\u2581supplies": 6254,
  "\u2581aywanan": 6255,
  "\u2581demonio": 6256,
  "\u2581focused": 6257,
  "\u2581ministeriona": 6258,
  "\u2581represented": 6259,
  "\u2581tungpalen": 6260,
  "TO": 6261,
  "sing": 6262,
  "\u2581Ubbing": 6263,
  "\u2581historical": 6264,
  "\u2581ibagana": 6265,
  "\u2581kinaemma": 6266,
  "\u2581outcome": 6267,
  "\u2581reliable": 6268,
  "\u2581rimmuar": 6269,
  "\u2581trono": 6270,
  "\u2581Him": 6271,
  "\u2581exercising": 6272,
  "\u2581grave": 6273,
  "\u2581kaugalian": 6274,
  "\u2581materials": 6275,
  "\u2581missing": 6276,
  "\u2581uleg": 6277,
  "ov": 6278,
  "virtually": 6279,
  "\u2581Kristianidad": 6280,
  "\u2581Nehemiah": 6281,
  "\u2581Saanna": 6282,
  "\u2581babies": 6283,
  "\u2581biang": 6284,
  "\u2581income": 6285,
  "\u2581makagteng": 6286,
  "\u2581previously": 6287,
  "\u2581sangapamiliaan": 6288,
  "\u2581turista": 6289,
  "\u2581ep": 6290,
  "\u2581estasion": 6291,
  "\u2581fundamental": 6292,
  "\u2581guilt": 6293,
  "\u2581malem": 6294,
  "\u2581possessions": 6295,
  "din": 6296,
  "sig": 6297,
  "\u2581Messianic": 6298,
  "\u2581ca": 6299,
  "\u2581capable": 6300,
  "\u2581crisis": 6301,
  "\u2581extra": 6302,
  "\u2581glass": 6303,
  "\u2581kinakillo": 6304,
  "\u2581kinamatalek": 6305,
  "\u2581panagkita": 6306,
  "\u2581stage": 6307,
  "tz": 6308,
  "\u258111201": 6309,
  "\u2581headquarters": 6310,
  "\u2581napudot": 6311,
  "Be": 6312,
  "ier": 6313,
  "\u25811986": 6314,
  "\u2581Gideon": 6315,
  "\u2581Researchers": 6316,
  "\u2581Sovereign": 6317,
  "\u2581TB": 6318,
  "\u2581Table": 6319,
  "\u2581ayatda": 6320,
  "\u2581feeding": 6321,
  "\u2581invite": 6322,
  "\u2581naadaw": 6323,
  "ruk": 6324,
  "\u2581Berlin": 6325,
  "\u2581KEN": 6326,
  "\u2581Recall": 6327,
  "\u2581agtungpal": 6328,
  "\u2581encourages": 6329,
  "\u2581fat": 6330,
  "\u2581kompleto": 6331,
  "\u2581maisalakan": 6332,
  "\u2581rinugianna": 6333,
  "Keep": 6334,
  "\u2581Papa": 6335,
  "\u2581bank": 6336,
  "\u2581impagarup": 6337,
  "\u2581jobs": 6338,
  "\u2581mangparmek": 6339,
  "\u2581nangasaba": 6340,
  "\u2581ocean": 6341,
  "\u2581panangrugi": 6342,
  "\u25811914.": 6343,
  "\u25812005": 6344,
  "\u2581Marriage": 6345,
  "\u2581diding": 6346,
  "\u2581guilty": 6347,
  "\u2581kaykayo": 6348,
  "\u2581killing": 6349,
  "\u2581panangyalison": 6350,
  "\u2581pannakiraman": 6351,
  "\u2581spirits": 6352,
  "sk": 6353,
  "\u2581happening": 6354,
  "\u2581ignore": 6355,
  "\u2581kakatlo": 6356,
  "\u2581manggun": 6357,
  "\u2581nailadawan": 6358,
  "\u2581tribe": 6359,
  "bil": 6360,
  "gg": 6361,
  "\u2581Black": 6362,
  "\u2581Espania": 6363,
  "\u2581displayed": 6364,
  "\u2581dumakdakkel": 6365,
  "\u2581expensive": 6366,
  "\u2581fruits": 6367,
  "\u2581nagaramid": 6368,
  "\u25812008": 6369,
  "\u2581Agpaay": 6370,
  "\u2581Granted": 6371,
  "\u2581Promised": 6372,
  "\u2581Tito": 6373,
  "\u2581difficulty": 6374,
  "\u2581finds": 6375,
  "\u2581harsh": 6376,
  "\u2581managbuteng": 6377,
  "\u2581meditate": 6378,
  "\u2581nangibaga": 6379,
  "\u2581pannakiabig": 6380,
  "\u2581raising": 6381,
  "\u2581remind": 6382,
  "\u2581seremonia": 6383,
  "\u2581sikog": 6384,
  "\u2581tatangna": 6385,
  "\u2581uso": 6386,
  "ey": 6387,
  "not": 6388,
  "pre": 6389,
  "salimetmet": 6390,
  "\u2581Come": 6391,
  "\u2581asuk": 6392,
  "\u2581capacity": 6393,
  "\u2581emotionally": 6394,
  "\u2581pakalaglagipan": 6395,
  "\u2581pannakigayyem": 6396,
  "\u2581polusion": 6397,
  "\u2581wholesome": 6398,
  "Dika": 6399,
  "ise": 6400,
  "\u2581Dead": 6401,
  "\u2581Street": 6402,
  "\u2581anyos": 6403,
  "\u2581beat": 6404,
  "\u2581fathers": 6405,
  "\u2581kinatured": 6406,
  "\u2581narrow": 6407,
  "\u2581natignay": 6408,
  "\u2581salsaludsod": 6409,
  "ide": 6410,
  "uma": 6411,
  "\u2581Interestingly": 6412,
  "\u2581Nehemias": 6413,
  "\u2581agbuya": 6414,
  "\u2581begotten": 6415,
  "\u2581fears": 6416,
  "\u2581grass": 6417,
  "\u2581inheritance": 6418,
  "\u2581panangallilaw": 6419,
  "ell": 6420,
  "\u2581Wisdom": 6421,
  "\u2581itultuloytayo": 6422,
  "\u2581kinatarnaw": 6423,
  "\u2581mangbalbaliw": 6424,
  "\u2581Back": 6425,
  "\u2581Nathan": 6426,
  "\u2581Pan": 6427,
  "\u2581agbiahe": 6428,
  "\u2581assignments": 6429,
  "\u2581disasters": 6430,
  "\u2581equipment": 6431,
  "\u2581fishing": 6432,
  "\u2581grain": 6433,
  "\u2581holds": 6434,
  "\u2581ited": 6435,
  "\u2581mangidadaulo": 6436,
  "\u2581meaningful": 6437,
  "\u2581napagungar": 6438,
  "\u2581Stephen": 6439,
  "\u2581agdesision": 6440,
  "\u2581belongs": 6441,
  "\u2581courageous": 6442,
  "\u2581hardin": 6443,
  "\u2581hidden": 6444,
  "\u2581kiddaw": 6445,
  "\u2581maisubli": 6446,
  "\u2581makinruar": 6447,
  "\u2581panangpa": 6448,
  "\u2581reduced": 6449,
  "\u2581relasionda": 6450,
  "\u2581review": 6451,
  "\u2581teeth": 6452,
  "\u2581Panggep": 6453,
  "\u2581brotherhood": 6454,
  "\u2581colors": 6455,
  "\u2581eggs": 6456,
  "\u2581ordinario": 6457,
  "\u2581pagdaksan": 6458,
  "\u2581propesional": 6459,
  "\u2581ships": 6460,
  "\u2581sustain": 6461,
  "des": 6462,
  "\u2581Ann": 6463,
  "\u2581Imperio": 6464,
  "\u2581Luc": 6465,
  "\u2581Source": 6466,
  "\u2581layus": 6467,
  "\u2581mangikkat": 6468,
  "\u2581relasiontayo": 6469,
  "\u2581singing": 6470,
  "\u2581subjection": 6471,
  "\u2581surrounded": 6472,
  "\u2581Andrew": 6473,
  "\u2581Georgia": 6474,
  "\u2581Titus": 6475,
  "\u2581biagmo": 6476,
  "\u2581contributed": 6477,
  "\u2581dimmakkel": 6478,
  "\u2581existed": 6479,
  "\u2581isardeng": 6480,
  "\u2581maag": 6481,
  "\u2581rightly": 6482,
  "lon": 6483,
  "\u2581Concern": 6484,
  "\u2581Know": 6485,
  "\u2581Modern": 6486,
  "\u2581agsigarilio": 6487,
  "\u2581devoted": 6488,
  "\u2581panunotem": 6489,
  "\u258154": 6490,
  "\u2581Agtultuloy": 6491,
  "\u2581aglikmut": 6492,
  "\u2581bottom": 6493,
  "\u2581corrupt": 6494,
  "\u2581ends": 6495,
  "\u2581fleshly": 6496,
  "\u2581inanama": 6497,
  "\u2581nagkararag": 6498,
  "\u2581preserve": 6499,
  "\u2581welfare": 6500,
  "\u2581\u00b0": 6501,
  "ren": 6502,
  "\u25812011": 6503,
  "\u2581Gen": 6504,
  "\u2581Kada": 6505,
  "\u2581Um": 6506,
  "\u2581Viewpoint": 6507,
  "\u2581extend": 6508,
  "\u2581hedkuarter": 6509,
  "\u2581matmatay": 6510,
  "\u2581mile": 6511,
  "\u2581nakillo": 6512,
  "\u2581pregnant": 6513,
  "\u2581sat": 6514,
  "dayaw": 6515,
  "\u25811987": 6516,
  "\u2581Middle": 6517,
  "\u2581arigna": 6518,
  "\u2581panangammo": 6519,
  "\u2581preparing": 6520,
  "\u2581symbol": 6521,
  "\u2581talks": 6522,
  "\u2581texts": 6523,
  "\u2581wisely": 6524,
  "LE": 6525,
  "fer": 6526,
  "\u2581Doing": 6527,
  "\u2581Gi": 6528,
  "\u2581Josephus": 6529,
  "\u2581Muslim": 6530,
  "\u2581Nasaysayaat": 6531,
  "\u2581eliminate": 6532,
  "\u2581enable": 6533,
  "\u2581naikkan": 6534,
  "\u2581pannakarikna": 6535,
  "\u2581proud": 6536,
  "\u2581saksakit": 6537,
  "\u2581Tallo": 6538,
  "\u2581agin": 6539,
  "\u2581condemned": 6540,
  "\u2581cup": 6541,
  "\u2581ikagkagumaan": 6542,
  "\u2581mapapatay": 6543,
  "\u2581maturog": 6544,
  "\u2581nakitada": 6545,
  "\u2581ramanen": 6546,
  "\u2581tawenko": 6547,
  "ure": 6548,
  "\u2581AS": 6549,
  "\u2581Use": 6550,
  "\u2581acknowledged": 6551,
  "\u2581cure": 6552,
  "\u2581insalaysay": 6553,
  "\u2581mangtaginayon": 6554,
  "\u2581mano": 6555,
  "\u2581pannakabalinna": 6556,
  "\u2581pioneering": 6557,
  "\u2581produces": 6558,
  "\u2581prutas": 6559,
  "\u2581tear": 6560,
  "\u2581traits": 6561,
  "ban": 6562,
  "bro": 6563,
  "ists": 6564,
  "\u258139.": 6565,
  "\u2581Happy": 6566,
  "\u2581Pentecost": 6567,
  "\u2581agreement": 6568,
  "\u2581binaybay": 6569,
  "\u2581laglagipentayo": 6570,
  "\u2581tuktukoyenna": 6571,
  "\u2581uram": 6572,
  "har": 6573,
  "ped": 6574,
  "\u2581Pentecostes": 6575,
  "\u2581Scripture": 6576,
  "\u2581baet": 6577,
  "\u2581description": 6578,
  "\u2581faces": 6579,
  "\u2581iyebkas": 6580,
  "\u2581limitasion": 6581,
  "\u2581nawadwad": 6582,
  "\u2581panagballigi": 6583,
  "\u2581pannakaipasngay": 6584,
  "\u2581referring": 6585,
  "70": 6586,
  "\u2581Gal": 6587,
  "\u2581Hawaii": 6588,
  "\u2581kiniddaw": 6589,
  "\u2581nangpataud": 6590,
  "\u2581napnuan": 6591,
  "\u2581objects": 6592,
  "act": 6593,
  "\u2581Kaipapanan": 6594,
  "\u2581Knorr": 6595,
  "\u2581Next": 6596,
  "\u2581Page": 6597,
  "\u2581Ya": 6598,
  "\u2581acid": 6599,
  "\u2581campaign": 6600,
  "\u2581descendants": 6601,
  "\u2581hormone": 6602,
  "\u2581intended": 6603,
  "\u2581modest": 6604,
  "\u2581ridaw": 6605,
  "\u2581riknana": 6606,
  "\u2581star": 6607,
  "\u2581suporta": 6608,
  "\u2581urat": 6609,
  "\u2581v": 6610,
  "car": 6611,
  "\u2581Maaramid": 6612,
  "\u2581balaymi": 6613,
  "\u2581cared": 6614,
  "\u2581commit": 6615,
  "\u2581guardia": 6616,
  "\u2581inclined": 6617,
  "\u2581injury": 6618,
  "\u2581makaawat": 6619,
  "\u2581nakasarak": 6620,
  "\u2581rare": 6621,
  "\u2581sets": 6622,
  "\u2581yelo": 6623,
  "Ania": 6624,
  "bin": 6625,
  "\u258161": 6626,
  "\u2581educational": 6627,
  "\u2581initiative": 6628,
  "\u2581kaduak": 6629,
  "\u2581malagip": 6630,
  "\u2581mangaskasaba": 6631,
  "\u2581pasilidad": 6632,
  "\u2581press": 6633,
  "\u2581throw": 6634,
  "To": 6635,
  "gaw": 6636,
  "pannakidangadang": 6637,
  "\u2581Explain": 6638,
  "\u2581bright": 6639,
  "\u2581catch": 6640,
  "\u2581flying": 6641,
  "\u2581foods": 6642,
  "\u2581kontra": 6643,
  "\u2581map": 6644,
  "\u2581necessarily": 6645,
  "\u2581returning": 6646,
  "\u2581rumsua": 6647,
  "\u2581singgalut": 6648,
  "ayat": 6649,
  "\u25811989,": 6650,
  "\u2581Cronicas": 6651,
  "\u2581Mabalinmo": 6652,
  "\u2581accompanied": 6653,
  "\u2581bi": 6654,
  "\u2581host": 6655,
  "\u2581panangyaplikar": 6656,
  "\u2581slowly": 6657,
  "\u2581willingly": 6658,
  "ee": 6659,
  "will": 6660,
  "\u258138.": 6661,
  "\u2581Finland": 6662,
  "\u2581grasp": 6663,
  "\u2581naalumamay": 6664,
  "\u2581panangsanay": 6665,
  "\u2581repentant": 6666,
  "\u2581siaayat": 6667,
  "\u2581structure": 6668,
  "\u2581sufficient": 6669,
  "\u2581teenagers": 6670,
  "\u2581translations": 6671,
  "ach": 6672,
  "lum": 6673,
  "\u2581Esther": 6674,
  "\u2581ap": 6675,
  "\u2581lua": 6676,
  "\u2581mangiladawan": 6677,
  "\u2581panagsakit": 6678,
  "\u2581rivers": 6679,
  "\u2581sexually": 6680,
  "\u2581staff": 6681,
  "big": 6682,
  "\u2581Manag": 6683,
  "\u2581Office": 6684,
  "\u2581Scientists": 6685,
  "\u2581Sun": 6686,
  "\u2581east": 6687,
  "\u2581equipped": 6688,
  "\u2581ikeddeng": 6689,
  "\u2581messages": 6690,
  "\u2581nanang": 6691,
  "\u2581panangtaming": 6692,
  "\u2581survival": 6693,
  "\u25812010": 6694,
  "\u2581Nakaro": 6695,
  "\u2581Tokyo": 6696,
  "\u2581iyaay": 6697,
  "\u2581kaay": 6698,
  "\u2581linked": 6699,
  "\u2581nabasak": 6700,
  "\u2581nailubongan": 6701,
  "\u2581satisfied": 6702,
  "\u2581shed": 6703,
  "\u2581slavery": 6704,
  "\u2581whereas": 6705,
  "ple": 6706,
  "\u2581Ammona": 6707,
  "\u2581Nagan": 6708,
  "\u2581Part": 6709,
  "\u2581Show": 6710,
  "\u2581daong": 6711,
  "\u2581depend": 6712,
  "\u2581kabaian": 6713,
  "\u2581nagtrabaho": 6714,
  "\u2581repeated": 6715,
  "\u2581soft": 6716,
  "\u2581udi": 6717,
  "panunot": 6718,
  "\u2581Rahab": 6719,
  "\u2581Siudad": 6720,
  "\u2581agpatulong": 6721,
  "\u2581arig": 6722,
  "\u2581bones": 6723,
  "\u2581dollars": 6724,
  "\u2581fallen": 6725,
  "\u2581ikagumaantayo": 6726,
  "\u2581maipasango": 6727,
  "\u2581natangsit": 6728,
  "\u2581pagnanaedan": 6729,
  "\u2581reign": 6730,
  "\u2581tarigagayan": 6731,
  "\u2581theocratic": 6732,
  "don": 6733,
  "log": 6734,
  "ngem": 6735,
  "\u2581Creation": 6736,
  "\u2581End": 6737,
  "\u2581Hungary": 6738,
  "\u2581inyebkas": 6739,
  "\u2581kinasoberano": 6740,
  "\u2581napaay": 6741,
  "\u2581prejudice": 6742,
  "\u25815;": 6743,
  "\u2581Est": 6744,
  "\u2581Insuratna": 6745,
  "\u2581Naammuan": 6746,
  "\u2581aglablabes": 6747,
  "\u2581dasig": 6748,
  "\u2581shortly": 6749,
  "\u2581totally": 6750,
  "5,000": 6751,
  "rd": 6752,
  "\u2581JEHOVAH": 6753,
  "\u2581Soberano": 6754,
  "\u2581acknowledge": 6755,
  "\u2581challenging": 6756,
  "\u2581kompiuter": 6757,
  "\u2581kontinente": 6758,
  "\u2581smaller": 6759,
  "\u2581tanap": 6760,
  "konto": 6761,
  "oc": 6762,
  "\u2581Corinth": 6763,
  "\u2581Kenkuana": 6764,
  "\u2581assures": 6765,
  "\u2581awake": 6766,
  "\u2581discouraged": 6767,
  "\u2581naidumduma": 6768,
  "\u2581oy": 6769,
  "\u2581parable": 6770,
  "\u2581pornography": 6771,
  "\u2581schedule": 6772,
  "\u2581sipapakumbaba": 6773,
  "\u25812009": 6774,
  "\u258137.": 6775,
  "\u2581Hindu": 6776,
  "\u2581Sadino": 6777,
  "\u2581anianto": 6778,
  "\u2581deliverance": 6779,
  "\u2581exchange": 6780,
  "\u2581maited": 6781,
  "\u2581motivate": 6782,
  "\u2581murder": 6783,
  "\u2581pammakawan": 6784,
  "\u2581panagtakaw": 6785,
  "\u2581records": 6786,
  "bat": 6787,
  "kto": 6788,
  "\u2581Mars": 6789,
  "\u2581accepting": 6790,
  "\u2581begun": 6791,
  "\u2581cast": 6792,
  "\u2581ex": 6793,
  "\u2581komplikado": 6794,
  "\u2581makitak": 6795,
  "\u2581oxygen": 6796,
  "\u2581pakabuklan": 6797,
  "\u2581panagsasarita": 6798,
  "\u2581printing": 6799,
  "\u2581worry": 6800,
  "ile": 6801,
  "ize": 6802,
  "\u2581AG": 6803,
  "\u2581Cesar": 6804,
  "\u2581Makin": 6805,
  "\u2581code": 6806,
  "\u2581pagpa": 6807,
  "\u2581pannao": 6808,
  "\u2581restore": 6809,
  "\u2581stands": 6810,
  "cha": 6811,
  "\u2581Albert": 6812,
  "\u2581Linaonna": 6813,
  "\u2581Luther": 6814,
  "\u2581agibtur": 6815,
  "\u2581binalaybalay": 6816,
  "\u2581friendly": 6817,
  "\u2581kapammatian": 6818,
  "\u2581kunaenna": 6819,
  "\u2581pasaray": 6820,
  "\u2581Bi": 6821,
  "\u2581Elizabeth": 6822,
  "\u2581Laeng": 6823,
  "\u2581Laud": 6824,
  "\u2581dioxide": 6825,
  "\u2581dutdot": 6826,
  "\u2581lansangan": 6827,
  "\u2581mabalintayo": 6828,
  "\u2581mapagnaedan": 6829,
  "\u2581sine": 6830,
  "ual": 6831,
  "\u2581debt": 6832,
  "\u2581finish": 6833,
  "\u2581instructed": 6834,
  "\u2581kababalinna": 6835,
  "\u2581pamuspusan": 6836,
  "\u2581periods": 6837,
  "\u2581reads": 6838,
  "\u2581sorts": 6839,
  "ring": 6840,
  "ulo": 6841,
  "\u2581Mangted": 6842,
  "\u2581Millions": 6843,
  "\u2581Samaria": 6844,
  "\u2581assurance": 6845,
  "\u2581ensure": 6846,
  "\u2581naikkat": 6847,
  "\u2581paglaingan": 6848,
  "\u2581pammalubos": 6849,
  "\u2581panagsikog": 6850,
  "\u2581reply": 6851,
  "\u2581transfusions": 6852,
  "pat": 6853,
  "with": 6854,
  "\u258136.": 6855,
  "\u2581Blood": 6856,
  "\u2581ideal": 6857,
  "\u2581mariknam": 6858,
  "\u2581natantan": 6859,
  "\u2581pannubok": 6860,
  "\u2581sinners": 6861,
  "\u2581unibersidad": 6862,
  "\u2581Saanen": 6863,
  "\u2581du": 6864,
  "\u2581ikagumaan": 6865,
  "\u2581increasingly": 6866,
  "\u2581makapagtalek": 6867,
  "\u2581panangtulad": 6868,
  "\u2581pangen": 6869,
  "\u2581possibility": 6870,
  "\u2581tired": 6871,
  "\u2581typical": 6872,
  "\u25811943": 6873,
  "\u2581Agimtuod": 6874,
  "\u2581Eli": 6875,
  "\u2581Los": 6876,
  "\u2581adres": 6877,
  "\u2581ayatentayo": 6878,
  "\u2581covering": 6879,
  "\u2581drew": 6880,
  "\u2581farmers": 6881,
  "\u2581kalikagumanna": 6882,
  "\u2581load": 6883,
  "\u2581pin": 6884,
  "\u2581repentance": 6885,
  "\u2581shell": 6886,
  "ano": 6887,
  "iv": 6888,
  "\u2581Additionally": 6889,
  "\u2581Impaay": 6890,
  "\u2581alkohol": 6891,
  "\u2581differ": 6892,
  "\u2581mabalinyo": 6893,
  "\u2581mangpasayaat": 6894,
  "\u2581measures": 6895,
  "rag": 6896,
  "\u2581Dakes": 6897,
  "\u2581Welcome": 6898,
  "\u2581gayyemna": 6899,
  "\u2581inusarna": 6900,
  "\u2581masel": 6901,
  "\u2581nagusar": 6902,
  "\u2581Laglagipem": 6903,
  "\u2581approved": 6904,
  "\u2581conflicts": 6905,
  "\u2581discover": 6906,
  "\u2581fascinating": 6907,
  "\u2581intelligent": 6908,
  "\u2581nakaigapuan": 6909,
  "\u2581nakiraman": 6910,
  "\u2581persecuted": 6911,
  "\u2581solve": 6912,
  "\u2581volunteers": 6913,
  "\u2581Babylonian": 6914,
  "\u2581Maya": 6915,
  "\u2581associates": 6916,
  "\u2581therapy": 6917,
  "buya": 6918,
  "jo": 6919,
  "ngi": 6920,
  "rikna": 6921,
  "\u2581Espa\u00f1ol": 6922,
  "\u2581Mesianiko": 6923,
  "\u2581apostata": 6924,
  "\u2581kalkalainganna": 6925,
  "\u2581limitations": 6926,
  "\u2581mangpabileg": 6927,
  "\u2581panangdadael": 6928,
  "\u2581rumangrang": 6929,
  "\u2581yan": 6930,
  "kina": 6931,
  "pho": 6932,
  "rit": 6933,
  "\u2581Contents": 6934,
  "\u2581Egipcio": 6935,
  "\u2581Globe": 6936,
  "\u2581Making": 6937,
  "\u2581Manmano": 6938,
  "\u2581Mi": 6939,
  "\u2581Zechariah": 6940,
  "\u2581achieve": 6941,
  "\u2581context": 6942,
  "\u2581giant": 6943,
  "\u2581partikular": 6944,
  "\u2581rapidly": 6945,
  "\u2581unget": 6946,
  "\u2581145": 6947,
  "\u2581commands": 6948,
  "\u2581itden": 6949,
  "\u2581mistake": 6950,
  "\u2581naipan": 6951,
  "\u2581pakakitaan": 6952,
  "\u2581panagsakripisio": 6953,
  "\u2581panangpadakkel": 6954,
  "\u2581sounds": 6955,
  "\u2581traditions": 6956,
  "\u2581worst": 6957,
  "\u2581Avoid": 6958,
  "\u2581Chi": 6959,
  "\u2581View": 6960,
  "\u2581abandon": 6961,
  "\u2581inches": 6962,
  "\u2581lam": 6963,
  "\u2581maintaining": 6964,
  "\u2581nagpatingga": 6965,
  "\u2581paglakuan": 6966,
  "\u2581partner": 6967,
  "\u2581tamingen": 6968,
  "\u2581thankful": 6969,
  "mba": 6970,
  "tes": 6971,
  "that": 6972,
  "\u258117;": 6973,
  "\u2581Egyptian": 6974,
  "\u2581Near": 6975,
  "\u2581Saulo": 6976,
  "\u2581Septuagint": 6977,
  "\u2581bagbagitayo": 6978,
  "\u2581coffee": 6979,
  "\u2581elsewhere": 6980,
  "\u2581ipasimudaagna": 6981,
  "\u2581nagkaykaysa": 6982,
  "\u2581panangbasa": 6983,
  "\u2581pannakatungpal": 6984,
  "\u2581pannakikamalala": 6985,
  "\u2581route": 6986,
  "\u2581surrounding": 6987,
  "\u2581Amianan": 6988,
  "\u2581Columbus": 6989,
  "\u2581Ge": 6990,
  "\u2581Pe": 6991,
  "\u2581faithfulness": 6992,
  "\u2581favorite": 6993,
  "\u2581naimpadtuan": 6994,
  "\u2581naparsua": 6995,
  "\u2581roads": 6996,
  "\u2581searching": 6997,
  "ino": 6998,
  "ski": 6999,
  "\u2581Protestant": 7000,
  "\u2581Zacarias": 7001,
  "\u2581bacteria": 7002,
  "\u2581magagaran": 7003,
  "\u2581marisut": 7004,
  "\u2581miraculous": 7005,
  "\u2581proverbio": 7006,
  "\u2581trabahok": 7007,
  "\u25811947": 7008,
  "\u2581Medicine": 7009,
  "\u2581Paset": 7010,
  "\u2581fever": 7011,
  "\u2581nabunga": 7012,
  "\u2581naganak": 7013,
  "\u2581respected": 7014,
  "\u2581sapasap": 7015,
  "\u2581sell": 7016,
  "DA": 7017,
  "kal": 7018,
  "pili": 7019,
  "\u2581Bu": 7020,
  "\u2581Passover": 7021,
  "\u2581Tom": 7022,
  "\u2581agpapan": 7023,
  "\u2581ikankano": 7024,
  "\u2581immortal": 7025,
  "\u2581maaddaantayo": 7026,
  "\u2581merciful": 7027,
  "\u2581nars": 7028,
  "\u2581ramut": 7029,
  "\u2581roof": 7030,
  "\u2581silo": 7031,
  "\u2581unclean": 7032,
  "\u2581universal": 7033,
  "can": 7034,
  "sao": 7035,
  "\u25811941": 7036,
  "\u2581Dida": 7037,
  "\u2581Eskuelaan": 7038,
  "\u2581Unlike": 7039,
  "\u2581Years": 7040,
  "\u2581barito": 7041,
  "\u2581cruel": 7042,
  "\u2581desert": 7043,
  "\u2581film": 7044,
  "\u2581illustrations": 7045,
  "\u2581nakaawat": 7046,
  "\u2581preced": 7047,
  "60": 7048,
  "LA": 7049,
  "\u2581607": 7050,
  "\u2581Karen": 7051,
  "\u2581Press": 7052,
  "\u2581bautisado": 7053,
  "\u2581emperador": 7054,
  "\u2581impression": 7055,
  "\u2581informed": 7056,
  "\u2581lapayag": 7057,
  "\u2581lugarda": 7058,
  "\u2581nangibaon": 7059,
  "\u2581occurs": 7060,
  "\u2581opposed": 7061,
  "\u2581strange": 7062,
  "\u2581thrown": 7063,
  "\u2581title": 7064,
  "30": 7065,
  "ez": 7066,
  "\u25811918": 7067,
  "\u2581Abagatan": 7068,
  "\u2581Lazaro": 7069,
  "\u2581agbasol": 7070,
  "\u2581bitter": 7071,
  "\u2581entirely": 7072,
  "\u2581function": 7073,
  "\u2581identity": 7074,
  "\u2581legs": 7075,
  "\u2581maibagay": 7076,
  "ou": 7077,
  "\u25812012": 7078,
  "\u2581Answers": 7079,
  "\u2581Review": 7080,
  "\u2581darat": 7081,
  "\u2581maawatantayo": 7082,
  "\u2581mapaneknekan": 7083,
  "\u2581mapataud": 7084,
  "\u2581pagsayaatan": 7085,
  "\u2581umayto": 7086,
  "\u2581waves": 7087,
  "\u2581Right": 7088,
  "\u2581ayatenda": 7089,
  "\u2581bambantay": 7090,
  "\u2581breast": 7091,
  "\u2581comment": 7092,
  "\u2581conviction": 7093,
  "\u2581engaged": 7094,
  "\u2581lupot": 7095,
  "\u2581naala": 7096,
  "\u2581nadisenio": 7097,
  "\u2581panagay": 7098,
  "\u2581tendency": 7099,
  "\u2581Addada": 7100,
  "\u2581alagaden": 7101,
  "\u2581approaching": 7102,
  "\u2581flee": 7103,
  "\u2581humbly": 7104,
  "\u2581makapagtalinaed": 7105,
  "\u2581makigimong": 7106,
  "\u2581party": 7107,
  "\u2581philosophy": 7108,
  "\u2581prefer": 7109,
  "\u2581sensitive": 7110,
  "\u2581tested": 7111,
  "\u2581tulonganna": 7112,
  "ors": 7113,
  "panang": 7114,
  "\u2581ayatenna": 7115,
  "\u2581nagadal": 7116,
  "\u2581nagannakko": 7117,
  "\u2581nasanay": 7118,
  "\u2581pagwadan": 7119,
  "\u2581panangbigbig": 7120,
  "\u2581resort": 7121,
  "UM": 7122,
  "ekto": 7123,
  "\u2581Worship": 7124,
  "\u2581agkabannuag": 7125,
  "\u2581agtugaw": 7126,
  "\u2581arrival": 7127,
  "\u2581double": 7128,
  "\u2581mariknada": 7129,
  "\u2581mu": 7130,
  "\u2581naibilang": 7131,
  "\u2581narelihiusuan": 7132,
  "\u2581pannakipagrikna": 7133,
  "\u2581peers": 7134,
  "\u2581puntiria": 7135,
  "\u2581teenage": 7136,
  "mat": 7137,
  "pug": 7138,
  "\u2581agbanag": 7139,
  "\u2581board": 7140,
  "\u2581demands": 7141,
  "\u2581donasion": 7142,
  "\u2581elemento": 7143,
  "\u2581maragpat": 7144,
  "\u2581nakababain": 7145,
  "\u2581rugit": 7146,
  "\u2581wings": 7147,
  "ating": 7148,
  "gat": 7149,
  "ny": 7150,
  "\u2581[1": 7151,
  "\u2581abogado": 7152,
  "\u2581ageskuela": 7153,
  "\u2581believing": 7154,
  "\u2581binasa": 7155,
  "\u2581dan": 7156,
  "\u2581idolatry": 7157,
  "\u2581inherited": 7158,
  "\u2581nabiag": 7159,
  "\u2581nangpa": 7160,
  "\u2581panagamak": 7161,
  "\u2581planning": 7162,
  "\u2581relate": 7163,
  "\u2581rose": 7164,
  "\u2581tukad": 7165,
  "lit": 7166,
  "\u2581Har": 7167,
  "\u2581Panid": 7168,
  "\u2581Ri": 7169,
  "\u2581Truly": 7170,
  "\u2581admonition": 7171,
  "\u2581delighted": 7172,
  "\u2581facilities": 7173,
  "\u2581handed": 7174,
  "\u2581impeksion": 7175,
  "\u2581mainly": 7176,
  "\u2581mourning": 7177,
  "\u2581rukod": 7178,
  "\u2581syndrome": 7179,
  "\u2581Heart": 7180,
  "\u2581Peru": 7181,
  "\u2581iyaalsa": 7182,
  "\u2581kaadayona": 7183,
  "\u2581mabigbig": 7184,
  "\u2581nangyeg": 7185,
  "\u2581Dimo": 7186,
  "\u2581Galilea": 7187,
  "\u2581Umad": 7188,
  "\u2581Which": 7189,
  "\u2581artikuloyo": 7190,
  "\u2581execution": 7191,
  "\u2581maagasan": 7192,
  "\u2581mailawlawag": 7193,
  "\u2581maipakitatayo": 7194,
  "\u2581namagbalin": 7195,
  "\u2581panangmatmatna": 7196,
  "\u2581possession": 7197,
  "\u2581profound": 7198,
  "Adtoy": 7199,
  "Amin": 7200,
  "\u258164": 7201,
  "\u2581Malachi": 7202,
  "\u2581Nainsiriban": 7203,
  "\u2581Sir": 7204,
  "\u2581baket": 7205,
  "\u2581beddeng": 7206,
  "\u2581executed": 7207,
  "\u2581height": 7208,
  "\u2581makalawas": 7209,
  "\u2581mangawat": 7210,
  "\u2581napaypayso": 7211,
  "\u2581park": 7212,
  "\u2581reap": 7213,
  "\u2581regardless": 7214,
  "\u2581strengthening": 7215,
  "\u2581transfusion": 7216,
  "nder": 7217,
  "\u2581Anianto": 7218,
  "\u2581Inusar": 7219,
  "\u2581Mangipaay": 7220,
  "\u2581Mountain": 7221,
  "\u2581isasarungkar": 7222,
  "\u2581makasursuro": 7223,
  "\u2581napaliiw": 7224,
  "\u2581nariknak": 7225,
  "\u2581poured": 7226,
  "\u2581pursuing": 7227,
  "\u2581taba": 7228,
  "\u2581weigh": 7229,
  "anen": 7230,
  "ani": 7231,
  "\u2581Maisupadi": 7232,
  "\u2581ahensia": 7233,
  "\u2581biahe": 7234,
  "\u2581cloud": 7235,
  "\u2581depth": 7236,
  "\u2581mangituray": 7237,
  "\u2581portion": 7238,
  "\u2581risks": 7239,
  "Masapul": 7240,
  "agas": 7241,
  "\u2581Frank": 7242,
  "\u2581agad": 7243,
  "\u2581agpeggad": 7244,
  "\u2581benefited": 7245,
  "\u2581mangidaulo": 7246,
  "\u2581Canadian": 7247,
  "\u2581Courtesy": 7248,
  "\u2581IT": 7249,
  "\u2581Malakias": 7250,
  "\u2581cars": 7251,
  "\u2581katan": 7252,
  "\u2581mapnek": 7253,
  "\u2581pagkamangan": 7254,
  "\u2581simboliko": 7255,
  "\u2581sueldo": 7256,
  "\u2581talked": 7257,
  "\u2581tulbek": 7258,
  "\u2581ubbog": 7259,
  "\u2581maala": 7260,
  "\u2581mangpapatay": 7261,
  "\u2581silalawag": 7262,
  "\u2581trusted": 7263,
  "gas": 7264,
  "gra": 7265,
  "sag": 7266,
  "\u2581Dakayo": 7267,
  "\u2581beast": 7268,
  "\u2581immediate": 7269,
  "\u2581inherit": 7270,
  "\u2581lovingly": 7271,
  "\u2581namag": 7272,
  "\u2581patienda": 7273,
  "\u2581sumayaat": 7274,
  "ario": 7275,
  "ction": 7276,
  "kel": 7277,
  "\u2581Paka": 7278,
  "\u2581Siberia": 7279,
  "\u2581accord": 7280,
  "\u2581agkiddaw": 7281,
  "\u2581choices": 7282,
  "\u2581era": 7283,
  "\u2581exact": 7284,
  "\u2581examination": 7285,
  "\u2581kalalainganna": 7286,
  "\u2581lowly": 7287,
  "\u2581napag": 7288,
  "\u2581noise": 7289,
  "\u2581outlook": 7290,
  "\u2581permission": 7291,
  "\u2581plenty": 7292,
  "\u2581ruled": 7293,
  "\u2581wave": 7294,
  "Nag": 7295,
  "dor": 7296,
  "ea": 7297,
  "shi": 7298,
  "\u2581Elisha": 7299,
  "\u2581Ever": 7300,
  "\u2581acquire": 7301,
  "\u2581attractive": 7302,
  "\u2581driver": 7303,
  "\u2581globe": 7304,
  "\u2581hunger": 7305,
  "\u2581miting": 7306,
  "\u2581narang": 7307,
  "\u2581preserved": 7308,
  "\u2581trak": 7309,
  "bul": 7310,
  "lic": 7311,
  "ning": 7312,
  "rad": 7313,
  "\u2581Abram": 7314,
  "\u2581Atenas": 7315,
  "\u2581Eliseo": 7316,
  "\u2581Hi": 7317,
  "\u2581Kasanoyo": 7318,
  "\u2581Mom": 7319,
  "\u2581Valley": 7320,
  "\u2581discussions": 7321,
  "\u2581imperfection": 7322,
  "\u2581itultuloy": 7323,
  "\u2581maad": 7324,
  "\u2581maammuam": 7325,
  "\u2581mamin": 7326,
  "\u2581nagkedked": 7327,
  "\u2581remote": 7328,
  "\u2581satisfy": 7329,
  "\u2581scripture": 7330,
  "\u2581storm": 7331,
  "Z": 7332,
  "dag": 7333,
  "fa": 7334,
  "\u2581Dis": 7335,
  "\u2581Last": 7336,
  "\u2581Nabiit": 7337,
  "\u2581Rwanda": 7338,
  "\u2581generous": 7339,
  "\u2581ipapan": 7340,
  "\u2581iparangarang": 7341,
  "\u2581judges": 7342,
  "\u2581nagturong": 7343,
  "\u2581naurnong": 7344,
  "\u2581pakadanagan": 7345,
  "\u2581pannakapapatay": 7346,
  "\u2581tum": 7347,
  "\u2581urges": 7348,
  "\u2581Close": 7349,
  "\u2581accidents": 7350,
  "\u2581aguray": 7351,
  "\u2581bersion": 7352,
  "\u2581chronic": 7353,
  "\u2581forgiving": 7354,
  "\u2581ipamatmat": 7355,
  "\u2581kalam": 7356,
  "\u2581mangidumduma": 7357,
  "\u2581naragsakan": 7358,
  "\u2581posision": 7359,
  "\u2581rewarding": 7360,
  "\u2581round": 7361,
  "\u2581sentence": 7362,
  "\u2581sides": 7363,
  "\u2581warfare": 7364,
  "\u2581Apotayo": 7365,
  "\u2581Sanhedrin": 7366,
  "\u2581Spiritual": 7367,
  "\u2581admit": 7368,
  "\u2581enables": 7369,
  "\u2581hell": 7370,
  "\u2581naapektaran": 7371,
  "\u2581pagarup": 7372,
  "\u2581pilosopo": 7373,
  "\u2581sugar": 7374,
  "\u2581Belgium": 7375,
  "\u2581Gubuayan": 7376,
  "\u2581IS": 7377,
  "\u2581Inaldaw": 7378,
  "\u2581MANNURAT": 7379,
  "\u2581Need": 7380,
  "\u2581announced": 7381,
  "\u2581criminal": 7382,
  "\u2581damaged": 7383,
  "\u2581flow": 7384,
  "\u2581linaonna": 7385,
  "\u2581panagbiagko": 7386,
  "\u2581pleasing": 7387,
  "\u2581sasaona": 7388,
  "\u2581tatang": 7389,
  "ente": 7390,
  "lis": 7391,
  "\u25814,000": 7392,
  "\u2581MA": 7393,
  "\u2581Scotland": 7394,
  "\u2581agduduma": 7395,
  "\u2581attain": 7396,
  "\u2581compassionate": 7397,
  "\u2581dies": 7398,
  "\u2581empire": 7399,
  "\u2581hall": 7400,
  "\u2581lalat": 7401,
  "\u2581matarigagayan": 7402,
  "\u2581panagtarigagay": 7403,
  "\u2581stronger": 7404,
  "\u2581sub": 7405,
  "tter": 7406,
  "\u2581Control": 7407,
  "\u2581Lazarus": 7408,
  "\u2581Rio": 7409,
  "\u2581Were": 7410,
  "\u2581aglabas": 7411,
  "\u2581humankind": 7412,
  "\u2581mabigbigbig": 7413,
  "\u2581nasientipikuan": 7414,
  "\u2581organisasionna": 7415,
  "\u2581sagpaminsan": 7416,
  "idad": 7417,
  "ius": 7418,
  "san": 7419,
  "tiko": 7420,
  "uc": 7421,
  "\u2581BE": 7422,
  "\u2581WRITER": 7423,
  "\u2581environmental": 7424,
  "\u2581ipadamag": 7425,
  "\u2581proverb": 7426,
  "\u2581silent": 7427,
  "\u2581wrath": 7428,
  "duma": 7429,
  "ship": 7430,
  "\u2581Impagarup": 7431,
  "\u2581Kayatyo": 7432,
  "\u2581addressed": 7433,
  "\u2581dandanum": 7434,
  "\u2581drop": 7435,
  "\u2581pinanid": 7436,
  "\u2581shaped": 7437,
  "\u2581significance": 7438,
  "\u2581tragedy": 7439,
  "\u2581unknown": 7440,
  "trabaho": 7441,
  "\u2581Levita": 7442,
  "\u2581Lima": 7443,
  "\u2581Madrid": 7444,
  "\u2581accused": 7445,
  "\u2581bilog": 7446,
  "\u2581defense": 7447,
  "\u2581settled": 7448,
  "\u2581trahedia": 7449,
  "\u2581weaknesses": 7450,
  "rak": 7451,
  "\u2581Ancient": 7452,
  "\u2581Denmark": 7453,
  "\u2581anna": 7454,
  "\u2581calamity": 7455,
  "\u2581dinakamatna": 7456,
  "\u2581doors": 7457,
  "\u2581hide": 7458,
  "\u2581hoped": 7459,
  "\u2581nasged": 7460,
  "\u2581pamiliayo": 7461,
  "\u2581refreshing": 7462,
  "\u2581riknam": 7463,
  "\u2581status": 7464,
  "\u2581surprising": 7465,
  "\u258183": 7466,
  "\u2581Czech": 7467,
  "\u2581KAS": 7468,
  "\u2581Notice": 7469,
  "\u2581Power": 7470,
  "\u2581Prayer": 7471,
  "\u2581bumalay": 7472,
  "\u2581iy": 7473,
  "\u2581kangato": 7474,
  "\u2581kinatan": 7475,
  "\u2581nalimed": 7476,
  "\u2581upbuilding": 7477,
  "\u2581upset": 7478,
  "los": 7479,
  "\u2581Hong": 7480,
  "\u2581Louis": 7481,
  "\u2581Mc": 7482,
  "\u2581Ocean": 7483,
  "\u2581Susan": 7484,
  "\u2581Things": 7485,
  "\u2581edision": 7486,
  "\u2581hungry": 7487,
  "\u2581idolo": 7488,
  "\u2581il": 7489,
  "\u2581replace": 7490,
  "\u2581teenager": 7491,
  "lar": 7492,
  "yan": 7493,
  "\u2581Maipaay": 7494,
  "\u2581Malagipyo": 7495,
  "\u2581Meanwhile": 7496,
  "\u2581Ruso": 7497,
  "\u2581bilinna": 7498,
  "\u2581bukodmo": 7499,
  "\u2581figurative": 7500,
  "\u2581inggat": 7501,
  "\u2581kuadrado": 7502,
  "\u2581nadeskribir": 7503,
  "\u2581pategna": 7504,
  "\u2581pope": 7505,
  "\u2581tempted": 7506,
  "\u2581usigenyo": 7507,
  "ologist": 7508,
  "rigat": 7509,
  "\u25812483": 7510,
  "\u2581Darwin": 7511,
  "\u2581Pilato": 7512,
  "\u2581a\u00f1os": 7513,
  "\u2581limits": 7514,
  "\u2581maiparangarang": 7515,
  "\u2581modelo": 7516,
  "\u2581naawatan": 7517,
  "\u2581oden": 7518,
  "\u2581propaganda": 7519,
  "\u2581siwayawaya": 7520,
  "\u2581sungbatan": 7521,
  "Agimtuod": 7522,
  "TA": 7523,
  "ble": 7524,
  "gre": 7525,
  "iparangarang": 7526,
  "pit": 7527,
  "sch": 7528,
  "sina": 7529,
  "\u2581Gospels": 7530,
  "\u2581Impa": 7531,
  "\u2581agindeg": 7532,
  "\u2581bought": 7533,
  "\u2581grows": 7534,
  "\u2581miracle": 7535,
  "\u2581nabatbati": 7536,
  "\u2581naikabil": 7537,
  "\u2581simmarungkar": 7538,
  "lot": 7539,
  "lugan": 7540,
  "managimbubukodan": 7541,
  "nta": 7542,
  "uray": 7543,
  "\u2581Ipadamag": 7544,
  "\u2581Trust": 7545,
  "\u2581agka": 7546,
  "\u2581commented": 7547,
  "\u2581hues": 7548,
  "\u2581luglugar": 7549,
  "\u2581matana": 7550,
  "\u2581minute": 7551,
  "\u2581nagunggonaan": 7552,
  "\u2581panagsanay": 7553,
  "\u2581pinataud": 7554,
  "\u2581somewhat": 7555,
  "Kitaenyo": 7556,
  "arita": 7557,
  "ngan": 7558,
  "\u25815,000": 7559,
  "\u2581Kong": 7560,
  "\u2581ipakpakita": 7561,
  "\u2581panagayatna": 7562,
  "\u2581seat": 7563,
  "\u2581usok": 7564,
  "uy": 7565,
  "\u2581Agbiag": 7566,
  "\u2581Any": 7567,
  "\u2581Learning": 7568,
  "\u2581Namnama": 7569,
  "\u2581Pu": 7570,
  "\u2581concept": 7571,
  "\u2581consist": 7572,
  "\u2581deeper": 7573,
  "\u2581fed": 7574,
  "\u2581guided": 7575,
  "\u2581ho": 7576,
  "\u2581hopes": 7577,
  "\u2581infection": 7578,
  "\u2581innayon": 7579,
  "\u2581ipakaammo": 7580,
  "\u2581iranud": 7581,
  "\u2581kampania": 7582,
  "\u2581klima": 7583,
  "\u2581maaddaanda": 7584,
  "\u2581pannakasanay": 7585,
  "\u2581protina": 7586,
  "\u2581section": 7587,
  "\u2581sending": 7588,
  "\u2581substansia": 7589,
  "ker": 7590,
  "\u2581Again": 7591,
  "\u2581Ephesus": 7592,
  "\u2581General": 7593,
  "\u2581Try": 7594,
  "\u2581bugbugtong": 7595,
  "\u2581character": 7596,
  "\u2581comfortable": 7597,
  "\u2581didios": 7598,
  "\u2581ipakitada": 7599,
  "\u2581kakabsatda": 7600,
  "\u2581obvious": 7601,
  "\u2581pangta": 7602,
  "\u2581perfection": 7603,
  "\u2581riknada": 7604,
  "\u2581separated": 7605,
  "\u2581tuladentayo": 7606,
  "mor": 7607,
  "pul": 7608,
  "tang": 7609,
  "\u2581Itultuloyyo": 7610,
  "\u2581Macedonia": 7611,
  "\u2581Martha": 7612,
  "\u2581Portuguese": 7613,
  "\u2581cultures": 7614,
  "\u2581disorders": 7615,
  "\u2581dita": 7616,
  "\u2581imam": 7617,
  "\u2581increases": 7618,
  "\u2581inikkanna": 7619,
  "\u2581ipalgak": 7620,
  "\u2581ipangpangruna": 7621,
  "\u2581linia": 7622,
  "\u2581marital": 7623,
  "\u2581obligasion": 7624,
  "\u2581pannakayanak": 7625,
  "\u2581participate": 7626,
  "\u25811944": 7627,
  "\u2581Evidently": 7628,
  "\u2581Jan": 7629,
  "\u2581arrive": 7630,
  "\u2581cried": 7631,
  "\u2581kakaruan": 7632,
  "\u2581mannakaawat": 7633,
  "\u2581naikuna": 7634,
  "\u2581rejoicing": 7635,
  "\u2581rewarded": 7636,
  "\u2581ulona": 7637,
  "80": 7638,
  "ld": 7639,
  "\u25811989": 7640,
  "\u2581Jos\u00e9": 7641,
  "\u2581Malagip": 7642,
  "\u2581Tulong": 7643,
  "\u2581bukod": 7644,
  "\u2581defend": 7645,
  "\u2581fifth": 7646,
  "\u2581inkeddengna": 7647,
  "\u2581mariribukan": 7648,
  "\u2581patiently": 7649,
  "\u2581reminds": 7650,
  "\u2581similarly": 7651,
  "\u2581weekly": 7652,
  "king": 7653,
  "\u2581Africano": 7654,
  "\u2581Argentina": 7655,
  "\u2581Disease": 7656,
  "\u2581Esau": 7657,
  "\u2581Kayatmo": 7658,
  "\u2581Mail": 7659,
  "\u2581Victoria": 7660,
  "\u2581agbirok": 7661,
  "\u2581extraordinary": 7662,
  "\u2581fault": 7663,
  "\u2581foolish": 7664,
  "\u2581fought": 7665,
  "\u2581ibagam": 7666,
  "\u2581illustrated": 7667,
  "\u2581improved": 7668,
  "\u2581madama": 7669,
  "\u2581matada": 7670,
  "\u2581nadlaw": 7671,
  "\u2581remembered": 7672,
  "\u2581ubas": 7673,
  "\u2581uyokan": 7674,
  "ill": 7675,
  "pudno": 7676,
  "\u258173": 7677,
  "\u258195": 7678,
  "\u2581Fund": 7679,
  "\u2581Master": 7680,
  "\u2581Pat": 7681,
  "\u2581Pre": 7682,
  "\u2581Rom": 7683,
  "\u2581denggen": 7684,
  "\u2581maikontra": 7685,
  "\u2581motor": 7686,
  "\u2581nakapag": 7687,
  "\u2581pannakakita": 7688,
  "\u2581peer": 7689,
  "\u2581practiced": 7690,
  "\u2581sweet": 7691,
  "\u2581(19": 7692,
  "\u258140.": 7693,
  "\u2581Ammoyo": 7694,
  "\u2581Asa": 7695,
  "\u2581Francisco": 7696,
  "\u2581considerable": 7697,
  "\u2581deadly": 7698,
  "\u2581extensive": 7699,
  "\u2581hospitality": 7700,
  "\u2581makitayo": 7701,
  "\u2581pakainaigan": 7702,
  "\u2581panagbiagtayo": 7703,
  "\u2581panagkakabsat": 7704,
  "\u2581te": 7705,
  "\u2581Mari": 7706,
  "\u2581Min": 7707,
  "\u2581agbaliwbaliw": 7708,
  "\u2581amounts": 7709,
  "\u2581effectively": 7710,
  "\u2581endless": 7711,
  "\u2581mangsapul": 7712,
  "\u2581memories": 7713,
  "\u2581nalpas": 7714,
  "\u2581network": 7715,
  "\u2581realm": 7716,
  "\u2581rescue": 7717,
  "\u2581sukimaten": 7718,
  "IL": 7719,
  "asi": 7720,
  "pun": 7721,
  "\u25811983": 7722,
  "\u2581250": 7723,
  "\u2581Tyndale": 7724,
  "\u2581kinaalumamay": 7725,
  "\u2581pabor": 7726,
  "\u2581panagandar": 7727,
  "\u2581panawan": 7728,
  "\u2581sugat": 7729,
  "\u2581weakness": 7730,
  "kur": 7731,
  "ox": 7732,
  "\u2581(\"": 7733,
  "\u2581Bassit": 7734,
  "\u2581dagup": 7735,
  "\u2581debate": 7736,
  "\u2581despair": 7737,
  "\u2581dumdumngeg": 7738,
  "\u2581falls": 7739,
  "\u2581kararagtayo": 7740,
  "\u2581liplipatan": 7741,
  "\u2581mamagpeggad": 7742,
  "\u2581managdakdakes": 7743,
  "\u2581minor": 7744,
  "\u2581naudi": 7745,
  "\u2581organisado": 7746,
  "\u2581por": 7747,
  "\u2581sites": 7748,
  "\u2581sosial": 7749,
  "\u2581ubingak": 7750,
  "ji": 7751,
  "\u2581Reading": 7752,
  "\u2581Sabali": 7753,
  "\u2581asul": 7754,
  "\u2581ballasiw": 7755,
  "\u2581bull": 7756,
  "\u2581mabaybay": 7757,
  "\u2581mapagungar": 7758,
  "\u2581rangtay": 7759,
  "\u2581suitable": 7760,
  "izing": 7761,
  "salungasing": 7762,
  "ura": 7763,
  "\u2581Mabalinyo": 7764,
  "\u2581Unay": 7765,
  "\u2581adding": 7766,
  "\u2581armed": 7767,
  "\u2581destructive": 7768,
  "\u2581domestic": 7769,
  "\u2581makasabidong": 7770,
  "\u2581mangapektar": 7771,
  "\u2581motives": 7772,
  "\u2581naanus": 7773,
  "\u2581panaglakay": 7774,
  "\u2581panagrikna": 7775,
  "\u2581pannakitimpuyog": 7776,
  "\u2581regalo": 7777,
  "\u2581testimony": 7778,
  "\u2581tubo": 7779,
  "\u2581Nakita": 7780,
  "\u2581flood": 7781,
  "\u2581ipangag": 7782,
  "\u2581kinunak": 7783,
  "\u2581lawlessness": 7784,
  "\u2581lips": 7785,
  "\u2581mamindua": 7786,
  "\u2581mangsaranget": 7787,
  "\u2581nabasa": 7788,
  "\u2581nagsardeng": 7789,
  "\u2581panagdengngeg": 7790,
  "\u2581panangibaga": 7791,
  "\u2581presents": 7792,
  "\u2581rage": 7793,
  "\u2581vessels": 7794,
  "asion": 7795,
  "inum": 7796,
  "isu": 7797,
  "\u2581(4)": 7798,
  "\u2581Kitaentayo": 7799,
  "\u2581crops": 7800,
  "\u2581cycle": 7801,
  "\u2581dating": 7802,
  "\u2581desired": 7803,
  "\u2581exciting": 7804,
  "\u2581kinasipnget": 7805,
  "\u2581listeners": 7806,
  "\u2581managsukisok": 7807,
  "\u2581maysaka": 7808,
  "\u2581muscles": 7809,
  "\u2581naganmo": 7810,
  "\u2581sakbayna": 7811,
  "\u2581thoroughly": 7812,
  "aleng": 7813,
  "\u2581(1": 7814,
  "\u2581Agpada": 7815,
  "\u2581branches": 7816,
  "\u2581celebration": 7817,
  "\u2581dalanna": 7818,
  "\u2581danag": 7819,
  "\u2581ehemplo": 7820,
  "\u2581fitting": 7821,
  "\u2581imprisoned": 7822,
  "\u2581infant": 7823,
  "\u2581itultuloyyo": 7824,
  "\u2581kannigid": 7825,
  "\u2581makinkukua": 7826,
  "\u2581nabaybay": 7827,
  "\u2581sumardeng": 7828,
  "\u2581umimdeng": 7829,
  "\u2581urge": 7830,
  "\u2581110": 7831,
  "\u2581Alexander": 7832,
  "\u2581Ana": 7833,
  "\u2581Free": 7834,
  "\u2581Impadto": 7835,
  "\u2581Persian": 7836,
  "\u2581balbaliwan": 7837,
  "\u2581combined": 7838,
  "\u2581decade": 7839,
  "\u2581layer": 7840,
  "\u2581mangkontrol": 7841,
  "\u2581mangliklik": 7842,
  "\u2581opposers": 7843,
  "\u2581symbolic": 7844,
  "\u2581taginayonen": 7845,
  "\u2581tent": 7846,
  "\u2581west": 7847,
  "KA": 7848,
  "oli": 7849,
  "\u25811946": 7850,
  "\u2581Ara": 7851,
  "\u2581COVER": 7852,
  "\u2581Pilate": 7853,
  "\u2581agtalektayo": 7854,
  "\u2581kapammatiantayo": 7855,
  "\u2581nagannakna": 7856,
  "\u2581nangisurat": 7857,
  "\u2581nangiturong": 7858,
  "\u2581owner": 7859,
  "\u2581signal": 7860,
  "\u2581unrighteous": 7861,
  "75": 7862,
  "Who": 7863,
  "bong": 7864,
  "eh": 7865,
  "linteg": 7866,
  "\u25812006": 7867,
  "\u2581Draw": 7868,
  "\u2581Nainkalintegan": 7869,
  "\u2581Studies": 7870,
  "\u2581Supreme": 7871,
  "\u2581addiction": 7872,
  "\u2581agpasiar": 7873,
  "\u2581ayatem": 7874,
  "\u2581cool": 7875,
  "\u2581crowds": 7876,
  "\u2581emergency": 7877,
  "\u2581expectations": 7878,
  "\u2581giya": 7879,
  "\u2581inawagan": 7880,
  "\u2581lake": 7881,
  "\u2581latter": 7882,
  "\u2581mangiwanwan": 7883,
  "\u2581natangken": 7884,
  "\u2581pagpilian": 7885,
  "\u2581panagsagana": 7886,
  "\u2581politics": 7887,
  "\u2581spot": 7888,
  "\u2581starting": 7889,
  "\u2581tagilako": 7890,
  "Why": 7891,
  "bas": 7892,
  "\u2581Levitico": 7893,
  "\u2581Pang": 7894,
  "\u2581Religious": 7895,
  "\u2581Ten": 7896,
  "\u2581dadaelenna": 7897,
  "\u2581dakamaten": 7898,
  "\u2581dramatic": 7899,
  "\u2581expert": 7900,
  "\u2581inkeddengko": 7901,
  "\u2581inspiring": 7902,
  "\u2581madanon": 7903,
  "\u2581meek": 7904,
  "\u2581napagsaludsodan": 7905,
  "\u2581panaglinglingay": 7906,
  "\u2581panangpilit": 7907,
  "\u2581pannakaaramid": 7908,
  "\u2581plague": 7909,
  "\u2581prosperity": 7910,
  "\u2581publicly": 7911,
  "\u2581sapatos": 7912,
  "\u2581shock": 7913,
  "\u2581tradisional": 7914,
  "alis": 7915,
  "\u2581Athens": 7916,
  "\u2581application": 7917,
  "\u2581bumusor": 7918,
  "\u2581didanto": 7919,
  "\u2581encounter": 7920,
  "\u2581idolatria": 7921,
  "\u2581ikararag": 7922,
  "\u2581mapasaran": 7923,
  "\u2581plain": 7924,
  "\u2581proceeded": 7925,
  "\u2581roots": 7926,
  "\u2581wrongdoing": 7927,
  "dat": 7928,
  "idda": 7929,
  "mangikagkagumaan": 7930,
  "sur": 7931,
  "\u2581Inlawlawagna": 7932,
  "\u2581Leviticus": 7933,
  "\u2581apag": 7934,
  "\u2581aplaya": 7935,
  "\u2581delegado": 7936,
  "\u2581kabayag": 7937,
  "\u2581libraria": 7938,
  "\u2581makastrek": 7939,
  "\u2581mannakipagrikna": 7940,
  "\u2581palimed": 7941,
  "\u2581pimmusay": 7942,
  "\u2581prey": 7943,
  "\u2581senses": 7944,
  "\u2581sumuko": 7945,
  "Apay": 7946,
  "kayon": 7947,
  "subli": 7948,
  "tag": 7949,
  "\u2581Certainly": 7950,
  "\u2581Manang": 7951,
  "\u2581Par": 7952,
  "\u2581detail": 7953,
  "\u2581fair": 7954,
  "\u2581ga": 7955,
  "\u2581ipagarup": 7956,
  "\u2581kasapulak": 7957,
  "\u2581largely": 7958,
  "\u2581mailako": 7959,
  "\u2581mawayawayaan": 7960,
  "\u2581maysaak": 7961,
  "\u2581naawis": 7962,
  "\u2581pannakirelasion": 7963,
  "\u2581reside": 7964,
  "\u2581solar": 7965,
  "\u2581taraken": 7966,
  "\u2581wearing": 7967,
  "bra": 7968,
  "rup": 7969,
  "tek": 7970,
  "\u258118;": 7971,
  "\u2581Live": 7972,
  "\u2581agtigtignay": 7973,
  "\u2581costs": 7974,
  "\u2581creating": 7975,
  "\u2581discussing": 7976,
  "\u2581ekna": 7977,
  "\u2581famine": 7978,
  "\u2581filling": 7979,
  "\u2581kasasaadtayo": 7980,
  "\u2581kunada": 7981,
  "\u2581loud": 7982,
  "\u2581mangipakpakita": 7983,
  "\u2581mangukom": 7984,
  "\u2581meantime": 7985,
  "\u2581originally": 7986,
  "\u2581prize": 7987,
  "\u2581ragragsak": 7988,
  "get": 7989,
  "pla": 7990,
  "time": 7991,
  "\u2581Down": 7992,
  "\u2581Italiano": 7993,
  "\u2581Nueva": 7994,
  "\u2581alcoholic": 7995,
  "\u2581bears": 7996,
  "\u2581bubon": 7997,
  "\u2581discovery": 7998,
  "\u2581grandparents": 7999,
  "\u2581initial": 8000,
  "\u2581insurona": 8001,
  "\u2581inum": 8002,
  "\u2581makangngeg": 8003,
  "\u2581panagdenna": 8004,
  "\u2581probinsia": 8005,
  "\u2581rarely": 8006,
  "\u2581recommended": 8007,
  "\u2581recreation": 8008,
  "\u2581university": 8009,
  "AW": 8010,
  "ai": 8011,
  "phi": 8012,
  "\u258132]": 8013,
  "\u2581KO": 8014,
  "\u2581Language": 8015,
  "\u2581Naglaon": 8016,
  "\u2581Thailand": 8017,
  "\u2581Tu": 8018,
  "\u2581acquainted": 8019,
  "\u2581afflicted": 8020,
  "\u2581distributed": 8021,
  "\u2581falling": 8022,
  "\u2581itatabuno": 8023,
  "\u2581lo": 8024,
  "\u2581mangipasimudaag": 8025,
  "\u2581mangisursuro": 8026,
  "\u2581miss": 8027,
  "\u2581oldest": 8028,
  "\u2581pusoyo": 8029,
  "\u2581salaknib": 8030,
  "\u2581towns": 8031,
  "\u2581ungodly": 8032,
  "\u258162": 8033,
  "\u2581Pet": 8034,
  "\u2581balangkantis": 8035,
  "\u2581border": 8036,
  "\u2581ipatpateg": 8037,
  "\u2581kapadasanna": 8038,
  "\u2581liklikantayo": 8039,
  "\u2581mar": 8040,
  "\u2581nagpaiduma": 8041,
  "\u2581passage": 8042,
  "\u2581sigagagar": 8043,
  "\u2581siririing": 8044,
  "sus": 8045,
  "\u2581AKKUB": 8046,
  "\u2581Espaniol": 8047,
  "\u2581Isuda": 8048,
  "\u2581agpabautisar": 8049,
  "\u2581barangay": 8050,
  "\u2581mangrugin": 8051,
  "\u2581mausig": 8052,
  "\u2581pagtaenganmi": 8053,
  "\u2581villages": 8054,
  "\u2581witnessed": 8055,
  "iz": 8056,
  "\u2581130": 8057,
  "\u2581Lin": 8058,
  "\u2581auxiliary": 8059,
  "\u2581conversations": 8060,
  "\u2581husto": 8061,
  "\u2581magustuan": 8062,
  "\u2581naisalsalumina": 8063,
  "\u2581palasio": 8064,
  "\u2581rapid": 8065,
  "\u2581sitatalged": 8066,
  "40": 8067,
  "ev": 8068,
  "lio": 8069,
  "yam": 8070,
  "\u25811948": 8071,
  "\u2581Ezekias": 8072,
  "\u2581Galilee": 8073,
  "\u2581Hannah": 8074,
  "\u2581House": 8075,
  "\u2581[2": 8076,
  "\u2581applies": 8077,
  "\u2581assume": 8078,
  "\u2581companies": 8079,
  "\u2581containing": 8080,
  "\u2581cultural": 8081,
  "\u2581expressing": 8082,
  "\u2581imm": 8083,
  "\u2581iraraut": 8084,
  "\u2581lumba": 8085,
  "\u2581mararaem": 8086,
  "\u2581nabigbig": 8087,
  "\u2581nakai": 8088,
  "\u2581nasursuro": 8089,
  "\u2581pammabasol": 8090,
  "\u2581panagdanag": 8091,
  "\u2581panagsangit": 8092,
  "\u2581panagsubli": 8093,
  "Ket": 8094,
  "head": 8095,
  "\u25816,000": 8096,
  "\u2581Americans": 8097,
  "\u2581Light": 8098,
  "\u2581Romania": 8099,
  "\u2581Rose": 8100,
  "\u2581inter": 8101,
  "\u2581kinunada": 8102,
  "\u2581mangipakaammo": 8103,
  "\u2581meals": 8104,
  "ged": 8105,
  "rio": 8106,
  "\u25811951": 8107,
  "\u2581Asidegen": 8108,
  "\u2581Hezekiah": 8109,
  "\u2581Ke": 8110,
  "\u2581Naespirituan": 8111,
  "\u2581Santa": 8112,
  "\u2581adjust": 8113,
  "\u2581experiencing": 8114,
  "\u2581kaatiddogna": 8115,
  "\u2581lagipen": 8116,
  "\u2581lifestyle": 8117,
  "\u2581lion": 8118,
  "\u2581sacrificing": 8119,
  "\u2581safeguard": 8120,
  "\u2581sing": 8121,
  "\u2581wealthy": 8122,
  "By": 8123,
  "entayo": 8124,
  "era": 8125,
  "gapu": 8126,
  "\u2581Agpa": 8127,
  "\u2581Guinea": 8128,
  "\u2581HOW": 8129,
  "\u2581Kangatuan": 8130,
  "\u2581Lamb": 8131,
  "\u2581Naiduma": 8132,
  "\u2581agkurang": 8133,
  "\u2581cutting": 8134,
  "\u2581dinadael": 8135,
  "\u2581es": 8136,
  "\u2581impaltiing": 8137,
  "\u2581magnificent": 8138,
  "\u2581makindaya": 8139,
  "\u2581nagnaed": 8140,
  "\u2581oral": 8141,
  "\u2581pakaibatayan": 8142,
  "\u2581palm": 8143,
  "\u2581pammalagip": 8144,
  "\u2581panagitured": 8145,
  "\u2581panangdeskribir": 8146,
  "\u2581pannakatrato": 8147,
  "\u2581sudden": 8148,
  "\u2581tragic": 8149,
  "EL": 8150,
  "Siak": 8151,
  "bel": 8152,
  "han": 8153,
  "her": 8154,
  "letting": 8155,
  "\u25811935": 8156,
  "\u258185": 8157,
  "\u2581Atlantic": 8158,
  "\u2581Ecuador": 8159,
  "\u2581buried": 8160,
  "\u2581dimngeg": 8161,
  "\u2581kadadakkelan": 8162,
  "\u2581karera": 8163,
  "\u2581kasukat": 8164,
  "\u2581managbasa": 8165,
  "\u2581panagbettak": 8166,
  "\u2581seemingly": 8167,
  "\u2581umasideg": 8168,
  "\u2581upper": 8169,
  "Kas": 8170,
  "fo": 8171,
  "pl": 8172,
  "\u00fc": 8173,
  "\u2581Abigail": 8174,
  "\u2581advanced": 8175,
  "\u2581agannad": 8176,
  "\u2581attempts": 8177,
  "\u2581banned": 8178,
  "\u2581enormous": 8179,
  "\u2581festival": 8180,
  "\u2581grado": 8181,
  "\u2581impalgak": 8182,
  "\u2581konsentrasion": 8183,
  "\u2581maisuro": 8184,
  "\u2581narungsot": 8185,
  "\u2581objective": 8186,
  "\u2581paspasamak": 8187,
  "\u2581prime": 8188,
  "\u2581realistic": 8189,
  "\u2581rising": 8190,
  "\u2581stream": 8191,
  "laban": 8192,
  "ye": 8193,
  "\u25811984": 8194,
  "\u2581Nakatulong": 8195,
  "\u2581Pacifico": 8196,
  "\u2581agpakamatay": 8197,
  "\u2581apit": 8198,
  "\u2581dropped": 8199,
  "\u2581generations": 8200,
  "Your": 8201,
  "ney": 8202,
  "pang": 8203,
  "\u25811975": 8204,
  "\u2581Above": 8205,
  "\u2581Jehu": 8206,
  "\u2581Scientific": 8207,
  "\u2581agbalinka": 8208,
  "\u2581anakmi": 8209,
  "\u2581choosing": 8210,
  "\u2581dangadang": 8211,
  "\u2581dusa": 8212,
  "\u2581fewer": 8213,
  "\u2581mates": 8214,
  "\u2581ministeriotayo": 8215,
  "\u2581nagturpos": 8216,
  "\u2581nangala": 8217,
  "\u2581nangipasdek": 8218,
  "\u2581naragragsak": 8219,
  "\u2581normally": 8220,
  "\u2581rasa": 8221,
  "\u2581spreading": 8222,
  "ela": 8223,
  "\u2581Enoc": 8224,
  "\u2581Herod": 8225,
  "\u2581Kadawyan": 8226,
  "\u2581Ku": 8227,
  "\u2581Minilion": 8228,
  "\u2581Th": 8229,
  "\u2581ibilangda": 8230,
  "\u2581jealousy": 8231,
  "\u2581kumapuy": 8232,
  "\u2581le": 8233,
  "\u2581lifetime": 8234,
  "\u2581maintained": 8235,
  "\u2581makiramraman": 8236,
  "\u2581nakisarita": 8237,
  "\u2581pregnancy": 8238,
  "\u2581riles": 8239,
  "alagad": 8240,
  "\u2581103": 8241,
  "\u2581Agtawenak": 8242,
  "\u2581Baptist": 8243,
  "\u2581Index": 8244,
  "\u2581Social": 8245,
  "\u2581dadakkelna": 8246,
  "\u2581eternity": 8247,
  "\u2581kaudian": 8248,
  "\u2581mangitungpal": 8249,
  "\u2581mangpatanor": 8250,
  "\u2581masikog": 8251,
  "\u2581matnag": 8252,
  "\u2581naiputputong": 8253,
  "\u2581padatayo": 8254,
  "\u2581pudot": 8255,
  "\u2581tinulongan": 8256,
  "\u2581turod": 8257,
  "\u2581van": 8258,
  "\u2581volume": 8259,
  "ET": 8260,
  "ira": 8261,
  "ric": 8262,
  "\u2581Bolivia": 8263,
  "\u2581Personal": 8264,
  "\u2581Public": 8265,
  "\u2581arkeologo": 8266,
  "\u2581avoided": 8267,
  "\u2581dadakkelyo": 8268,
  "\u2581matulad": 8269,
  "\u2581moralidad": 8270,
  "\u2581naagum": 8271,
  "\u2581nagkamang": 8272,
  "\u2581naitulong": 8273,
  "\u2581pakaidayawan": 8274,
  "\u2581pakawanen": 8275,
  "\u2581shame": 8276,
  "\u2581strike": 8277,
  "\u2581yellow": 8278,
  "IM": 8279,
  "ju": 8280,
  "nagan": 8281,
  "ons": 8282,
  "pulo": 8283,
  "zo": 8284,
  "\u2581THIS": 8285,
  "\u2581glorify": 8286,
  "\u2581horses": 8287,
  "\u2581kabusorna": 8288,
  "\u2581kappia": 8289,
  "\u2581kinatao": 8290,
  "\u2581konteksto": 8291,
  "\u2581mapaspasaran": 8292,
  "\u2581nagbabaetan": 8293,
  "\u2581paraangan": 8294,
  "\u2581trigo": 8295,
  "cent": 8296,
  "maka": 8297,
  "my": 8298,
  "\u2581agbuybuya": 8299,
  "\u2581asleep": 8300,
  "\u2581cattle": 8301,
  "\u2581dikam": 8302,
  "\u2581document": 8303,
  "\u2581instrument": 8304,
  "\u2581loose": 8305,
  "\u2581lukot": 8306,
  "\u2581makitkita": 8307,
  "\u2581massive": 8308,
  "\u2581observing": 8309,
  "\u2581panangmatmatda": 8310,
  "\u2581sikigan": 8311,
  "\u2581takdang": 8312,
  "ica": 8313,
  "ization": 8314,
  "pasiar": 8315,
  "side": 8316,
  "\u258115;": 8317,
  "\u2581Boaz": 8318,
  "\u2581Naaramid": 8319,
  "\u2581Search": 8320,
  "\u2581atep": 8321,
  "\u2581kids": 8322,
  "\u2581maadal": 8323,
  "\u2581mais": 8324,
  "\u2581naruay": 8325,
  "\u2581obeying": 8326,
  "\u2581openly": 8327,
  "\u2581pundasion": 8328,
  "\u2581teologo": 8329,
  "\u2581tools": 8330,
  "\u2581tsuper": 8331,
  "\u2581winds": 8332,
  "aldaw": 8333,
  "idi": 8334,
  "\u2581Bank": 8335,
  "\u2581Easter": 8336,
  "\u2581Komusta": 8337,
  "\u2581Nasdaaw": 8338,
  "\u2581Rock": 8339,
  "\u2581Worldwide": 8340,
  "\u2581earthquakes": 8341,
  "\u2581kakabagian": 8342,
  "\u2581kasapulam": 8343,
  "\u2581mangbigbig": 8344,
  "\u2581namati": 8345,
  "\u2581namnamatayo": 8346,
  "\u2581rid": 8347,
  "\u2581sole": 8348,
  "\u2581treasures": 8349,
  "berg": 8350,
  "ob": 8351,
  "\u2581Bat": 8352,
  "\u2581Brazilian": 8353,
  "\u2581Everyone": 8354,
  "\u2581Kadatayo": 8355,
  "\u2581Prague": 8356,
  "\u2581agdindinamag": 8357,
  "\u2581arm": 8358,
  "\u2581classes": 8359,
  "\u2581continuing": 8360,
  "\u2581devastating": 8361,
  "\u2581laglagipen": 8362,
  "\u2581madangran": 8363,
  "\u2581mangyebkas": 8364,
  "\u2581panagani": 8365,
  "\u2581pannakaadipen": 8366,
  "\u2581tremendous": 8367,
  "\u2581usarentayo": 8368,
  "Pa": 8369,
  "gun": 8370,
  "mas": 8371,
  "tayab": 8372,
  "\u2581Happiness": 8373,
  "\u2581Korte": 8374,
  "\u2581Newsweek": 8375,
  "\u2581Taiwan": 8376,
  "\u2581baeten": 8377,
  "\u2581conducting": 8378,
  "\u2581institusion": 8379,
  "\u2581kondukta": 8380,
  "\u2581nagbalinak": 8381,
  "\u2581organizations": 8382,
  "\u2581pannakikadua": 8383,
  "\u2581protective": 8384,
  "\u2581realistiko": 8385,
  "\u2581resolved": 8386,
  "\u2581sharp": 8387,
  "\u2581tongues": 8388,
  "over": 8389,
  "\u258142.": 8390,
  "\u2581Bal": 8391,
  "\u2581bilangda": 8392,
  "\u2581draws": 8393,
  "\u2581figures": 8394,
  "\u2581goats": 8395,
  "\u2581ipaayna": 8396,
  "\u2581mangbasa": 8397,
  "\u2581olibo": 8398,
  "\u2581rimsua": 8399,
  "\u2581serserbi": 8400,
  "\u2581sursuruen": 8401,
  "gtalinaedtayo": 8402,
  "kadua": 8403,
  "old": 8404,
  "\u2581Epektibo": 8405,
  "\u2581Samson": 8406,
  "\u2581Sika": 8407,
  "\u2581Simbaan": 8408,
  "\u2581[3": 8409,
  "\u2581agbabbabawi": 8410,
  "\u2581comparison": 8411,
  "\u2581gin": 8412,
  "\u2581kabaelak": 8413,
  "\u2581maammuanda": 8414,
  "\u2581makunkuna": 8415,
  "\u2581masiguradotayo": 8416,
  "\u2581minamaag": 8417,
  "\u2581nagawid": 8418,
  "\u2581pakasapulan": 8419,
  "\u2581pamiliam": 8420,
  "\u2581recognition": 8421,
  "\u2581reflects": 8422,
  "\u2581sangaribu": 8423,
  "\u2581simmayaat": 8424,
  "\u2581tiempona": 8425,
  "\u2581wooden": 8426,
  "dakes": 8427,
  "there": 8428,
  "\u25811953": 8429,
  "\u2581Archive": 8430,
  "\u2581agduadua": 8431,
  "\u2581agpayunir": 8432,
  "\u2581bride": 8433,
  "\u2581clouds": 8434,
  "\u2581panaglako": 8435,
  "\u2581pattapatta": 8436,
  "\u2581prospects": 8437,
  "\u2581shoulder": 8438,
  "\u2581tapok": 8439,
  "\u2581thin": 8440,
  "\u2581trusting": 8441,
  "\u2581tuktok": 8442,
  "10": 8443,
  "lagip": 8444,
  "pay": 8445,
  "ts": 8446,
  "\u2581104": 8447,
  "\u2581Dutch": 8448,
  "\u2581Impablaak": 8449,
  "\u2581afford": 8450,
  "\u2581climb": 8451,
  "\u2581commandment": 8452,
  "\u2581coupon": 8453,
  "\u2581karakter": 8454,
  "\u2581outset": 8455,
  "\u2581pagtaenganna": 8456,
  "\u2581panagsurat": 8457,
  "\u2581researcher": 8458,
  "\u2581segundo": 8459,
  "\u2581torre": 8460,
  "phe": 8461,
  "\u2581Absalom": 8462,
  "\u2581Florida": 8463,
  "\u2581Golden": 8464,
  "\u2581Jersey": 8465,
  "\u2581Maseknan": 8466,
  "\u2581Napasamak": 8467,
  "\u2581Royal": 8468,
  "\u2581Smith": 8469,
  "\u2581actual": 8470,
  "\u2581declaring": 8471,
  "\u2581desirable": 8472,
  "\u2581entrusted": 8473,
  "\u2581exposure": 8474,
  "\u2581iyun": 8475,
  "\u2581judicial": 8476,
  "\u2581kabaelam": 8477,
  "\u2581kinamaag": 8478,
  "\u2581mangipasdek": 8479,
  "\u2581ordinary": 8480,
  "\u2581pagarupen": 8481,
  "\u2581pakai": 8482,
  "\u2581serpent": 8483,
  "\u2581sleeping": 8484,
  "\u2581smile": 8485,
  "\u2581span": 8486,
  "\u2581tarigagayna": 8487,
  "\u2581vain": 8488,
  "\u2581Care": 8489,
  "\u2581Education": 8490,
  "\u2581Indonesia": 8491,
  "\u2581Silas": 8492,
  "\u2581Talna": 8493,
  "\u2581Thanks": 8494,
  "\u2581detalyado": 8495,
  "\u2581inggagara": 8496,
  "\u2581inkarina": 8497,
  "\u2581insungbat": 8498,
[...]
