{
  "</s>": 0,
  "<unk>": 1,
  "\u2581a": 2,
  ",": 3,
  ".": 4,
  "\u2581ti": 5,
  "\u2581iti": 6,
  "\u2581the": 7,
  "\u2581nga": 8,
  "\u2581to": 9,
  "\u2581of": 10,
  "s": 11,
  "\u2581and": 12,
  "\u2581\u201d": 13,
  "\u2581\u201c": 14,
  "\u2581-": 15,
  "\u2581ken": 16,
  "\u2581dagiti": 17,
  "\u2581in": 18,
  "\u2581ni": 19,
  "?": 20,
  "na": 21,
  "\u2581that": 22,
  "da": 23,
  "\u2581kadagiti": 24,
  ":": 25,
  "\u2581\u2014": 26,
  "\u2581": 27,
  "\u2581ket": 28,
  "\u2581is": 29,
  "\u2019": 30,
  "\u2581for": 31,
  "\u2581no": 32,
  "\u2581I": 33,
  "\u2581maysa": 34,
  "\u2581was": 35,
  "\u2581with": 36,
  "\u2581be": 37,
  "\u2581\u2019": 38,
  "t": 39,
  "\u2581on": 40,
  "\u2581Jehova": 41,
  "\u2581Dios": 42,
  "\u2581as": 43,
  "ing": 44,
  "\u2581Jehovah": 45,
  "\u2581God": 46,
  "\u2581you": 47,
  "\u2581his": 48,
  "\u2581not": 49,
  "\u2581The": 50,
  "\u2581Jesus": 51,
  "\u2581are": 52,
  "\u2581dayta": 53,
  "an": 54,
  "\u2581it": 55,
  "\u2581have": 56,
  "\u2581we": 57,
  "tayo": 58,
  "\u2581Ti": 59,
  "\u2581he": 60,
  "\u2581will": 61,
  "!": 62,
  "\u2581by": 63,
  "\u2581idi": 64,
  "\u2581kas": 65,
  "\u2581from": 66,
  "\u2581an": 67,
  "ed": 68,
  "n": 69,
  "\u2581their": 70,
  "\u2581[": 71,
  "\u2581pay": 72,
  "\u2581(": 73,
  "\u2581or": 74,
  "\u2581met": 75,
  "\u2581wenno": 76,
  "en": 77,
  "\u2581saan": 78,
  "\u2581they": 79,
  "\u2581adda": 80,
  "\u2581this": 81,
  "\u2581can": 82,
  ";": 83,
  "\u2581\u2018": 84,
  "\u2581di": 85,
  "ak": 86,
  "\u2581na": 87,
  "\u2581who": 88,
  "\u2581Biblia": 89,
  "\u2581daytoy": 90,
  "yo": 91,
  "\u2581Bible": 92,
  ")": 93,
  "\u2581In": 94,
  "\u2581ta": 95,
  "m": 96,
  "\u2581ma": 97,
  "\u2581tapno": 98,
  "d": 99,
  "\u2581A": 100,
  "\u2581our": 101,
  "a": 102,
  "\u2581were": 103,
  "\u2581one": 104,
  "\u2581laeng": 105,
  "\u2581at": 106,
  "\u2581kasta": 107,
  "\u2581idiay": 108,
  "ko": 109,
  "\u2581had": 110,
  "\u2581us": 111,
  "\u2581all": 112,
  "k": 113,
  "\u2581your": 114,
  "\u2581do": 115,
  "\u2581adu": 116,
  "\u2581amin": 117,
  "ka": 118,
  "\u2581what": 119,
  "ly": 120,
  "\u2581dadduma": 121,
  "\u2581No": 122,
  "\u2581has": 123,
  "\u2581ag": 124,
  "mi": 125,
  "\u2581them": 126,
  "\u2581isu": 127,
  "\u2581my": 128,
  "\u2581tattao": 129,
  "\u2581people": 130,
  "\u2581What": 131,
  "\u2581Iti": 132,
  "\u2581Ngem": 133,
  "\u2581about": 134,
  "\u2581ngem": 135,
  "\u2581mang": 136,
  "y": 137,
  "\u25811": 138,
  "\u2581Dagiti": 139,
  "\u2581would": 140,
  "\u2581maipapan": 141,
  "\u2581time": 142,
  "\u2581panag": 143,
  "\u2581when": 144,
  "to": 145,
  "\u2581him": 146,
  "er": 147,
  "\u2581may": 148,
  "\u2581but": 149,
  "\u2581gapu": 150,
  "\u2581so": 151,
  "mo": 152,
  "]": 153,
  "\u2581mabalin": 154,
  "\u2581me": 155,
  "\u2581tao": 156,
  "\u2581life": 157,
  "\u2581Ania": 158,
  "\u2581babaen": 159,
  "\u2581panang": 160,
  "\u2581more": 161,
  "al": 162,
  "\u2581some": 163,
  "\u2581did": 164,
  "\u2581unay": 165,
  "\u2581How": 166,
  "\u2581kenkuana": 167,
  "\u2581Na": 168,
  "\u2581been": 169,
  "\u2581Idi": 170,
  "\u2581It": 171,
  "ti": 172,
  "\u2581out": 173,
  "\u2581awan": 174,
  "\u2581also": 175,
  "\u2581her": 176,
  "\u2581man": 177,
  "\u2581He": 178,
  "\u2581those": 179,
  "\u2581many": 180,
  "\u2581Kristiano": 181,
  "\u2581manipud": 182,
  "\u2581up": 183,
  "\u2581such": 184,
  "r": 185,
  "\u2581panid": 186,
  "\u2581daga": 187,
  "e": 188,
  "\u2581Saksi": 189,
  "b": 190,
  "\u2581there": 191,
  "\u2581kadi": 192,
  "\u2581nag": 193,
  "\u2581page": 194,
  "\u2581than": 195,
  "re": 196,
  "\u2581koma": 197,
  "\u2581Nupay": 198,
  "\u2581world": 199,
  "I": 200,
  "\u2581tawen": 201,
  "l": 202,
  "\u2581But": 203,
  "\u2581lubong": 204,
  "\u2581how": 205,
  "\u2581other": 206,
  "\u2581/": 207,
  "\u2581Witnesses": 208,
  "\u2581S": 209,
  "\u2581into": 210,
  "\u2581la": 211,
  "\u2581kadakuada": 212,
  "in": 213,
  "\u2581years": 214,
  "\u2581Kas": 215,
  "\u2581which": 216,
  "\u2581Ma": 217,
  "\u2581said": 218,
  "\u2581these": 219,
  "\u2581pannaka": 220,
  "\u2581We": 221,
  "\u2581good": 222,
  "\u2581help": 223,
  "\u2581if": 224,
  "\u201c": 225,
  "\u2581tiempo": 226,
  "c": 227,
  "\u2581way": 228,
  "\u2581C": 229,
  "es": 230,
  "\u2581even": 231,
  "\u2581Saan": 232,
  "\u2581work": 233,
  "\u2581pag": 234,
  "\u2581could": 235,
  "\u2581biag": 236,
  "\u2581uray": 237,
  "\u2581does": 238,
  "\u2581aldaw": 239,
  "\u2581b": 240,
  "\u2581things": 241,
  "\u2581This": 242,
  "\u2581day": 243,
  "\u2581should": 244,
  "\u2581Kasano": 245,
  "am": 246,
  "\u2581For": 247,
  "\u2581dagitoy": 248,
  "\u2581s": 249,
  "\u2581over": 250,
  "\u2581she": 251,
  "p": 252,
  "\u2581love": 253,
  "\u2581children": 254,
  "\u2581ania": 255,
  "ra": 256,
  "ma": 257,
  "\u2581They": 258,
  "\u2581Paul": 259,
  "\u2581make": 260,
  "\u2581addaan": 261,
  "\u25812": 262,
  "\u2581its": 263,
  "S": 264,
  "\u2581nang": 265,
  "\u2581When": 266,
  "\u2581first": 267,
  "\u2581only": 268,
  "la": 269,
  "\u2581earth": 270,
  "kayo": 271,
  "\u2581kadatayo": 272,
  "\u2581ad": 273,
  "\u2581naka": 274,
  "ta": 275,
  "\u2581kasano": 276,
  "\u2581Christian": 277,
  "\u2581As": 278,
  "...": 279,
  "\u2581Pablo": 280,
  "\u2581banag": 281,
  "o": 282,
  "\u2581masapul": 283,
  "ri": 284,
  "\u2581says": 285,
  "\u2581naimbag": 286,
  "\u2581because": 287,
  "\u2581Apay": 288,
  "E": 289,
  "\u2581Why": 290,
  "\u2581Picture": 291,
  "\u2581made": 292,
  "\u2581being": 293,
  "\u2581agingga": 294,
  "\u2581family": 295,
  "the": 296,
  "\u2581kasasaad": 297,
  "\u2581pudno": 298,
  "\u2581like": 299,
  "kami": 300,
  "ar": 301,
  "\u2581bambanag": 302,
  "or": 303,
  "\u2581Christ": 304,
  "\u2581others": 305,
  "th": 306,
  "\u2581Kristo": 307,
  "\u2581Kingdom": 308,
  "\u2581ka": 309,
  "\u2581i": 310,
  "\u2581Ladawan": 311,
  "le": 312,
  "\u2581kina": 313,
  "\u2581need": 314,
  "\u2581kaniak": 315,
  "ro": 316,
  "\u2581ida": 317,
  "\u2581Christians": 318,
  "\u2581then": 319,
  "\u2581Israel": 320,
  "\u2581see": 321,
  "\u2581just": 322,
  "\u2581If": 323,
  "em": 324,
  "\u2581sumagmamano": 325,
  "\u2581ita": 326,
  "\u25813": 327,
  "\u2581bayat": 328,
  "\u2581dua": 329,
  "\u2581You": 330,
  "\u2581must": 331,
  "i": 332,
  "\u2581paset": 333,
  "\u2581kuna": 334,
  "\u2581sabali": 335,
  "g": 336,
  "\u2581well": 337,
  "P": 338,
  "\u2581para": 339,
  "\u2581Adda": 340,
  "\u2581Ag": 341,
  "\u2581lugar": 342,
  "\u2581two": 343,
  "us": 344,
  "\u2581And": 345,
  "\u2581ay": 346,
  "\u2581example": 347,
  "\u2581spirit": 348,
  "\u2581now": 349,
  "sa": 350,
  "te": 351,
  "\u2581faith": 352,
  "\u2581after": 353,
  "\u2581E": 354,
  "lo": 355,
  "\u2581David": 356,
  "\u2581pamay": 357,
  "A": 358,
  "\u2581new": 359,
  "anna": 360,
  "\u2581know": 361,
  "\u2581take": 362,
  "\u2581K": 363,
  "\u2581kongregasion": 364,
  "si": 365,
  "\u2581before": 366,
  "ni": 367,
  "\u2581naespirituan": 368,
  "\u2581aniaman": 369,
  "\u2581ayat": 370,
  "\u2581own": 371,
  "\u2581any": 372,
  "on": 373,
  "\u2581come": 374,
  "\u2581dagidiay": 375,
  "\u2581much": 376,
  "\u258115": 377,
  "pa": 378,
  "\u2581kinapudno": 379,
  "\u2581most": 380,
  "\u2581very": 381,
  "\u2581So": 382,
  "\u2581Gapu": 383,
  "\u2581year": 384,
  "\u25815": 385,
  "\u2581maka": 386,
  "\u2581become": 387,
  "\u2581kasapulan": 388,
  "\u2581kinuna": 389,
  "\u2581parents": 390,
  "\u2581To": 391,
  "\u2581trabaho": 392,
  "ng": 393,
  "\u2581tunggal": 394,
  "ay": 395,
  "\u2581Mabalin": 396,
  "\u2581agbalin": 397,
  "\u2581through": 398,
  "\u2581anay": 399,
  "\u2581agtutubo": 400,
  "\u2581Maysa": 401,
  "\u2581T": 402,
  "\u2581B": 403,
  "\u2581death": 404,
  "\u2581true": 405,
  "\u2581heart": 406,
  "tay": 407,
  "no": 408,
  "\u2581de": 409,
  "\u2581men": 410,
  "\u2581baro": 411,
  "li": 412,
  "\u25812:": 413,
  "ur": 414,
  "\u2581ditoy": 415,
  "\u2581umiso": 416,
  "\u2581spiritual": 417,
  "\u2581re": 418,
  "\u2581espiritu": 419,
  "\u2581intero": 420,
  "\u2581P": 421,
  "\u2581words": 422,
  "\u2581sasao": 423,
  "\u2581pamilia": 424,
  "ic": 425,
  "\u2581Ni": 426,
  "\u2581nasayaat": 427,
  "\u2581found": 428,
  "\u2581Di": 429,
  "\u2581libro": 430,
  "el": 431,
  "\u2581dakes": 432,
  "\u2581another": 433,
  "\u2581where": 434,
  "\u2581congregation": 435,
  "\u2581artikulo": 436,
  "\u2581One": 437,
  "ers": 438,
  "\u2581times": 439,
  "\u2581aramid": 440,
  "\u2581John": 441,
  "\u2581dakkel": 442,
  "\u2581kalpasan": 443,
  "\u2581ones": 444,
  "\u2581da": 445,
  "\u2581home": 446,
  "\u2581Pagarian": 447,
  "\u2581ar": 448,
  "ag": 449,
  "\u2581Isu": 450,
  "\u2581O": 451,
  "\u25814:": 452,
  "\u2581pagilian": 453,
  "\u2581person": 454,
  "\u2581long": 455,
  "\u2581study": 456,
  "\u2581kadagitoy": 457,
  "\u2581Do": 458,
  "\u2581ketdi": 459,
  "\u258120": 460,
  "\u2581pagarigan": 461,
  "\u2581That": 462,
  "it": 463,
  "\u258119": 464,
  "\u2581part": 465,
  "\u2581each": 466,
  "\u2581give": 467,
  "\u2581young": 468,
  "\u2581use": 469,
  "\u258112": 470,
  "\u2581mismo": 471,
  "u": 472,
  "\u2581dagita": 473,
  "\u2581naan": 474,
  "\u2581pa": 475,
  "\u2581un": 476,
  "di": 477,
  "\u2581Gapuna": 478,
  "\u25811:": 479,
  "\u2581name": 480,
  "\u2581kasla": 481,
  "\u2581maipaay": 482,
  "\u2581today": 483,
  "\u2581say": 484,
  "\u25818": 485,
  "\u2581Some": 486,
  "ne": 487,
  "\u2581human": 488,
  "\u2581sabsabali": 489,
  "\u2581apostol": 490,
  "\u2581babai": 491,
  "\u2581find": 492,
  "ba": 493,
  "\u2581might": 494,
  "\u2581great": 495,
  "w": 496,
  "\u2581used": 497,
  "anda": 498,
  "\u2581lalaki": 499,
  "is": 500,
  "\u2581umuna": 501,
  "\u2581However": 502,
  "\u2581nagannak": 503,
  "\u2581feel": 504,
  "\u2581often": 505,
  "as": 506,
  "\u2581ngarud": 507,
  "\u2581kita": 508,
  "ek": 509,
  "\u2581pammati": 510,
  "\u2581o": 511,
  "f": 512,
  "\u2581back": 513,
  "at": 514,
  "\u2581agarup": 515,
  "\u2581siglo": 516,
  "\u2581personal": 517,
  "\u258114": 518,
  "\u2581truth": 519,
  "tu": 520,
  "\u2581Kadagiti": 521,
  "\u25816:": 522,
  "\u2581*": 523,
  "\u2581same": 524,
  "\u2581mai": 525,
  "\u2581get": 526,
  "\u2581sakbay": 527,
  "C": 528,
  "\u2581pulos": 529,
  "\u2581aramiden": 530,
  "\u2581kangrunaan": 531,
  "\u2581panawen": 532,
  "Ti": 533,
  "\u2581babbai": 534,
  "\u2581down": 535,
  "\u2581ubbing": 536,
  "\u2022": 537,
  "\u2581under": 538,
  "\u2581relihion": 539,
  "\u2581sa": 540,
  "\u2581sadiay": 541,
  "\u2581never": 542,
  "\u2581kadakayo": 543,
  "ul": 544,
  "\u2581against": 545,
  "\u2581At": 546,
  "\u2581lallaki": 547,
  "\u2581Jerusalem": 548,
  "\u2581masansan": 549,
  "\u25a1": 550,
  "O": 551,
  "\u2581Nag": 552,
  "\u25811,": 553,
  "ad": 554,
  "do": 555,
  "\u2581too": 556,
  "de": 557,
  "\u258110": 558,
  "\u2581every": 559,
  "\u2581called": 560,
  "ation": 561,
  "ch": 562,
  "\u2581sakit": 563,
  "\u2581napateg": 564,
  "\u2581though": 565,
  "\u2581book": 566,
  "ce": 567,
  "\u2581Ket": 568,
  "\u258118": 569,
  "\u2581danum": 570,
  "\u2581Is": 571,
  "\u2581end": 572,
  "\u2581put": 573,
  "\u2581go": 574,
  "\u258111": 575,
  "il": 576,
  "\u2581F": 577,
  "ut": 578,
  "ga": 579,
  "\u2581Adu": 580,
  "\u2581Ka": 581,
  "\u2581Word": 582,
  "\u2581old": 583,
  "\u2581am": 584,
  "\u2581place": 585,
  "\u2581Kuna": 586,
  "K": 587,
  "\u2581manen": 588,
  "\u2581water": 589,
  "se": 590,
  "\u2581article": 591,
  "\u2581away": 592,
  "\u2581keep": 593,
  "\u2581kanayon": 594,
  "\u2581read": 595,
  "bo": 596,
  "\u2581right": 597,
  "\u2581Juan": 598,
  "\u2581kaaduan": 599,
  "\u2581himself": 600,
  "\u2581After": 601,
  "\u2581kada": 602,
  "\u2581means": 603,
  "\u2581came": 604,
  "\u2581ammo": 605,
  "\u2581siudad": 606,
  "\u2581sao": 607,
  "\u2581nagan": 608,
  "\u2581adipen": 609,
  "\u2581became": 610,
  "\u2581during": 611,
  "\u2581c": 612,
  "\u258130": 613,
  "\u2581nasurok": 614,
  "enna": 615,
  "\u2581bassit": 616,
  "\u2581kenka": 617,
  "\u2581worship": 618,
  "\u2581days": 619,
  "\u2581apay": 620,
  "\u2581apostle": 621,
  "\u2581agraman": 622,
  "man": 623,
  "\u2581three": 624,
  "\u2581taraon": 625,
  "\u2581wrote": 626,
  "\u2581let": 627,
  "\u2581natay": 628,
  "\u2581Dayta": 629,
  "\u2581brothers": 630,
  "ve": 631,
  "z": 632,
  "\u2581want": 633,
  "im": 634,
  "\u2581panagadal": 635,
  "),": 636,
  "\u2581upon": 637,
  "\u2581among": 638,
  "\u2581why": 639,
  "\u2581mangi": 640,
  "\u2581live": 641,
  "\u2581learn": 642,
  "st": 643,
  "\u2581course": 644,
  "\u2581show": 645,
  "\u2581Daytoy": 646,
  "able": 647,
  "\u2581century": 648,
  "\u25819": 649,
  "\u2581dina": 650,
  "ia": 651,
  "U": 652,
  "\u2581There": 653,
  "\u2581nagbalin": 654,
  "\u25817": 655,
  "ness": 656,
  "\u2581Panag": 657,
  "\u2581Peter": 658,
  "nto": 659,
  "\u2581Satanas": 660,
  "\u2581important": 661,
  "\u2581kadagidiay": 662,
  "dan": 663,
  "\u2581nasion": 664,
  "\u2581Satan": 665,
  "tan": 666,
  "\u2581began": 667,
  "\u2581child": 668,
  "\u2581kayat": 669,
  "\u2581annak": 670,
  "\u2581however": 671,
  "\u2581parikut": 672,
  "po": 673,
  "\u2581Re": 674,
  "\u2581without": 675,
  "\u2581Kalpasan": 676,
  "\u2581agnanayon": 677,
  "\u2581later": 678,
  "\u2581nupay": 679,
  "\u2581kababalin": 680,
  "\u2581ipapatay": 681,
  "\u2581Awan": 682,
  "\u258116": 683,
  "\u2581nai": 684,
  "\u2581word": 685,
  "ton": 686,
  "ion": 687,
  "ru": 688,
  "danto": 689,
  "\u2581pannakaammo": 690,
  "pi": 691,
  "ter": 692,
  "\u2581dida": 693,
  "\u2581She": 694,
  "\u2581still": 695,
  "\u2581wife": 696,
  "\u2581told": 697,
  "\u258121": 698,
  "\u2581hope": 699,
  "lu": 700,
  "\u2581while": 701,
  "so": 702,
  "\u2581Kasta": 703,
  "\u2581\u201d?": 704,
  "\u2581By": 705,
  "\u2581dara": 706,
  "\u2581Father": 707,
  "\u2581themselves": 708,
  "\u2581agangay": 709,
  "\u2581New": 710,
  "\u2581nakaro": 711,
  "\u2581mind": 712,
  "\u2581Pedro": 713,
  "\u2581view": 714,
  "\u2581saanda": 715,
  "\u2581tallo": 716,
  "\u2581fact": 717,
  "\u2581itan": 718,
  "\u2581between": 719,
  "\u25816": 720,
  "\u2581TI": 721,
  "\u2581On": 722,
  "\u2581Abraham": 723,
  "\u2581sin": 724,
  "Babaen": 725,
  "\u2581Bayat": 726,
  "\u2581Pa": 727,
  "\u2581both": 728,
  "\u2581living": 729,
  "\u2581Be": 730,
  "\u2581makatulong": 731,
  "T": 732,
  "\u2581My": 733,
  "5": 734,
  "\u2581damag": 735,
  "\u2581number": 736,
  "um": 737,
  "\u2581With": 738,
  "\u2581blood": 739,
  "\u2581panangmatmat": 740,
  "\u2581Judio": 741,
  "\u2581able": 742,
  "\u2581ari": 743,
  "\u2581rumbeng": 744,
  "B": 745,
  "\u2581pang": 746,
  "The": 747,
  "\u2581Matthew": 748,
  "6": 749,
  "go": 750,
  "\u2581news": 751,
  "\u2581gundaway": 752,
  "x": 753,
  "pe": 754,
  "\u2581Then": 755,
  "2": 756,
  "\u2581napalabas": 757,
  "ry": 758,
  "\u2581Kinuna": 759,
  "\u2581knowledge": 760,
  "\u2581mother": 761,
  "\u2581Many": 762,
  "\u2581power": 763,
  "\u2581hand": 764,
  "\u2581house": 765,
  "\u2581Sao": 766,
  "\u2581taga": 767,
  "\u2581given": 768,
  "\u2581talaga": 769,
  "\u2581nalabit": 770,
  "\u2581religious": 771,
  "\u2581father": 772,
  "\u2581matalek": 773,
  "\u2581U": 774,
  "\u2581Mateo": 775,
  "\u2581Salmo": 776,
  "\u2581G": 777,
  "\u2581Psalm": 778,
  "\u2581few": 779,
  "\u2581Job": 780,
  "\u2581set": 781,
  "\u2581material": 782,
  "\u2581peace": 783,
  "\u2581ili": 784,
  "\u2581really": 785,
  "9": 786,
  "7": 787,
  "\u2581Wen": 788,
  "\u2581grupo": 789,
  "\u25814": 790,
  "\u2581im": 791,
  "\u2581little": 792,
  "\u2581saludsod": 793,
  "\u2581Kinapudnona": 794,
  "\u2581food": 795,
  "\u2581Africa": 796,
  "\u258113": 797,
  "\u2581always": 798,
  "\u2581ubing": 799,
  "\u2581Our": 800,
  "\u2581N": 801,
  "\u2581Jesu": 802,
  "\u2581order": 803,
  "\u2581service": 804,
  "\u2581panggep": 805,
  "\u25813:": 806,
  "\u2581Tapno": 807,
  "\u2581full": 808,
  "\u2581think": 809,
  "\u2581panangi": 810,
  "h": 811,
  "\u2581making": 812,
  "\u2581faithful": 813,
  "\u2581tulong": 814,
  "\u2581city": 815,
  "less": 816,
  "\u2581panglakayen": 817,
  "\u2581kakabsat": 818,
  "....": 819,
  "\u2581Kalpasanna": 820,
  "\u2581linteg": 821,
  "\u2581namnama": 822,
  "ca": 823,
  "\u2581Si": 824,
  "\u2581kadagita": 825,
  "\u2581doing": 826,
  "ity": 827,
  "\u2581makita": 828,
  "\u2581result": 829,
  "\u2581Roma": 830,
  "\u2581gave": 831,
  "ci": 832,
  "\u2581ministry": 833,
  "\u25818,": 834,
  "su": 835,
  "\u258125": 836,
  "bu": 837,
  "id": 838,
  "M": 839,
  "\u2581balay": 840,
  "\u2581women": 841,
  "\u2581Yet": 842,
  "\u2581From": 843,
  "\u2581off": 844,
  "\u2581p": 845,
  "\u2581oras": 846,
  "\u2581M": 847,
  "\u2581sangatauan": 848,
  "\u2581g": 849,
  "D": 850,
  "\u2581took": 851,
  "\u2581asked": 852,
  "\u2581uneg": 853,
  "\u2581holy": 854,
  "\u2581kinunana": 855,
  "\u2581preaching": 856,
  "\u25aa": 857,
  "gu": 858,
  "est": 859,
  "\u2581serve": 860,
  "\u2581His": 861,
  "8": 862,
  "vi": 863,
  "\u2581nasantuan": 864,
  "\u2581school": 865,
  "\u2581having": 866,
  "\u2581Even": 867,
  "\u258122": 868,
  "\u2581something": 869,
  "\u2581agtultuloy": 870,
  "\u2581Panang": 871,
  "\u2581World": 872,
  "be": 873,
  "\u2581agsipud": 874,
  "\u2581An": 875,
  "ment": 876,
  "\u2581nadumaduma": 877,
  "\u2581agserbi": 878,
  "\u2581These": 879,
  "bi": 880,
  "\u2581problems": 881,
  "\u258117": 882,
  "\u25814.": 883,
  "sion": 884,
  "\u2581mangaramid": 885,
  "\u2581basol": 886,
  "\u2581since": 887,
  "\u2581inton": 888,
  "\u2581high": 889,
  "\u2581system": 890,
  "\u2581kayo": 891,
  "et": 892,
  "ir": 893,
  "\u258112:": 894,
  "\u2581balakad": 895,
  "3": 896,
  "\u2581marriage": 897,
  "\u2581mankind": 898,
  "\u2581nasken": 899,
  "\u2581langit": 900,
  "co": 901,
  "ent": 902,
  "\u2581puso": 903,
  "\u2581woman": 904,
  "\u2581war": 905,
  "4": 906,
  "\u2581La": 907,
  "\u2581care": 908,
  "\u2581look": 909,
  "\u2581Genesis": 910,
  "\u2581porsiento": 911,
  "G": 912,
  "\u2581together": 913,
  "\u2581ways": 914,
  "\u2581left": 915,
  "\u2581animal": 916,
  "\u2581bagi": 917,
  "\u2581Yes": 918,
  "\u2581Kasuratan": 919,
  "\u2581percent": 920,
  "\u2581Sigu": 921,
  "\u2581naisangsangayan": 922,
  "\u2581reason": 923,
  "\u2581J": 924,
  "\u2581manag": 925,
  "ang": 926,
  "\u2581thought": 927,
  "\u2581light": 928,
  "\u2581different": 929,
  "enda": 930,
  "un": 931,
  "\u2581bulan": 932,
  "ll": 933,
  "\u2581law": 934,
  "\u2581better": 935,
  "\u2581daydiay": 936,
  "\u2581humans": 937,
  "\u2581paka": 938,
  "\u2581last": 939,
  "1": 940,
  "\u2581purpose": 941,
  "\u2581known": 942,
  "ate": 943,
  "\u258111:": 944,
  "ig": 945,
  "\u2581si": 946,
  "\u2581maaddaan": 947,
  "\u2581m": 948,
  "\u2581body": 949,
  "\u2581prinsipio": 950,
  "L": 951,
  "ho": 952,
  "\u2581consider": 953,
  "\u2581toward": 954,
  "\u2581agpaay": 955,
  "\u2581f": 956,
  "\u2581whom": 957,
  "\u2581husband": 958,
  "\u2581experience": 959,
  "\u2581impormasion": 960,
  "ting": 961,
  "\u2581kalpasanna": 962,
  "\u2581Anian": 963,
  "\u2581disciples": 964,
  "ki": 965,
  "ine": 966,
  "\u2581loving": 967,
  "\u2581sistema": 968,
  "\u2581asawa": 969,
  "he": 970,
  "ive": 971,
  "\u2581Hebreo": 972,
  "\u2581future": 973,
  "\u2581free": 974,
  "\u2581isuamin": 975,
  "nak": 976,
  "\u2581Imbes": 977,
  "\u2581W": 978,
  "\u2581gagangay": 979,
  "\u258110:": 980,
  "\u25812.": 981,
  "\u2581buyogen": 982,
  "\u2581awanan": 983,
  "H": 984,
  "\u2581hard": 985,
  "\u2581lives": 986,
  "\u2581son": 987,
  "\u2581agbiag": 988,
  "tic": 989,
  "gi": 990,
  "\u2581land": 991,
  "\u2581again": 992,
  "\u2581inaramid": 993,
  "\u2581someone": 994,
  "\u2581Isaias": 995,
  "\u2581Isaiah": 996,
  "\u2581Ta": 997,
  "\u2581Scriptures": 998,
  "\u2581around": 999,
  "\u2581od": 1000,
  "\u2581Daniel": 1001,
  "\u2581gubat": 1002,
  "\u2581age": 1003,
  "\u2581rabii": 1004,
  "\u2581joy": 1005,
  "\u2581ever": 1006,
  "\u2581Uray": 1007,
  "\u2581far": 1008,
  "\u2581Solomon": 1009,
  "\u2581felt": 1010,
  "\u2581gobierno": 1011,
  "\u2581small": 1012,
  "\u2581needed": 1013,
  "\u2581believe": 1014,
  "\u258131": 1015,
  "\u2581face": 1016,
  "\u2581kuarta": 1017,
  "\u2581pina": 1018,
  "\u25815:": 1019,
  "\u2581napasamak": 1020,
  "ha": 1021,
  "\u2581report": 1022,
  "\u2581questions": 1023,
  "\u2581diak": 1024,
  "\u2581cannot": 1025,
  "\u2581learned": 1026,
  "\u2581matay": 1027,
  "\u2581D": 1028,
  "\u258122,": 1029,
  "\u2581King": 1030,
  "\u2581fear": 1031,
  "\u2581All": 1032,
  "\u2581Ari": 1033,
  "du": 1034,
  "\u2581eyes": 1035,
  "\u2581Son": 1036,
  "\u2581best": 1037,
  "\u2581maki": 1038,
  "\u2581pagtaengan": 1039,
  "\u2581following": 1040,
  "\u2581moral": 1041,
  "kan": 1042,
  "\u2581Pudno": 1043,
  "up": 1044,
  "\u2581helped": 1045,
  "\u2581damo": 1046,
  "\u258123": 1047,
  "\u2581bring": 1048,
  "\u2581Naka": 1049,
  "\u25817:": 1050,
  "\u2581mapasamak": 1051,
  "\u2581done": 1052,
  "ol": 1053,
  "\u2581friends": 1054,
  "\u258110.": 1055,
  "\u2581servants": 1056,
  "\u2581Can": 1057,
  "\u2581fellow": 1058,
  "\u2581religion": 1059,
  "\u258113:": 1060,
  "\u2581panagbiag": 1061,
  "\u2581until": 1062,
  "\u2581early": 1063,
  "\u2581Corinto": 1064,
  "\u2581baybay": 1065,
  "\u2581nakaskasdaaw": 1066,
  "\u2581support": 1067,
  "EN": 1068,
  "ted": 1069,
  "\u2581understand": 1070,
  "\u2581kadakami": 1071,
  "\u25815.": 1072,
  "\u2581Your": 1073,
  "\u2581next": 1074,
  "\u2581agpa": 1075,
  "me": 1076,
  "\u2581along": 1077,
  "\u2581form": 1078,
  "\u2581went": 1079,
  "\u2581cause": 1080,
  "ab": 1081,
  "\u2581tumulong": 1082,
  "\u2581ina": 1083,
  "\u2581present": 1084,
  "\u2581self": 1085,
  "\u2581narigat": 1086,
  "\u258140": 1087,
  "\u2581ancient": 1088,
  "\u2581matter": 1089,
  "\u2581happy": 1090,
  "\u2581aya": 1091,
  "\u2581nalinteg": 1092,
  "\u2581talna": 1093,
  "\u2581enjoy": 1094,
  "\u2581De": 1095,
  "\u2581money": 1096,
  "\u2581kapadasan": 1097,
  "\u2581kapanunotan": 1098,
  "\u2581possible": 1099,
  "\u2581Idiay": 1100,
  "\u25818.": 1101,
  "\u2581prayer": 1102,
  "\u2581Masapul": 1103,
  "\u258150": 1104,
  "\u2581Kadi": 1105,
  "ber": 1106,
  "\u2581Thus": 1107,
  "\u258114.": 1108,
  "aw": 1109,
  "hi": 1110,
  "\u2581e": 1111,
  "\u2581four": 1112,
  "\u25817.": 1113,
  "\u2060": 1114,
  "\u2581nations": 1115,
  "\u2581Para": 1116,
  "\u2581special": 1117,
  "\u2581wagas": 1118,
  "\u2581naragsak": 1119,
  "\u2581Proverbio": 1120,
  "\u2581sungbat": 1121,
  "\u2581Proverbs": 1122,
  "\u2581yourself": 1123,
  "\u258124": 1124,
  "ke": 1125,
  "\u2581mainaig": 1126,
  "\u2581immuna": 1127,
  "\u2581makagapu": 1128,
  "\u2581point": 1129,
  "\u2581imbes": 1130,
  "\u2581magasin": 1131,
  "\u2581brother": 1132,
  "\u25813.": 1133,
  "\u2581close": 1134,
  "\u2581especially": 1135,
  "\u2581Although": 1136,
  "\u2581million": 1137,
  "\u2581sumaganad": 1138,
  "\u2581bagina": 1139,
  "ug": 1140,
  "\u2581Sa": 1141,
  "\u2581saying": 1142,
  "son": 1143,
  "\u2581nor": 1144,
  "ous": 1145,
  "\u2581counsel": 1146,
  "\u2581nalaka": 1147,
  "\u2581nadakamat": 1148,
  "\u258115,": 1149,
  "\u2581Moises": 1150,
  "\u2581kararag": 1151,
  "\u2581night": 1152,
  "\u2581Israelita": 1153,
  "\u2581regular": 1154,
  "\u2581bad": 1155,
  "\u2581meetings": 1156,
  "\u2581Nakristianuan": 1157,
  "\u2581Of": 1158,
  "\u2581Moses": 1159,
  "\u2581wisdom": 1160,
  "min": 1161,
  "\u2581annakda": 1162,
  "\u2581Since": 1163,
  "\u2581kaipapanan": 1164,
  "\u2581mapan": 1165,
  "\u2581situation": 1166,
  "\u2581heaven": 1167,
  "\u2581share": 1168,
  "\u2581information": 1169,
  "ck": 1170,
  "AN": 1171,
  "\u2581dagus": 1172,
  "pu": 1173,
  "\u2581continue": 1174,
  "\u2581maika": 1175,
  "\u2581sense": 1176,
  "\u2581gimong": 1177,
  "\u2581nagkauna": 1178,
  "\u2581Because": 1179,
  "\u2581ditay": 1180,
  "ku": 1181,
  "\u2581large": 1182,
  "\u2581answer": 1183,
  "\u2581going": 1184,
  "lin": 1185,
  "wa": 1186,
  "ya": 1187,
  "\u258111.": 1188,
  "\u2581fine": 1189,
  "\u2581pagsasao": 1190,
  "\u2581pannakabalin": 1191,
  "\u258112.": 1192,
  "\u2581rason": 1193,
  "\u2581soon": 1194,
  "0,000": 1195,
  "\u2581agtalinaed": 1196,
  "\u2581mensahe": 1197,
  "\u2581certain": 1198,
  "\u2581Greek": 1199,
  "\u2581health": 1200,
  "\u2581sawen": 1201,
  "va": 1202,
  "\u2581reading": 1203,
  "\u2581thus": 1204,
  "\u2581adalan": 1205,
  "\u2581control": 1206,
  "\u2581naayat": 1207,
  "\u2581masarakan": 1208,
  "\u25819.": 1209,
  "\u2581milion": 1210,
  "ap": 1211,
  "\u2581magun": 1212,
  "\u2581nangnangruna": 1213,
  "\u2581Ar": 1214,
  "\u2581United": 1215,
  "\u258127": 1216,
  "\u258113.": 1217,
  "\u2581language": 1218,
  "\u2581real": 1219,
  "\u2581members": 1220,
  "\u2581teaching": 1221,
  "ian": 1222,
  "\u2581panagdayaw": 1223,
  "gan": 1224,
  "ist": 1225,
  "ver": 1226,
  "\u2581aglawlaw": 1227,
  "\u258117.": 1228,
  "\u2581uppat": 1229,
  "\u2581Da": 1230,
  "\u2581including": 1231,
  "\u2581pasamak": 1232,
  "\u2581kind": 1233,
  "\u2581Ken": 1234,
  "\u2581relationship": 1235,
  "\u2581Read": 1236,
  "\u2581case": 1237,
  "io": 1238,
  "ling": 1239,
  "pag": 1240,
  "ot": 1241,
  "\u258116.": 1242,
  "\u2581feelings": 1243,
  "\u2581co": 1244,
  "\u2581respect": 1245,
  "\u2581mangipaay": 1246,
  "\u2581saw": 1247,
  "\u2581question": 1248,
  "\u2581Who": 1249,
  "\u2581problem": 1250,
  "\u2581bilang": 1251,
  "\u2581brought": 1252,
  "\u2581elders": 1253,
  "\u2581change": 1254,
  "\u2581died": 1255,
  "\u2581Griego": 1256,
  "\u2581Dadduma": 1257,
  "\u2581wicked": 1258,
  "\u2581dalan": 1259,
  "\u2581rigat": 1260,
  "\u25818:": 1261,
  "\u2581dead": 1262,
  "\u2581usaren": 1263,
  "\u2581kaipapananna": 1264,
  "\u2581states": 1265,
  "\u2581wrong": 1266,
  "\u2581Dr": 1267,
  "\u2581yet": 1268,
  "\u2581makaay": 1269,
  "\u2581Le": 1270,
  "\u2581difficult": 1271,
  "\u2581Corinthians": 1272,
  "\u2581Let": 1273,
  "\u2581ministerio": 1274,
  "\u2581ok": 1275,
  "\u2581mean": 1276,
  "nu": 1277,
  "ated": 1278,
  "ful": 1279,
  "\u2581received": 1280,
  "\u2581talk": 1281,
  "\u2581Namarsua": 1282,
  "\u2581ask": 1283,
  "\u2581whole": 1284,
  "\u2581natural": 1285,
  "\u2581con": 1286,
  "\u2581Apo": 1287,
  "\u2581avoid": 1288,
  "\u2581masanguanan": 1289,
  "\u2581sangalubongan": 1290,
  "\u2581R": 1291,
  "\u2581needs": 1292,
  "\u2581receive": 1293,
  "sh": 1294,
  "\u2581eskuelaan": 1295,
  "\u2581Kina": 1296,
  "\u2581maitunos": 1297,
  "\u2581padto": 1298,
  "\u2581Talaga": 1299,
  "\u2581While": 1300,
  "\u2581anghel": 1301,
  "\u2581salaysay": 1302,
  "\u258115:": 1303,
  "\u2581Creator": 1304,
  "\u258115.": 1305,
  "\u2581ulidan": 1306,
  "\u2581panagbalbaliw": 1307,
  "\u2581asideg": 1308,
  "No": 1309,
  "\u2581doktor": 1310,
  "\u2581inaldaw": 1311,
  "\u2581righteous": 1312,
  "\u2581Not": 1313,
  "\u2581makes": 1314,
  "nan": 1315,
  "\u2581provide": 1316,
  "\u2581Timothy": 1317,
  "\u2581turn": 1318,
  "\u2581message": 1319,
  "\u2581seen": 1320,
  "\u25813,": 1321,
  "\u2581nagsayaat": 1322,
  "\u2581Timoteo": 1323,
  "\u2581near": 1324,
  "\u2581giving": 1325,
  "\u2581country": 1326,
  "per": 1327,
  "\u2581panangasaba": 1328,
  "\u2581asinoman": 1329,
  "\u2581suffering": 1330,
  "\u2581insurat": 1331,
  "\u2581desire": 1332,
  "\u2581conduct": 1333,
  "\u2581attention": 1334,
  "\u2581account": 1335,
  "\u2581here": 1336,
  "\u2581heavenly": 1337,
  "ty": 1338,
  "\u2581baptized": 1339,
  "\u2581sigun": 1340,
  "\u2581Li": 1341,
  "\u25816.": 1342,
  "\u2581past": 1343,
  "\u2581relasion": 1344,
  "pal": 1345,
  "\u2581L": 1346,
  "\u2581Luke": 1347,
  "kay": 1348,
  "men": 1349,
  "\u2581nasaysayaat": 1350,
  "par": 1351,
  "\u2581taken": 1352,
  "tra": 1353,
  "\u2581Nalabit": 1354,
  "\u258126": 1355,
  "\u2581Lord": 1356,
  ",000": 1357,
  "\u2581Are": 1358,
  "\u2581kastoy": 1359,
  "\u2581sanga": 1360,
  "\u2581maudi": 1361,
  "\u2581second": 1362,
  "\u2581Siempre": 1363,
  "\u2581lead": 1364,
  "\u2581Ita": 1365,
  "\u2581al": 1366,
  "\u2581simply": 1367,
  "\u2581Israelites": 1368,
  "\u2581agassawa": 1369,
  "\u2581nangi": 1370,
  "\u2581group": 1371,
  "\u2581speak": 1372,
  "\u2581Box": 1373,
  "\u2581naaramid": 1374,
  "\u258124:": 1375,
  "\u2581local": 1376,
  "\u2581thing": 1377,
  "\u2581Apocalipsis": 1378,
  "\u2581anointed": 1379,
  "\u2581maibusor": 1380,
  "\u2581America": 1381,
  "\u2581nalawag": 1382,
  "ge": 1383,
  "\u2581Revelation": 1384,
  "\u2581nagbayag": 1385,
  "\u258132": 1386,
  "\u2581king": 1387,
  "\u2581countries": 1388,
  "\u2581According": 1389,
  "\u2581moved": 1390,
  "\u2581ruar": 1391,
  "\u2581Jews": 1392,
  "\u2581feet": 1393,
  "\u25819:": 1394,
  "\u2581likely": 1395,
  "\u2581kasayaatan": 1396,
  "\u2581try": 1397,
  "\u2581benefit": 1398,
  "\u2581umili": 1399,
  "\u2581according": 1400,
  "\u2581once": 1401,
  "\u2581nothing": 1402,
  "\u2581pro": 1403,
  "\u2581wise": 1404,
  "kon": 1405,
  "op": 1406,
  "\u2581Does": 1407,
  "\u2581Consider": 1408,
  "\u2581sure": 1409,
  "\u2581Mo": 1410,
  "ary": 1411,
  "\u2581napan": 1412,
  "\u2581Line": 1413,
  "\u2581taking": 1414,
  "\u2581rag": 1415,
  "\u2581nailangitan": 1416,
  "\u2581Bethel": 1417,
  "\u2581clear": 1418,
  "\u2581Dur": 1419,
  "\u2581sea": 1420,
  "\u2581follow": 1421,
  "\u2581Mang": 1422,
  "iti": 1423,
  "\u2581similar": 1424,
  "pas": 1425,
  "\u2581Now": 1426,
  "\u2581ayam": 1427,
  "\u2581napulotan": 1428,
  "\u2581involved": 1429,
  "\u2581kilometro": 1430,
  "\u2581Aramid": 1431,
  "\u258117:": 1432,
  "\u2581Me": 1433,
  "\u2581wanted": 1434,
  "\u2581agdama": 1435,
  "\u2581bilin": 1436,
  "\u2581Such": 1437,
  "\u2581Samuel": 1438,
  "\u2581Australia": 1439,
  "\u2581ladawan": 1440,
  "ep": 1441,
  "\u2581Awake": 1442,
  "\u2581ago": 1443,
  "\u2581imbaga": 1444,
  "\u2581Con": 1445,
  "\u2581ourselves": 1446,
  "\u2581w": 1447,
  "\u2581templo": 1448,
  "\u2581bin": 1449,
  "\u2581knew": 1450,
  "\u2581tarigagay": 1451,
  "Na": 1452,
  "ism": 1453,
  "ung": 1454,
  "R": 1455,
  "\u2581church": 1456,
  "\u2581months": 1457,
  "\u2581pain": 1458,
  "\u2581Lucas": 1459,
  "\u2581anak": 1460,
  "\u2581Those": 1461,
  "\u2581sent": 1462,
  "\u2581pagalagadan": 1463,
  "\u2581laengen": 1464,
  "\u2581mangpa": 1465,
  "\u2581kayatna": 1466,
  "\u2581Masansan": 1467,
  "\u2581Pictures": 1468,
  "\u2581less": 1469,
  "\u2581maaramid": 1470,
  "\u2581kameng": 1471,
  "tin": 1472,
  "akon": 1473,
  "\u2581saanna": 1474,
  "der": 1475,
  "\u2581act": 1476,
  "\u2581five": 1477,
  "\u2581wayawaya": 1478,
  "\u2581Pag": 1479,
  "\u2581THE": 1480,
  "\u2581comes": 1481,
  "\u2581kingdom": 1482,
  "\u2581Watchtower": 1483,
  "\u2581Acts": 1484,
  "\u2581temple": 1485,
  "\u2581dati": 1486,
  "\u2581epekto": 1487,
  "\u2581history": 1488,
  "\u2581thinking": 1489,
  "\u2581Kaskasdi": 1490,
  "\u2581ama": 1491,
  "\u2581nation": 1492,
  "\u2581impa": 1493,
  "\u2581panagasawa": 1494,
  "\u2581um": 1495,
  "\u2581See": 1496,
  "N": 1497,
  "\u2581serving": 1498,
  "tar": 1499,
  "\u2581kadua": 1500,
  "\u2581pioneer": 1501,
  "\u2581public": 1502,
  "\u2581strong": 1503,
  "\u2581Adam": 1504,
  "res": 1505,
  "\u2581taught": 1506,
  "ance": 1507,
  "\u2581Manipud": 1508,
  "\u2581call": 1509,
  "\u2581agturong": 1510,
  "\u2581principles": 1511,
  "bal": 1512,
  "ris": 1513,
  "\u2581allow": 1514,
  "\u2581Estado": 1515,
  "\u2581Law": 1516,
  "\u2581ipakita": 1517,
  "ud": 1518,
  "\u2581rikna": 1519,
  "\u2581already": 1520,
  "\u2581Today": 1521,
  "\u258137": 1522,
  "\u2581manang": 1523,
  "\u2581Al": 1524,
  "\u2581miles": 1525,
  "\u2581panagserbi": 1526,
  "\u2581Aniat": 1527,
  "dak": 1528,
  "\u2581maitutop": 1529,
  "\u2581ten": 1530,
  "AL": 1531,
  "\u2581sidong": 1532,
  "\u2581Romans": 1533,
  "\u2581Adan": 1534,
  "\u2581Their": 1535,
  "\u2581false": 1536,
  "\u2581leave": 1537,
  "\u2581H": 1538,
  "\u2581mapa": 1539,
  "\u258118.": 1540,
  "\u2581nadiosan": 1541,
  "\u2581Agriingkayo": 1542,
  "\u2581lawas": 1543,
  "\u2581latta": 1544,
  "\u2581started": 1545,
  "\u2581area": 1546,
  "\u2581kabsat": 1547,
  "\u2581whether": 1548,
  "\u2581pannakaawat": 1549,
  "\u2581evidence": 1550,
  "\u2581tell": 1551,
  "\u2581States": 1552,
  "rs": 1553,
  "\u2581Europa": 1554,
  "\u2581car": 1555,
  "\u2581heard": 1556,
  "\u2581Maka": 1557,
  "\u2581lima": 1558,
  "pat": 1559,
  "\u2581problema": 1560,
  "age": 1561,
  "\u2581panunot": 1562,
  "baba": 1563,
  "\u2581kari": 1564,
  "ayat": 1565,
  "\u258129": 1566,
  "\u2581miembro": 1567,
  "\u2581nagduduma": 1568,
  "les": 1569,
  "\u2581common": 1570,
  "\u2581divine": 1571,
  "\u2581sigurado": 1572,
  "\u2581works": 1573,
  "\u2581maammuan": 1574,
  "\u2581longer": 1575,
  "\u2581return": 1576,
  "\u2581disease": 1577,
  "\u2581t": 1578,
  "\u2581ITI": 1579,
  "\u2581lost": 1580,
  "\u2581nangrugi": 1581,
  "\u2581happiness": 1582,
  "\u2581physical": 1583,
  "\u2581sibibiag": 1584,
  "\u2581within": 1585,
  "\u2581dandani": 1586,
  "\u2581married": 1587,
  "angay": 1588,
  "\u2581agtawen": 1589,
  "\u2581James": 1590,
  "\u25819,": 1591,
  "\u2581based": 1592,
  "\u2581Mi": 1593,
  "ip": 1594,
  "\u2581magazine": 1595,
  "ant": 1596,
  "\u2581attitude": 1597,
  "om": 1598,
  "\u2581St": 1599,
  "\u2581using": 1600,
  "\u2581Catholic": 1601,
  "\u2581certainly": 1602,
  "\u2581II": 1603,
  "\u2581rather": 1604,
  "\u2581pribilehio": 1605,
  "\u2581serious": 1606,
  "\u25816,": 1607,
  "\u2581Hall": 1608,
  "ron": 1609,
  "nanto": 1610,
  "enyo": 1611,
  "\u2581panagbalin": 1612,
  "\u2581Kahon": 1613,
  "\u2581makapa": 1614,
  "\u2581kabaelan": 1615,
  "\u2581maikadua": 1616,
  "\u2581Roman": 1617,
  "\u2581aw": 1618,
  "\u2581mamati": 1619,
  "\u2581Linteg": 1620,
  "\u2581further": 1621,
  "Ma": 1622,
  "\u2581interest": 1623,
  "\u2581fully": 1624,
  "\u2581teksto": 1625,
  "tion": 1626,
  "\u2581Dagitoy": 1627,
  "\u2581Or": 1628,
  "gra": 1629,
  "rang": 1630,
  "\u00e9": 1631,
  "\u2581shows": 1632,
  "\u2581trust": 1633,
  "\u2581kindness": 1634,
  "\u2581pannakai": 1635,
  "\u2581coming": 1636,
  "\u2581Kastoy": 1637,
  "\u2581Ro": 1638,
  "\u2581panagayat": 1639,
  "\u2581People": 1640,
  "\u2581government": 1641,
  "\u2581kaadda": 1642,
  "nga": 1643,
  "\u258133": 1644,
  "\u2581alone": 1645,
  "\u2581matters": 1646,
  "\u2581gives": 1647,
  "\u2581pagarian": 1648,
  "\u2581maawatan": 1649,
  "\u2581bendision": 1650,
  "law": 1651,
  "\u2581truly": 1652,
  "\u2581kinalinteg": 1653,
  "\u2581teach": 1654,
  "\u2581panagtalek": 1655,
  "kam": 1656,
  "\u2581open": 1657,
  "\u2581prophet": 1658,
  "\u2581kararua": 1659,
  "\u2581perfect": 1660,
  "\u2581hear": 1661,
  "\u2581meaning": 1662,
  "eg": 1663,
  "\u2581pagayatan": 1664,
  "\u258160": 1665,
  "\u2581nadalus": 1666,
  "\u2581deep": 1667,
  "ran": 1668,
  "\u2581Will": 1669,
  "ina": 1670,
  "\u2581kagimongan": 1671,
  "\u2581showed": 1672,
  "\u2581Anak": 1673,
  "\u2581itself": 1674,
  "\u2581autoridad": 1675,
  "\u25814,": 1676,
  "\u2581die": 1677,
  "ating": 1678,
  "\u2581pray": 1679,
  "\u2581salun": 1680,
  "\u258134": 1681,
  "\u2581remain": 1682,
  "\u2581odan": 1683,
  "os": 1684,
  "\u2581makin": 1685,
  "\u2581mangipakita": 1686,
  "\u2581per": 1687,
  "\u2581agnanaed": 1688,
  "\u2581several": 1689,
  "\u2581ngata": 1690,
  "\u2581km": 1691,
  "\u2581wonderful": 1692,
  "\u2581Nalawag": 1693,
  "\u2581friend": 1694,
  "bang": 1695,
  "\u258118:": 1696,
  "\u258128": 1697,
  "\u2581pagimbagan": 1698,
  "\u2581Ra": 1699,
  "\u2581organisasion": 1700,
  "\u2581got": 1701,
  "ence": 1702,
  "\u2581six": 1703,
  "\u2581nainkalintegan": 1704,
  "\u2581soul": 1705,
  "\u2581klase": 1706,
  "\u2581organization": 1707,
  "\u2581hours": 1708,
  "\u2581agserserbi": 1709,
  "\u2581followers": 1710,
  "\u2581rest": 1711,
  "antayo": 1712,
  "0": 1713,
  "\u25815,": 1714,
  "\u2581naki": 1715,
  "\u2581half": 1716,
  "\u2581poor": 1717,
  "\u2581Maria": 1718,
  "mer": 1719,
  "\u2581anyone": 1720,
  "\u2581Ca": 1721,
  "\u2581Rather": 1722,
  "\u2581righteousness": 1723,
  "\u2581head": 1724,
  "\u2581mentioned": 1725,
  "\u2581War": 1726,
  "\u2581Witness": 1727,
  "ish": 1728,
  "lan": 1729,
  "\u2581Bo": 1730,
  "\u258170": 1731,
  "\u2581greater": 1732,
  "\u2581init": 1733,
  "\u2581AIDS": 1734,
  "\u2581resulta": 1735,
  "\u2581enough": 1736,
  "\u2581above": 1737,
  "\u2581stand": 1738,
  "pp": 1739,
  "\u2581babassit": 1740,
  "\u2581therefore": 1741,
  "den": 1742,
  "\u2581loved": 1743,
  "\u2581parsua": 1744,
  "eng": 1745,
  "\u2581issue": 1746,
  "\u2581modern": 1747,
  "\u2581accept": 1748,
  "\u2581bunga": 1749,
  "\u2581pannaki": 1750,
  "\u2581provided": 1751,
  "\u2581comfort": 1752,
  "\u2581Ko": 1753,
  "\u2581written": 1754,
  "way": 1755,
  "\u2581agaramid": 1756,
  "\u2581kunaen": 1757,
  "\u2581saanen": 1758,
  "\u2581surat": 1759,
  "\u2581dis": 1760,
  "ster": 1761,
  "\u2581maymaysa": 1762,
  "\u2581lived": 1763,
  "\u2581Life": 1764,
  "com": 1765,
  "\u2581pre": 1766,
  "\u2581dadakkel": 1767,
  "\u2581deal": 1768,
  "\u2581resurrection": 1769,
  "\u2581kept": 1770,
  "v": 1771,
  "\u2581individuals": 1772,
  "\u258119.": 1773,
  "\u2581strength": 1774,
  "\u2581sun": 1775,
  "\u2581Mar": 1776,
  "\u2581Would": 1777,
  "\u2581anything": 1778,
  "\u2581everlasting": 1779,
  "\u2581kalat": 1780,
  "AR": 1781,
  "\u2581sirib": 1782,
  "\u2581Unidos": 1783,
  "\u2581estudiante": 1784,
  "\u2581sacrifice": 1785,
  "\u2581umay": 1786,
  "\u2581seem": 1787,
  "\u25812,": 1788,
  "\u258116:": 1789,
  "\u2581explained": 1790,
  "\u2581ima": 1791,
  "sia": 1792,
  "\u2581born": 1793,
  "\u2581publiko": 1794,
  "\u2581Basaen": 1795,
  "\u2581sons": 1796,
  "que": 1797,
  "\u2581mula": 1798,
  "\u2581usar": 1799,
  "\u00b7": 1800,
  "\u2581Ama": 1801,
  "vo": 1802,
  "ac": 1803,
  "\u2581li": 1804,
  "\u2581perhaps": 1805,
  "\u2581explains": 1806,
  "\u2581effort": 1807,
  "\u2581sister": 1808,
  "\u2581effect": 1809,
  "\u2581lawag": 1810,
  "W": 1811,
  "\u2581don": 1812,
  "\u2581Kinunana": 1813,
  "\u2581pammaneknek": 1814,
  "\u2581idin": 1815,
  "\u2581millions": 1816,
  "\u2581basta": 1817,
  "\u2581continued": 1818,
  "\u2581fire": 1819,
  "\u2581nataengan": 1820,
  "\u2581opisial": 1821,
  "\u2581publikasion": 1822,
  "\u2581visit": 1823,
  "\u2581remember": 1824,
  "\u2581hands": 1825,
  "\u2581itoy": 1826,
  "\u2581ngay": 1827,
  "anyo": 1828,
  "\u2581gunggona": 1829,
  "\u2581kabayatan": 1830,
  "\u2581tawenen": 1831,
  "ial": 1832,
  "\u2581period": 1833,
  "\u2581Man": 1834,
  "\u2581ibaga": 1835,
  "00": 1836,
  "\u2581bato": 1837,
  "\u2581doubt": 1838,
  "kar": 1839,
  "\u2581gagayyem": 1840,
  "\u2581masirib": 1841,
  "\u2581side": 1842,
  "\u2581understanding": 1843,
  "\u2581Hebrew": 1844,
  "\u258120.": 1845,
  "\u2581Indeed": 1846,
  "bil": 1847,
  "\u2581almost": 1848,
  "\u2581older": 1849,
  "ors": 1850,
  "\u2581thousands": 1851,
  "\u2581Most": 1852,
  "\u2581angin": 1853,
  "Y": 1854,
  "ph": 1855,
  "\u2581karnero": 1856,
  "F": 1857,
  "fi": 1858,
  "\u258114,": 1859,
  "\u2581adalanna": 1860,
  "\u258120:": 1861,
  "\u2581Vi": 1862,
  "\u2581powerful": 1863,
  "qui": 1864,
  "\u2581pudpudno": 1865,
  "dagiti": 1866,
  "\u2581k": 1867,
  "ong": 1868,
  "\u2581Katoliko": 1869,
  "\u2581apostles": 1870,
  "\u2581reports": 1871,
  "\u2581Po": 1872,
  "\u258121.": 1873,
  "\u2581Japan": 1874,
  "\u2581start": 1875,
  "\u2581efforts": 1876,
  "\u2581youths": 1877,
  "\u2581birth": 1878,
  "\u2581simple": 1879,
  "\u2581maawagan": 1880,
  "\u2581misionero": 1881,
  "\u2581kapitulo": 1882,
  "\u2581gain": 1883,
  "\u2581panagraem": 1884,
  "\u2581class": 1885,
  "\u2581Ad": 1886,
  "\u2581spiritually": 1887,
  "\u2581clean": 1888,
  "\u2581short": 1889,
  "\u258116,": 1890,
  "\u2581Jewish": 1891,
  "\u2581value": 1892,
  "\u2581Ga": 1893,
  "\u2581rule": 1894,
  "\u2581biagna": 1895,
  "\u2581prophecy": 1896,
  "\u2581move": 1897,
  "\u2581innem": 1898,
  "\u2581peggad": 1899,
  "\u2581ragsak": 1900,
  "\u2581least": 1901,
  "\u2581everything": 1902,
  "\u2581qualities": 1903,
  "ies": 1904,
  "sang": 1905,
  "\u2581held": 1906,
  "\u2581agas": 1907,
  "\u2581freedom": 1908,
  "\u2581easy": 1909,
  "\u2581prove": 1910,
  "\u2581role": 1911,
  "In": 1912,
  "You": 1913,
  "\u2581ipa": 1914,
  "\u2581articles": 1915,
  "\u2581kinaranggas": 1916,
  "\u2581pi": 1917,
  "\u2581various": 1918,
  "\u2581considered": 1919,
  "\u2581desision": 1920,
  "\u2581Go": 1921,
  "\u2581authority": 1922,
  "\u2581judgment": 1923,
  "\u2581inspired": 1924,
  "we": 1925,
  "\u2581circumstances": 1926,
  "\u2581sheep": 1927,
  "\u2581ex": 1928,
  "\u2581impakita": 1929,
  "ard": 1930,
  "\u2581panagregget": 1931,
  "land": 1932,
  "\u2581adayo": 1933,
  "\u2581families": 1934,
  "mp": 1935,
  "\u2581panangaramid": 1936,
  "\u2581eat": 1937,
  "\u2581nalatak": 1938,
  "awan": 1939,
  "\u2581meeting": 1940,
  "\u2581sagut": 1941,
  "\u2581named": 1942,
  "\u2581pisikal": 1943,
  "ah": 1944,
  "\u2581100": 1945,
  "\u2581violence": 1946,
  "\u2581agparang": 1947,
  "\u2581opisina": 1948,
  "\u02b9": 1949,
  "\u2581Amin": 1950,
  "\u2581Santiago": 1951,
  "ita": 1952,
  "\u2581Joseph": 1953,
  "\u2581Canada": 1954,
  "\u2581dekada": 1955,
  "ff": 1956,
  "\u2581walk": 1957,
  "\u2581York": 1958,
  "\u2581makapag": 1959,
  "\u2581True": 1960,
  "\u2581naggapu": 1961,
  "\u2581moderno": 1962,
  "\u2581hold": 1963,
  "\u2581led": 1964,
  "\u2581Asia": 1965,
  "\u2581IN": 1966,
  "\u2581mausar": 1967,
  "\u2581sisters": 1968,
  "\u2581speaking": 1969,
  "\u2581kaadu": 1970,
  "\u2581listen": 1971,
  ",...": 1972,
  "\u2581promise": 1973,
  "\u2581Car": 1974,
  "\u2581panangusar": 1975,
  "\u2581working": 1976,
  "\u2581slave": 1977,
  "\u2581Ho": 1978,
  "\u2581gift": 1979,
  "\u2581forever": 1980,
  "\u2581sangapulo": 1981,
  "\u2581asawana": 1982,
  "\u2581please": 1983,
  "ok": 1984,
  "\u2581Devil": 1985,
  "basa": 1986,
  "pon": 1987,
  "\u2581Diablo": 1988,
  "\u2581El": 1989,
  "od": 1990,
  "\u2581urnos": 1991,
  "\u2581posible": 1992,
  "\u2581stated": 1993,
  "\u2581wonder": 1994,
  "\u2581single": 1995,
  "ical": 1996,
  "\u2581naiduma": 1997,
  "\u2581maseknan": 1998,
  "\u2581myself": 1999,
  "\u2581changed": 2000,
  "\u2581manangaywan": 2001,
  "\u2581Pagwanawanan": 2002,
  "\u2581activity": 2003,
  "\u2581panungpalan": 2004,
  "\u2581honor": 2005,
  "\u2581Siasino": 2006,
  "\u2581events": 2007,
  "ismo": 2008,
  "\u2581Su": 2009,
  "\u2581nabiit": 2010,
  "\u2581nangato": 2011,
  "\u258122:": 2012,
  "\u2581regarding": 2013,
  "\u2581Church": 2014,
  "\u2581kinaawan": 2015,
  "red": 2016,
  "\u2581Brazil": 2017,
  "\u2581agpadpada": 2018,
  "\u258111,": 2019,
  "\u2581Ipakita": 2020,
  "\u2581shall": 2021,
  "\u2581heavens": 2022,
  "\u2581spoke": 2023,
  "ged": 2024,
  "\u2581panagungar": 2025,
  "\u2581seek": 2026,
  "\u2581text": 2027,
  "\u2581hearts": 2028,
  "\u2581ayan": 2029,
  "\u2581social": 2030,
  "\u2581Mary": 2031,
  "natayo": 2032,
  "\u2581stop": 2033,
  "\u2581Saul": 2034,
  "gen": 2035,
  "og": 2036,
  "\u2581usually": 2037,
  "\u2581Like": 2038,
  "\u2581napanglaw": 2039,
  "\u2581st": 2040,
  "\u2581Hebrews": 2041,
  "\u2581described": 2042,
  "\u2581source": 2043,
  "\u25817,": 2044,
  "\u2581daydi": 2045,
  "\u2581maaramidan": 2046,
  "\u2581lugan": 2047,
  "\u2581nagpa": 2048,
  "\u2581ko": 2049,
  "\u2581tried": 2050,
  "\u2581whose": 2051,
  "ket": 2052,
  "\u2581metro": 2053,
  "\u2581nabileg": 2054,
  "V": 2055,
  "if": 2056,
  "\u2581kunana": 2057,
  "bangon": 2058,
  "\u2581Babilonia": 2059,
  "\u2581Just": 2060,
  "\u2581letter": 2061,
  "\u2581Ba": 2062,
  "pan": 2063,
  "\u2581Lubong": 2064,
  "\u2581kaso": 2065,
  "\u2581mangan": 2066,
  "\u2581nadangkes": 2067,
  "\u2581Wenno": 2068,
  "\u2581actually": 2069,
  "\u2581Biag": 2070,
  "\u2581Lo": 2071,
  "\u2581maigapu": 2072,
  "\u2581pakaigapuan": 2073,
  "\u258112,": 2074,
  "\u2581sum": 2075,
  "\u2581narelihiosuan": 2076,
  "\u2581panangisuro": 2077,
  "\u2581rebbeng": 2078,
  "ble": 2079,
  "\u2581Jacob": 2080,
  "\u2581build": 2081,
  "\u2581sexual": 2082,
  "\u2581vital": 2083,
  "\u2581programa": 2084,
  "\u2581ability": 2085,
  "\u2581en": 2086,
  "ria": 2087,
  "\u258123.": 2088,
  "\u2581sound": 2089,
  "\u2581agsubli": 2090,
  "\u2581tree": 2091,
  "\u258123]": 2092,
  "\u2581Se": 2093,
  "\u2581instance": 2094,
  "\u2581affect": 2095,
  "\u2581opportunity": 2096,
  "\u2581pannakadadael": 2097,
  "hu": 2098,
  "\u2581Im": 2099,
  "\u2581available": 2100,
  "\u2581office": 2101,
  "und": 2102,
  "\u2581centuries": 2103,
  "\u2581makagunggona": 2104,
  "\u2581nainsiriban": 2105,
  "\u2581served": 2106,
  "\u2581arak": 2107,
  "\u2581biktima": 2108,
  "\u2581simbaan": 2109,
  "\u2581Pannaka": 2110,
  "\u2581exercise": 2111,
  "\u2581galad": 2112,
  "\u2581mannursuro": 2113,
  "\u2581forth": 2114,
  "\u2581force": 2115,
  "\u2581worldwide": 2116,
  "tor": 2117,
  "\u2581serbisio": 2118,
  "\u2581nagadu": 2119,
  "\u2581naisurat": 2120,
  "\u2581grow": 2121,
  "\u2581kadawyan": 2122,
  "\u2581ulo": 2123,
  "\u2581lands": 2124,
  "\u2581direction": 2125,
  "\u2581Mexico": 2126,
  "\u2581daton": 2127,
  "\u2581Instead": 2128,
  "\u2581newspaper": 2129,
  "\u25817]": 2130,
  "ever": 2131,
  "\u2581Hence": 2132,
  "\u2581Ha": 2133,
  "\u2581helps": 2134,
  "kin": 2135,
  "\u2581ammona": 2136,
  "\u2581job": 2137,
  "\u2581dakdakkel": 2138,
  "\u2581pan": 2139,
  "\u2581promises": 2140,
  "\u2581meet": 2141,
  "\u2581students": 2142,
  "lia": 2143,
  "\u2581created": 2144,
  "ide": 2145,
  "\u2581Did": 2146,
  "\u2581witness": 2147,
  "\u2581una": 2148,
  "\u2581congregations": 2149,
  "\u258117]": 2150,
  "\u2581suffer": 2151,
  "\u2581May": 2152,
  "\u2581aramidentayo": 2153,
  "\u2581standards": 2154,
  "\u2581Another": 2155,
  "\u2581awanen": 2156,
  "\u2581offer": 2157,
  "\u2581proved": 2158,
  "\u2581seems": 2159,
  "garup": 2160,
  "\u2581Mark": 2161,
  "\u258110,": 2162,
  "kanto": 2163,
  "\u2581Dakkel": 2164,
  "\u2581activities": 2165,
  "\u2581ot": 2166,
  "\u2581air": 2167,
  "\u2581sursuro": 2168,
  "\u2581pressure": 2169,
  "ally": 2170,
  "\u2581Bi": 2171,
  "sin": 2172,
  "\u2581godly": 2173,
  "nes": 2174,
  "\u2581decision": 2175,
  "ld": 2176,
  "\u2581pages": 2177,
  "\u2581puersa": 2178,
  "ub": 2179,
  "\u2581learning": 2180,
  "\u2581panggepna": 2181,
  "\u2581confidence": 2182,
  "\u2581regard": 2183,
  "\u2581Europe": 2184,
  "\u2581Jo": 2185,
  "day": 2186,
  "\u2581takes": 2187,
  "ions": 2188,
  "\u2581prayers": 2189,
  "\u2581accepted": 2190,
  "\u2581se": 2191,
  "\u2581caused": 2192,
  "\u2581field": 2193,
  "\u2581kabakiran": 2194,
  "\u2581reach": 2195,
  "\u2581appreciate": 2196,
  "\u2581kolor": 2197,
  "\u2581creation": 2198,
  "\u2581parts": 2199,
  "\u2581Scriptural": 2200,
  "\u2581adal": 2201,
  "\u2581ang": 2202,
  "\u2581ground": 2203,
  "\u2581medical": 2204,
  "\u2581line": 2205,
  "\u2581naibatay": 2206,
  "sing": 2207,
  "\u2581natalged": 2208,
  "\u2581prison": 2209,
  "ON": 2210,
  "\u2581glory": 2211,
  "\u2581abilidad": 2212,
  "yan": 2213,
  "\u2581carry": 2214,
  "\u2581indibidual": 2215,
  "\u2581position": 2216,
  "rin": 2217,
  "\u2581develop": 2218,
  "\u2581indeed": 2219,
  "\u2581daily": 2220,
  "\u2581books": 2221,
  "\u2581subject": 2222,
  "\u2581seven": 2223,
  "\u2581yantangay": 2224,
  "\u2581happened": 2225,
  "\u2581Egipto": 2226,
  "\u2581advice": 2227,
  "\u2581bunggoy": 2228,
  "\u2581protect": 2229,
  "\u2581itatta": 2230,
  "\u258115]": 2231,
  "\u2581adipenna": 2232,
  "\u2581changes": 2233,
  "\u2581musika": 2234,
  "\u2581sientista": 2235,
  "\u2581Still": 2236,
  "\u2581pasiente": 2237,
  "\u2581apply": 2238,
  "\u2581areas": 2239,
  "\u2581parent": 2240,
  "\u2581appropriate": 2241,
  "\u2581India": 2242,
  "\u2581everyone": 2243,
  "ero": 2244,
  "\u2581morning": 2245,
  "sis": 2246,
  "\u2581First": 2247,
  "uk": 2248,
  "Dagiti": 2249,
  "\u2581pakasaritaan": 2250,
  "\u2581isuda": 2251,
  "\u2581expect": 2252,
  "\u258145": 2253,
  "\u2581Eva": 2254,
  "\u2581maikari": 2255,
  "\u2581umad": 2256,
  "\u2581mata": 2257,
  "led": 2258,
  "\u2581kinadakes": 2259,
  "\u2581Kanayon": 2260,
  "tal": 2261,
  "yam": 2262,
  "\u2581answers": 2263,
  "\u2581asi": 2264,
  "\u2581konsiensia": 2265,
  "\u2581lasag": 2266,
  "\u2581places": 2267,
  "tak": 2268,
  "\u2581Noe": 2269,
  "\u2581kabusor": 2270,
  "ec": 2271,
  "war": 2272,
  "\u2581kagudua": 2273,
  "\u2581couple": 2274,
  "\u2581clearly": 2275,
  "\u2581Her": 2276,
  "\u2581ulbod": 2277,
  "\u2581treatment": 2278,
  "\u2581getting": 2279,
  "chi": 2280,
  "\u2581payunir": 2281,
  "\u258136": 2282,
  "\u2581complete": 2283,
  "\u2581door": 2284,
  "\u2581kawes": 2285,
  "\u2581branch": 2286,
  "dayaw": 2287,
  "\u2581Credit": 2288,
  "\u25811990": 2289,
  "\u2581building": 2290,
  "\u2581turned": 2291,
  "ie": 2292,
  "nd": 2293,
  "wan": 2294,
  "\u2581influence": 2295,
  "\u2581mental": 2296,
  "cy": 2297,
  "\u2581blessing": 2298,
  "\u2581experienced": 2299,
  "\u2581kaputotan": 2300,
  "\u2581play": 2301,
  "Ag": 2302,
  "\u2581week": 2303,
  "\u2581decided": 2304,
  "\u2581rich": 2305,
  "\u2581privilege": 2306,
  "cu": 2307,
  "\u2581lenguahe": 2308,
  "\u2581former": 2309,
  "\u2581lot": 2310,
  "\u2581results": 2311,
  "\u2581practice": 2312,
  "\u2581Bu": 2313,
  "\u2581thoughts": 2314,
  "God": 2315,
  "mon": 2316,
  "\u2581behind": 2317,
  "\u2581impluensia": 2318,
  "\u2581Efeso": 2319,
  "\u2581entire": 2320,
  "con": 2321,
  "\u2581Nang": 2322,
  "\u2581political": 2323,
  "\u258124.": 2324,
  "\u2581daughter": 2325,
  "\u2581Noah": 2326,
  "\u2581flesh": 2327,
  "\u2581isip": 2328,
  "\u2581laws": 2329,
  "ther": 2330,
  "\u2581examples": 2331,
  "\u2581umasping": 2332,
  "\u2581beautiful": 2333,
  "\u2581else": 2334,
  "port": 2335,
  "redit": 2336,
  "pit": 2337,
  "\u2581panagpampanunot": 2338,
  "\u2581sanikua": 2339,
  "\u2581appreciation": 2340,
  "\u258113,": 2341,
  "\u2581teachings": 2342,
  "dakkel": 2343,
  "\u2581concern": 2344,
  "\u2581stay": 2345,
  "\u2581willing": 2346,
  "\u2581sadi": 2347,
  "\u2581Kasapulan": 2348,
  "\u2581write": 2349,
  "j": 2350,
  "\u2581mangasaba": 2351,
  "Maipapan": 2352,
  "tri": 2353,
  "\u2581agsao": 2354,
  "\u258122.": 2355,
  "\u2581Cor": 2356,
  "\u2581voice": 2357,
  "\u2581kalsada": 2358,
  "\u2581barko": 2359,
  "\u2581state": 2360,
  "\u2581agtignay": 2361,
  "\u2581record": 2362,
  "AD": 2363,
  "\u2581cases": 2364,
  "ib": 2365,
  "\u2581bi": 2366,
  "\u2581Romano": 2367,
  "\u2581\u2019?": 2368,
  "\u2581Germany": 2369,
  "\u2581Have": 2370,
  "\u2581idinto": 2371,
  "\u2581earlier": 2372,
  "\u2581animals": 2373,
  "\u2581bagim": 2374,
  "\u2581lack": 2375,
  "\u2581Am": 2376,
  "\u2581mammadto": 2377,
  "\u2581throughout": 2378,
  "AM": 2379,
  "\u2581annongen": 2380,
  "\u2581nakatulong": 2381,
  "\u2581added": 2382,
  "\u2581Hu": 2383,
  "\u2581Insurat": 2384,
  "\u2581agpannuray": 2385,
  "\u2581mangted": 2386,
  "\u2581daras": 2387,
  "\u2581praise": 2388,
  "ik": 2389,
  "\u2581ku": 2390,
  "bar": 2391,
  "\u2581perpekto": 2392,
  "ell": 2393,
  "\u2581education": 2394,
  "nag": 2395,
  "tur": 2396,
  "\u2581accurate": 2397,
  "\u2581panagsagaba": 2398,
  "\u2581respond": 2399,
  "\u2581realize": 2400,
  "\u2581Ex": 2401,
  "\u2581sometimes": 2402,
  "but": 2403,
  "one": 2404,
  "\u2581speech": 2405,
  "ista": 2406,
  "\u2581angels": 2407,
  "rb": 2408,
  "\u2581Later": 2409,
  "\u2581neither": 2410,
  "\u2581risk": 2411,
  "ER": 2412,
  "\u2581Nai": 2413,
  "\u2581conscience": 2414,
  "\u2581crowd": 2415,
  "\u2581kinaragsak": 2416,
  "\u2581maintain": 2417,
  "\u2581panagpa": 2418,
  "linteg": 2419,
  "\u2581prevent": 2420,
  "mu": 2421,
  "\u2581Gu": 2422,
  "\u2581Z": 2423,
  "\u2581nainaig": 2424,
  "\u2581recorded": 2425,
  "\u2581success": 2426,
  "\u258138": 2427,
  ").": 2428,
  "\u2581Sakbay": 2429,
  "\u2581padi": 2430,
  "\u2581conditions": 2431,
  "\u2581historia": 2432,
  "\u2581kinabaknang": 2433,
  "\u2581term": 2434,
  "\u2581either": 2435,
  "\u2581malaksid": 2436,
  "\u2581bileg": 2437,
  "\u2581girl": 2438,
  "\u2581loyal": 2439,
  "\u2581responsibility": 2440,
  "lag": 2441,
  "\u2581duadua": 2442,
  "\u2581mannurat": 2443,
  "\u2581returned": 2444,
  "AS": 2445,
  "Jehovah": 2446,
  "anak": 2447,
  "\u2581Yantangay": 2448,
  "lay": 2449,
  "\u2581baptism": 2450,
  "\u2581imitate": 2451,
  "\u2581pinag": 2452,
  "\u2581training": 2453,
  "ado": 2454,
  "buya": 2455,
  "\u2581shown": 2456,
  "\u2581offered": 2457,
  "\u2581address": 2458,
  "fe": 2459,
  "\u2581Sigurado": 2460,
  "\u2581disso": 2461,
  "\u2581Compare": 2462,
  "\u2581kanayonan": 2463,
  "\u2581resultana": 2464,
  "\u2581imatang": 2465,
  "\u2581minilion": 2466,
  "\u2581month": 2467,
  "\u2581te": 2468,
  "\u2581naganna": 2469,
  "\u2581reasons": 2470,
  "\u2581quickly": 2471,
  "\u258126]": 2472,
  "\u2581Before": 2473,
  "\u2581Jose": 2474,
  "\u2581destruction": 2475,
  "\u2581rabaw": 2476,
  "\u2581necessary": 2477,
  "\u2581umdas": 2478,
  "ice": 2479,
  "\u2581harmony": 2480,
  "\u2581ca": 2481,
  "\u2581Russia": 2482,
  "\u2581Us": 2483,
  "\u2581bukodna": 2484,
  "\u2581music": 2485,
  "\u2581nagbaetan": 2486,
  "\u2581agdaydayaw": 2487,
  "\u2581didigra": 2488,
  "\u2581palawag": 2489,
  "ure": 2490,
  "usar": 2491,
  "\u2581dikay": 2492,
  "mal": 2493,
  "\u2581condition": 2494,
  "\u2581anger": 2495,
  "\u2581napigsa": 2496,
  "\u2581produce": 2497,
  "\u2581napukaw": 2498,
  "\u2581ransom": 2499,
  "\u2581Nevertheless": 2500,
  "\u2581manmano": 2501,
  "\u2581third": 2502,
  "ner": 2503,
  "\u2581computer": 2504,
  "\u2581ilina": 2505,
  "\u2581napa": 2506,
  "\u2581sex": 2507,
  "ious": 2508,
  "\u2581amianan": 2509,
  "\u2581kalintegan": 2510,
  "ger": 2511,
  "\u2581agtrabaho": 2512,
  "\u2581chapter": 2513,
  "\u2581foretold": 2514,
  "\u2581beginning": 2515,
  "\u2581napasnek": 2516,
  "\u2581population": 2517,
  "lar": 2518,
  "\u2581noted": 2519,
  "\u2581promised": 2520,
  "\u2581action": 2521,
  "Saan": 2522,
  "\u2581annakna": 2523,
  "\u2581blessings": 2524,
  "\u2581Though": 2525,
  "\u2581maipa": 2526,
  "ill": 2527,
  "\u2581aramidenda": 2528,
  "\u2581mapukaw": 2529,
  "gat": 2530,
  "\u2581Te": 2531,
  "\u2581nasungdo": 2532,
  "sul": 2533,
  "\u2581Gilead": 2534,
  "\u2581nausar": 2535,
  "\u2581Diak": 2536,
  "\u2581Jeremias": 2537,
  "\u2581precious": 2538,
  "\u2581Ru": 2539,
  "\u2581biagda": 2540,
  "\u2581include": 2541,
  "\u2581natauan": 2542,
  "au": 2543,
  "\u2581Idilig": 2544,
  "\u2581cut": 2545,
  "\u2581tumatayab": 2546,
  "ning": 2547,
  "\u2581individual": 2548,
  "\u2581raised": 2549,
  "\u2581seksual": 2550,
  "\u2581sins": 2551,
  "ze": 2552,
  "put": 2553,
  "\u2581outside": 2554,
  "\u258117,": 2555,
  "\u2581nakita": 2556,
  "\u2581appointed": 2557,
  "\u2581paraiso": 2558,
  "\u2581pito": 2559,
  "and": 2560,
  "\u2581Jeremiah": 2561,
  "\u2581droga": 2562,
  "\u2581mangpataud": 2563,
  "\u258125]": 2564,
  "\u2581built": 2565,
  "\u2581makadangran": 2566,
  "\u2581abuse": 2567,
  "\u2581ut": 2568,
  "unggal": 2569,
  "\u2581proper": 2570,
  "\u2581propeta": 2571,
  "\u2581Alemania": 2572,
  "\u2581Great": 2573,
  "\u2581allowed": 2574,
  "\u2581panangikagumaan": 2575,
  "ban": 2576,
  "uan": 2577,
  "\u2581literal": 2578,
  "\u2581Eve": 2579,
  "\u2581anakna": 2580,
  "ps": 2581,
  "\u2581Others": 2582,
  "\u2581feeling": 2583,
  "\u2581nature": 2584,
  "aramid": 2585,
  "sao": 2586,
  "\u2581More": 2587,
  "\u00e1": 2588,
  "\u25819]": 2589,
  "\u2581inaramidna": 2590,
  "\u2581major": 2591,
  "\u2581becoming": 2592,
  "\u2581choose": 2593,
  "\u2581tengnga": 2594,
  "\u2581About": 2595,
  "\u2581recent": 2596,
  "\u2581Egypt": 2597,
  "\u2581preach": 2598,
  "asion": 2599,
  "\u2581helping": 2600,
  "\u2581Love": 2601,
  "\u2581program": 2602,
  "We": 2603,
  "\u2581looking": 2604,
  "\u2581enjoyed": 2605,
  "\u2581kopia": 2606,
  "\u2581Pina": 2607,
  "\u2581Umuna": 2608,
  "\u2581ministro": 2609,
  "ano": 2610,
  "\u2581inut": 2611,
  "\u2581mas": 2612,
  "\u2581bersikulo": 2613,
  "\u2581encouraged": 2614,
  "\u2581n": 2615,
  "\u2581South": 2616,
  "lic": 2617,
  "\u2581practical": 2618,
  "panunot": 2619,
  "rag": 2620,
  "\u00ed": 2621,
  "\u2581nagsubli": 2622,
  "ize": 2623,
  "\u2581pangarigan": 2624,
  "subli": 2625,
  "\u2581v": 2626,
  "bileg": 2627,
  "ities": 2628,
  "\u2581business": 2629,
  "\u2581draw": 2630,
  "\u2581paradise": 2631,
  "\u2581Over": 2632,
  "\u2581pamiliana": 2633,
  "\u2581pannangan": 2634,
  "lang": 2635,
  "\u258119,": 2636,
  "\u2581believers": 2637,
  "\u2581ipalubos": 2638,
  "\u2581naammuan": 2639,
  "las": 2640,
  "\u2581basis": 2641,
  "\u2581nabayagen": 2642,
  "ple": 2643,
  "\u2581sign": 2644,
  "\u2581kultura": 2645,
  "\u2581rain": 2646,
  "\u2581spent": 2647,
  "\u258180": 2648,
  "\u2581Panangmatmat": 2649,
  "\u2581positive": 2650,
  "pos": 2651,
  "\u2581DAGIT": 2652,
  "AY": 2653,
  "mang": 2654,
  "\u2581attend": 2655,
  "\u2581bantay": 2656,
  "kinamanangngaasi": 2657,
  "\u2581Therefore": 2658,
  "\u2581pakarigatan": 2659,
  "\u258144": 2660,
  "bayad": 2661,
  "\u2581occasion": 2662,
  "des": 2663,
  "\u2581addanto": 2664,
  "\u2581covenant": 2665,
  "\u2581patay": 2666,
  "\u2581psalmist": 2667,
  "\u2581buyot": 2668,
  "\u2581decisions": 2669,
  "\u2581Gubat": 2670,
  "\u2581trying": 2671,
  "kas": 2672,
  "\u2581selula": 2673,
  "\u2581treat": 2674,
  "\u2581discipline": 2675,
  "ized": 2676,
  "lagip": 2677,
  "\u2581Brother": 2678,
  "\u2581metten": 2679,
  "\u2581greatest": 2680,
  "\u2581naasi": 2681,
  "\u2581quality": 2682,
  "\u2581addition": 2683,
  "\u2581homes": 2684,
  "\u2581salmista": 2685,
  "hy": 2686,
  "\u2581reported": 2687,
  "\u2581trees": 2688,
  "kayto": 2689,
  "\u258125.": 2690,
  "\u2581society": 2691,
  "\u2581sleep": 2692,
  "\u2581Children": 2693,
  "\u2581earthly": 2694,
  "\u2581pannursuro": 2695,
  "\u2581abagatan": 2696,
  "\u2581gayyem": 2697,
  "dy": 2698,
  "pili": 2699,
  "\u2581V": 2700,
  "\u2581developed": 2701,
  "\u2581progress": 2702,
  "che": 2703,
  "\u2581siasino": 2704,
  "\u2581beyond": 2705,
  "\u2581arrived": 2706,
  "ja": 2707,
  "\u2581eye": 2708,
  "\u2581hour": 2709,
  "\u2581soldado": 2710,
  "ili": 2711,
  "\u2581ammok": 2712,
  "\u2581American": 2713,
  "\u2581youth": 2714,
  "\u2581krimen": 2715,
  "\u2581normal": 2716,
  "\u2581stress": 2717,
  "\u258135": 2718,
  "\u2581provides": 2719,
  "\u2581ba": 2720,
  "idad": 2721,
  "\u2581emotional": 2722,
  "\u2581followed": 2723,
  "\u2581step": 2724,
  "\u2581studying": 2725,
  "\u2581ugali": 2726,
  "\u258118]": 2727,
  "\u2581elder": 2728,
  "let": 2729,
  "ram": 2730,
  "\u2581related": 2731,
  "\u2581Internet": 2732,
  "\u2581Where": 2733,
  "\u2581napeggad": 2734,
  "\u258110]": 2735,
  "\u2581fulfillment": 2736,
  "\u2581pagbaludan": 2737,
  "\u2581fight": 2738,
  "\u2581fish": 2739,
  "\u2581tells": 2740,
  "\u2581Addaan": 2741,
  "\u2581killed": 2742,
  "\u2581pasurotna": 2743,
  "\u2581Kakristianuan": 2744,
  "\u2581Tatang": 2745,
  "\u2581adun": 2746,
  "\u2581literature": 2747,
  "gatang": 2748,
  "\u2581Society": 2749,
  "kita": 2750,
  "\u2581run": 2751,
  "bin": 2752,
  "\u2581apuy": 2753,
  "\u2581knows": 2754,
  "\u2581langlangit": 2755,
  "\u2581room": 2756,
  "\u2581process": 2757,
  "\u2581timek": 2758,
  "\u2581literatura": 2759,
  "\u2581Christendom": 2760,
  "\u2581ipaay": 2761,
  "\u2581Ammo": 2762,
  "\u2581tay": 2763,
  "\u2581Malaksid": 2764,
  "\u2581Un": 2765,
  "\u2581bear": 2766,
  "\u2581ibagbaga": 2767,
  "\u2581interested": 2768,
  "\u2581warm": 2769,
  "\u2581evil": 2770,
  "\u2581kamaudiananna": 2771,
  "It": 2772,
  "anmi": 2773,
  "\u2581isla": 2774,
  "itan": 2775,
  "rigat": 2776,
  "\u2581Babylon": 2777,
  "\u2581England": 2778,
  "\u2581contact": 2779,
  "\u2581natibker": 2780,
  "our": 2781,
  "\u2581Mai": 2782,
  "\u2581eventually": 2783,
  "\u2581express": 2784,
  "\u2581personalidad": 2785,
  "\u2581sick": 2786,
  "\u2581Mesias": 2787,
  "\u2581fall": 2788,
  "\u2581nearly": 2789,
  "\u2581pagaammo": 2790,
  "\u2581increase": 2791,
  "\u2581Ngarud": 2792,
  "\u2581naaddaan": 2793,
  "\u2581original": 2794,
  "tulong": 2795,
  "\u2581beliefs": 2796,
  "ser": 2797,
  "\u2581Further": 2798,
  "\u2581picture": 2799,
  "\u2581Moreover": 2800,
  "\u2581panangagas": 2801,
  "maysa": 2802,
  "sk": 2803,
  "\u258114:": 2804,
  "\u2581Anakna": 2805,
  "\u2581Latin": 2806,
  "\u2581ready": 2807,
  "\u2581studies": 2808,
  "\u2581Nanang": 2809,
  "\u2581Soon": 2810,
  "\u2581addada": 2811,
  "rio": 2812,
  "\u2581TV": 2813,
  "\u2581key": 2814,
  "\u2581pagilasinan": 2815,
  "all": 2816,
  "\u2581leaders": 2817,
  "\u2581Kasla": 2818,
  "\u2581test": 2819,
  "\u2581Mount": 2820,
  "\u2581court": 2821,
  "lat": 2822,
  "\u2581basaen": 2823,
  "\u2581nasinged": 2824,
  "\u2581walking": 2825,
  "dis": 2826,
  "\u2581filled": 2827,
  "\u2581ga": 2828,
  "\u2581spend": 2829,
  "\u2581buklen": 2830,
  "\u2581awagan": 2831,
  "\u2581worked": 2832,
  "\u2581hospital": 2833,
  "\u2581po": 2834,
  "ngan": 2835,
  "\u2581Daga": 2836,
  "\u2581completely": 2837,
  "\u2581salvation": 2838,
  "\u2581kitaem": 2839,
  "\u2581marigatan": 2840,
  "\u2581personality": 2841,
  "bra": 2842,
  "mat": 2843,
  "\u2581Baro": 2844,
  "\u2581nagserbi": 2845,
  "\u2581agturay": 2846,
  "\u2581aramidenna": 2847,
  "\u2581inusar": 2848,
  "adal": 2849,
  "tek": 2850,
  "\u2581begin": 2851,
  "\u2581justice": 2852,
  "\u2581fruit": 2853,
  "eb": 2854,
  "gnagan": 2855,
  "\u258190": 2856,
  "\u2581Sangalubongan": 2857,
  "\u2581France": 2858,
  "\u2581ban": 2859,
  "\u2581baby": 2860,
  "\u2581bagbagida": 2861,
  "\u2581challenge": 2862,
  "\u2581passed": 2863,
  "\u2581quite": 2864,
  "\u2581wants": 2865,
  "\u2581papadi": 2866,
  "\u2581aktibidad": 2867,
  "\u2581uniberso": 2868,
  "ible": 2869,
  "\u2581idea": 2870,
  "\u2581integrity": 2871,
  "\u2581species": 2872,
  "\u2581behavior": 2873,
  "\u2581d": 2874,
  "\u2581mate": 2875,
  "\u2581immay": 2876,
  "\u2581priest": 2877,
  "\u2581break": 2878,
  "\u2581dika": 2879,
  "kararag": 2880,
  "\u2581nabaknang": 2881,
  "\u2581sanguanan": 2882,
  "\u2581karayan": 2883,
  "\u2581town": 2884,
  "\u258142": 2885,
  "\u2581spread": 2886,
  "udi": 2887,
  "\u2581mar": 2888,
  "\u2581oil": 2889,
  "\u2581watch": 2890,
  "paman": 2891,
  "pt": 2892,
  "\u2581doctor": 2893,
  "za": 2894,
  "\u2581determined": 2895,
  "\u2581guard": 2896,
  "\u2581negosio": 2897,
  "\u2581pangngeddeng": 2898,
  "\u2581travel": 2899,
  "\u2581regularly": 2900,
  "ists": 2901,
  "\u2581bagida": 2902,
  "sen": 2903,
  "\u2581final": 2904,
  "\u2581karit": 2905,
  "\u2581convention": 2906,
  "\u2581maliklikan": 2907,
  "\u2581siak": 2908,
  "\u2581maibilang": 2909,
  "\u2581napintas": 2910,
  "\u2581police": 2911,
  "\u2581sekso": 2912,
  "ler": 2913,
  "ob": 2914,
  "\u2581languages": 2915,
  "\u2581makaammo": 2916,
  "ken": 2917,
  "gar": 2918,
  "\u2581Dagidiay": 2919,
  "\u2581Ruth": 2920,
  "parang": 2921,
  "\u2581revealed": 2922,
  "\u2581showing": 2923,
  "\u2581drugs": 2924,
  "\u2581groups": 2925,
  "\u2581kaaldawan": 2926,
  "\u2581Ju": 2927,
  "\u2581nagpateg": 2928,
  "\u2581nangruna": 2929,
  "\u2581Times": 2930,
  "\u2581race": 2931,
  "\u2581Watch": 2932,
  "\u2581legal": 2933,
  "\u2581pastor": 2934,
  "\u25811914": 2935,
  "\u2581eksperto": 2936,
  "ES": 2937,
  "\u2581ho": 2938,
  "\u2581pannakilangen": 2939,
  "ING": 2940,
  "mar": 2941,
  "\u2581periodiko": 2942,
  "\u2581Messiah": 2943,
  "\u2581display": 2944,
  "\u258120,": 2945,
  "\u2581aktual": 2946,
  "\u2581irarang": 2947,
  "\u2581workers": 2948,
  "\u2581missionary": 2949,
  "\u2581Perhaps": 2950,
  "\u2581kinapateg": 2951,
  "mula": 2952,
  "\u2581seemed": 2953,
  "\u2581sumrek": 2954,
  "out": 2955,
  "\u2581cities": 2956,
  "\u2581happen": 2957,
  "\u2581biagko": 2958,
  "\u2581siensia": 2959,
  "\u2581tulag": 2960,
  "ight": 2961,
  "ari": 2962,
  "\u2581laksid": 2963,
  "nt": 2964,
  "\u2581cope": 2965,
  "\u2581drink": 2966,
  "\u2581ganggannaet": 2967,
  "\u2581invited": 2968,
  "\u2581las": 2969,
  "\u2581agkararag": 2970,
  "\u2581asidegen": 2971,
  "\u2581trabahador": 2972,
  "\u2581actions": 2973,
  "\u2581member": 2974,
  "\u2581Each": 2975,
  "\u2581general": 2976,
  "\u2581interesado": 2977,
  "\u2581big": 2978,
  "\u2581vision": 2979,
  "RE": 2980,
  "ny": 2981,
  "\u258124,": 2982,
  "\u2581secret": 2983,
  "\u2581Pro": 2984,
  "\u2581mouth": 2985,
  "\u2581prayed": 2986,
  "\u2581traveling": 2987,
  "\u2581ulit": 2988,
  "Do": 2989,
  "Iti": 2990,
  "\u2581growing": 2991,
  "raman": 2992,
  "\u2581Ask": 2993,
  "\u2581sight": 2994,
  "ros": 2995,
  "\u2581priests": 2996,
  "\u2581Sea": 2997,
  "line": 2998,
  "\u2581magna": 2999,
  "\u258118,": 3000,
  "\u2581affection": 3001,
  "\u2581non": 3002,
  "\u2581Com": 3003,
  "\u2581isursuro": 3004,
  "\u2581kayatda": 3005,
  "\u2581endure": 3006,
  "ragsak": 3007,
  "\u2581balasang": 3008,
  "\u2581ud": 3009,
  "\u2581presence": 3010,
  "ach": 3011,
  "\u2581agree": 3012,
  "gun": 3013,
  "\u2581interes": 3014,
  "\u2581patient": 3015,
  "\u2581scientists": 3016,
  "\u2581seeking": 3017,
  "\u2581alikamen": 3018,
  "\u2581gubuayan": 3019,
  "\u2581panunoten": 3020,
  "\u25811991": 3021,
  "\u2581ababa": 3022,
  "ente": 3023,
  "ten": 3024,
  "urnong": 3025,
  "\u2581makakita": 3026,
  "daydayaw": 3027,
  "\u2581benefits": 3028,
  "\u2581favor": 3029,
  "\u2581finally": 3030,
  "pl": 3031,
  "\u2581expression": 3032,
  "\u2581madadael": 3033,
  "\u2581naawagan": 3034,
  "\u2581edad": 3035,
  "\u2581pigsa": 3036,
  "\u2581road": 3037,
  "\u2581sp": 3038,
  "\u2581Kamaudiananna": 3039,
  "\u2581Keep": 3040,
  "\u2581agsagsagaba": 3041,
  "\u2581guidance": 3042,
  "\u2581imbagana": 3043,
  "bong": 3044,
  "\u2581island": 3045,
  "\u2581Impa": 3046,
  "\u2581panagbuteng": 3047,
  "\u2581panangaywan": 3048,
  "\u2581although": 3049,
  "\u2581boy": 3050,
  "\u2581addan": 3051,
  "\u2581loss": 3052,
  "\u2581tum": 3053,
  "bay": 3054,
  "for": 3055,
  "\u2581aramidem": 3056,
  "\u2581pe": 3057,
  "\u2581Umasping": 3058,
  "\u2581kaaldawantayo": 3059,
  "\u2581kabbaro": 3060,
  "\u2581knowing": 3061,
  "\u2581mangyeg": 3062,
  "\u2581security": 3063,
  "say": 3064,
  "\u2581Tower": 3065,
  "\u2581maragsakan": 3066,
  "\u2581date": 3067,
  "\u2581awaten": 3068,
  "\u2581turay": 3069,
  "\u2581weeks": 3070,
  "\u2581August": 3071,
  "\u2581Kayat": 3072,
  "\u2581Kitaenyo": 3073,
  "tang": 3074,
  "\u2581pagan": 3075,
  "\u2581white": 3076,
  "gg": 3077,
  "\u2581aniat": 3078,
  "\u2581nabautisaran": 3079,
  "\u2581suffered": 3080,
  "\u2581warning": 3081,
  "\u2581Isaac": 3082,
  "\u2581Lu": 3083,
  "\u2581Napateg": 3084,
  "akto": 3085,
  "\u258129.": 3086,
  "\u2581flock": 3087,
  "\u2581rikrikna": 3088,
  "\u2581series": 3089,
  "bel": 3090,
  "tayon": 3091,
  "\u2581front": 3092,
  "\u2581household": 3093,
  "\u2581tribulation": 3094,
  "\u2581assignment": 3095,
  "\u2581sika": 3096,
  "\u2581alive": 3097,
  "\u2581explain": 3098,
  "\u2581Nainkasuratan": 3099,
  "\u2581calls": 3100,
  "\u2581kayatko": 3101,
  "\u2581kukua": 3102,
  "\u2581choice": 3103,
  "san": 3104,
  "ulo": 3105,
  "\u2581acts": 3106,
  "\u2581sub": 3107,
  "\u2581cell": 3108,
  "\u2581mi": 3109,
  "\u2581dimteng": 3110,
  "\u2581nadagsen": 3111,
  "\u2581patien": 3112,
  "\u2581Co": 3113,
  "\u2581contrast": 3114,
  "If": 3115,
  "\u2581subbot": 3116,
  "fa": 3117,
  "\u2581eating": 3118,
  "\u2581humble": 3119,
  "\u2581mapag": 3120,
  "\u2581devotion": 3121,
  "\u2581praktikal": 3122,
  "\u258139": 3123,
  "\u2581bagik": 3124,
  "\u2581naimpusuan": 3125,
  "\u2581research": 3126,
  "ping": 3127,
  "\u2581Ephesians": 3128,
  "\u2581Rome": 3129,
  "\u2581causes": 3130,
  "\u2581direct": 3131,
  "\u2581uni": 3132,
  "ably": 3133,
  "\u2581Juda": 3134,
  "\u2581protection": 3135,
  "\u2581published": 3136,
  "adda": 3137,
  "\u2581English": 3138,
  "\u2581Hi": 3139,
  "\u2581inside": 3140,
  "\u2581late": 3141,
  "\u2581tignay": 3142,
  "big": 3143,
  "\u2581dumteng": 3144,
  "\u2581immediately": 3145,
  "\u2581kampo": 3146,
  "\u2581realized": 3147,
  "50": 3148,
  "\u2581agpayso": 3149,
  "\u2581balitok": 3150,
  "\u2581kadaanan": 3151,
  "\u2581deeply": 3152,
  "\u2581goal": 3153,
  "\u2581command": 3154,
  "sek": 3155,
  "\u2581conclusion": 3156,
  "\u2581magunggonaan": 3157,
  "\u2581relief": 3158,
  "\u2581established": 3159,
  "kadua": 3160,
  "\u2581bus": 3161,
  "\u2581nalaing": 3162,
  "\u2581popular": 3163,
  "\u2581observed": 3164,
  "\u2581utek": 3165,
  "sapul": 3166,
  "\u2581firm": 3167,
  "\u2581maladaga": 3168,
  "\u2581plant": 3169,
  "rus": 3170,
  "\u2581makiraman": 3171,
  "\u2581usigentayo": 3172,
  "\u2581Nazi": 3173,
  "OR": 3174,
  "\u25811992": 3175,
  "\u2581Despi": 3176,
  "\u2581battle": 3177,
  "\u2581attack": 3178,
  "\u2581obey": 3179,
  "\u2581interests": 3180,
  "\u2581pampanunoten": 3181,
  "ect": 3182,
  "\u2581Was": 3183,
  "\u2581universe": 3184,
  "\u2581agi": 3185,
  "\u2581lose": 3186,
  "\u2581nakaad": 3187,
  "\u2581whatever": 3188,
  "\u2581San": 3189,
  "\u2581eight": 3190,
  "\u2581mapaspasamak": 3191,
  "\u2581panagkaykaysa": 3192,
  "wat": 3193,
  "zi": 3194,
  "\u2581African": 3195,
  "\u2581strengthen": 3196,
  "\u2581Two": 3197,
  "\u2581bukodda": 3198,
  "\u2581langa": 3199,
  "\u2581pungtot": 3200,
  "ft": 3201,
  "\u2581Sal": 3202,
  "\u2581easily": 3203,
  "\u2581agtulnog": 3204,
  "\u2581copy": 3205,
  "\u2581extreme": 3206,
  "\u2581pakairamanan": 3207,
  "bed": 3208,
  "iv": 3209,
  "\u2581approach": 3210,
  "\u2581Pan": 3211,
  "\u2581epektibo": 3212,
  "He": 3213,
  "\u2581fulfilled": 3214,
  "\u2581required": 3215,
  "\u2581encouragement": 3216,
  "pateg": 3217,
  "\u2581Also": 3218,
  "\u2581nabatad": 3219,
  "\u2581forget": 3220,
  "\u2581unique": 3221,
  "\u2581Well": 3222,
  "\u2581isyu": 3223,
  "\u2581Bar": 3224,
  "\u2581garden": 3225,
  "waras": 3226,
  "\u2581expressed": 3227,
  "\u2581ngamin": 3228,
  "\u2581teacher": 3229,
  "\u2581kayatyo": 3230,
  "\u2581ospital": 3231,
  "ward": 3232,
  "\u2581German": 3233,
  "\u2581Remember": 3234,
  "ex": 3235,
  "\u2581eroplano": 3236,
  "\u2581mu": 3237,
  "\u2581pana": 3238,
  "\u2581notes": 3239,
  "\u2581le": 3240,
  "\u2581persons": 3241,
  "\u2581prepared": 3242,
  "\u258165": 3243,
  "\u2581Paradise": 3244,
  "\u2581particularly": 3245,
  "\u2581bar": 3246,
  "\u2581minister": 3247,
  "gaw": 3248,
  "\u2581Eden": 3249,
  "\u2581blessed": 3250,
  "\u2581ebkas": 3251,
  "\u2581h": 3252,
  "\u2581nangipaay": 3253,
  "\u2581bang": 3254,
  "\u2581ibilang": 3255,
  "\u2581\u201d!": 3256,
  "\u2581encourage": 3257,
  "\u2581manner": 3258,
  "\u2581tawtawen": 3259,
  "pro": 3260,
  "ruk": 3261,
  "sta": 3262,
  "\u2581dakayo": 3263,
  "\u2581kaskasdi": 3264,
  "\u2581keeping": 3265,
  "rit": 3266,
  "\u2581napno": 3267,
  "\u2581train": 3268,
  "\u2581200": 3269,
  "\u2581Marcos": 3270,
  "\u2581debosion": 3271,
  "\u2581inted": 3272,
  "\u2581pannakaseknan": 3273,
  "ev": 3274,
  "gas": 3275,
  "\u2581birds": 3276,
  "\u2581recognize": 3277,
  "\u2581ruangan": 3278,
  "time": 3279,
  "\u2581amak": 3280,
  "\u2581believed": 3281,
  "\u2581kanta": 3282,
  "\u2581trials": 3283,
  "\u2581neighbor": 3284,
  "\u2581wide": 3285,
  "\u2581agtalek": 3286,
  "\u2581brain": 3287,
  "\u2581nakem": 3288,
  "tro": 3289,
  "\u2581dayaw": 3290,
  "\u2581addang": 3291,
  "\u2581inlawlawag": 3292,
  "\u2581nagtultuloy": 3293,
  "\u2581punto": 3294,
  "\u2581agkasapulan": 3295,
  "\u2581meant": 3296,
  "\u2581standing": 3297,
  "\u2581agpada": 3298,
  "\u2581effective": 3299,
  "\u2581Through": 3300,
  "\u2581Francia": 3301,
  "\u2581mangrugi": 3302,
  "\u2581populasion": 3303,
  "ens": 3304,
  "\u2581Amana": 3305,
  "\u2581Similarly": 3306,
  "\u2581Soviet": 3307,
  "\u2581cha": 3308,
  "\u2581fail": 3309,
  "\u2581kasapulanda": 3310,
  "\u2581depression": 3311,
  "\u2581evening": 3312,
  "\u2581igid": 3313,
  "].": 3314,
  "\u2581agka": 3315,
  "\u2581carefully": 3316,
  "\u2581environment": 3317,
  "\u2581mountain": 3318,
  "\u2581panagsao": 3319,
  "\u2581panangiwanwan": 3320,
  "\u2581European": 3321,
  "\u2581eskolar": 3322,
  "log": 3323,
  "\u2581altar": 3324,
  "cle": 3325,
  "\u2581manamati": 3326,
  "\u2581save": 3327,
  "\u2581publication": 3328,
  "\u2581tinawen": 3329,
  "\u2581Memorial": 3330,
  "balakad": 3331,
  "\u2581active": 3332,
  "\u2581goes": 3333,
  "\u2581type": 3334,
  "ations": 3335,
  "lla": 3336,
  "ology": 3337,
  "\u2581edukasion": 3338,
  "],": 3339,
  "\u2581kombension": 3340,
  "\u258128.": 3341,
  "\u2581School": 3342,
  "\u2581Y": 3343,
  "\u2581steps": 3344,
  "yn": 3345,
  "\u2581Paraiso": 3346,
  "\u2581agbasa": 3347,
  "\u2581danger": 3348,
  "\u2581dayag": 3349,
  "\u2581managsirarak": 3350,
  "\u2581panagaramid": 3351,
  "lit": 3352,
  "ship": 3353,
  "\u2581forward": 3354,
  "\u2581reflect": 3355,
  "\u2581Fa": 3356,
  "\u2581ikan": 3357,
  "\u2581included": 3358,
  "\u25812000": 3359,
  "\u2581gapuna": 3360,
  "\u2581napudno": 3361,
  "kasaba": 3362,
  "\u2581Sumagmamano": 3363,
  "\u2581balud": 3364,
  "\u2581basic": 3365,
  "\u2581economic": 3366,
  "\u2581global": 3367,
  "\u2581minuto": 3368,
  "\u2581aware": 3369,
  "\u2581r": 3370,
  "\u2581sacred": 3371,
  "\u2581servant": 3372,
  "\u2581Makatulong": 3373,
  "\u2581destroyed": 3374,
  "\u2581lakayna": 3375,
  "\u2581pannakaisalakan": 3376,
  "\u2581rise": 3377,
  "60": 3378,
  "ea": 3379,
  "mong": 3380,
  "\u2581Work": 3381,
  "\u2581baba": 3382,
  "\u2581enemies": 3383,
  "\u2581instead": 3384,
  "RI": 3385,
  "ikal": 3386,
  "yaw": 3387,
  "\u2581Time": 3388,
  "\u2581ahead": 3389,
  "\u2581kadakkel": 3390,
  "\u2581Agtutubo": 3391,
  "saan": 3392,
  "shi": 3393,
  "\u2581atension": 3394,
  "rup": 3395,
  "\u2581gas": 3396,
  "\u2581nangaramid": 3397,
  "\u2581hundreds": 3398,
  "\u2581affected": 3399,
  "\u2581agadal": 3400,
  "\u2581gold": 3401,
  "more": 3402,
  "\u2581Only": 3403,
  "\u2581heavy": 3404,
  "\u2581namnamaen": 3405,
  "\u2581umawat": 3406,
  "\u2581situtulok": 3407,
  "\u2581Christianity": 3408,
  "\u2581appear": 3409,
  "\u2581dangerous": 3410,
  "\u2581panagyaman": 3411,
  "\u2581thousand": 3412,
  "\u258116]": 3413,
  "\u2581Kanayonanna": 3414,
  "\u2581Pi": 3415,
  "\u2581adds": 3416,
  "\u2581akem": 3417,
  "\u2581genuine": 3418,
  "\u2581guide": 3419,
  "\u2581linaon": 3420,
  "uman": 3421,
  "\u2581Filipos": 3422,
  "\u2581Judah": 3423,
  "\u2581kayatmo": 3424,
  "\u2581tema": 3425,
  "\u2581imperfect": 3426,
  "\u2581reached": 3427,
  "lam": 3428,
  "\u2581importance": 3429,
  "\u2581surface": 3430,
  "\u2581ammoda": 3431,
  "\u2581military": 3432,
  "\u2581rinibu": 3433,
  "sig": 3434,
  "\u2581Holy": 3435,
  "\u2581Rumbeng": 3436,
  "\u2581dedicated": 3437,
  "\u2581ek": 3438,
  "\u2581nagtalinaed": 3439,
  "\u2581Col": 3440,
  "\u2581direkta": 3441,
  "\u2581mangipa": 3442,
  "\u2581pakdaar": 3443,
  "\u2581tinapay": 3444,
  "\u2581idilig": 3445,
  "\u25811993": 3446,
  "\u2581nailanad": 3447,
  "rat": 3448,
  "\u258141": 3449,
  "\u2581Clearly": 3450,
  "\u2581brings": 3451,
  "\u2581responsabilidad": 3452,
  "\u2581walo": 3453,
  "\u2581din": 3454,
  "\u2581produkto": 3455,
  "ding": 3456,
  "\u2581epektona": 3457,
  "\u2581experiences": 3458,
  "\u2581panangukom": 3459,
  "\u2581produced": 3460,
  "\u2581request": 3461,
  "\u2581despite": 3462,
  "\u2581Imbaga": 3463,
  "\u2581amount": 3464,
  "\u2581continues": 3465,
  "kua": 3466,
  "lap": 3467,
  "teng": 3468,
  "\u2581foot": 3469,
  "\u2581lo": 3470,
  "\u2581Aniaman": 3471,
  "\u2581drug": 3472,
  "\u2581espesipiko": 3473,
  "\u2581missionaries": 3474,
  "\u2581Saona": 3475,
  "\u2581claim": 3476,
  "\u2581makuna": 3477,
  "\u2581takder": 3478,
  "adu": 3479,
  "\u258143": 3480,
  "\u2581ebidensia": 3481,
  "\u2581energy": 3482,
  "\u2581kompania": 3483,
  "\u2581yourselves": 3484,
  "\u2581authorities": 3485,
  "\u2581opened": 3486,
  "sardeng": 3487,
  "\u258131.": 3488,
  "\u2581biagtayo": 3489,
  "\u2581ill": 3490,
  "\u2581makisarita": 3491,
  "\u2581Help": 3492,
  "\u2581mamag": 3493,
  "\u2581worth": 3494,
  "\u2581polis": 3495,
  "\u2581search": 3496,
  "anen": 3497,
  "\u2581ekonomia": 3498,
  "\u2581Pu": 3499,
  "\u2581bagitayo": 3500,
  "\u2581baka": 3501,
  "\u2581examine": 3502,
  "ite": 3503,
  "pus": 3504,
  "\u2581lokal": 3505,
  "\u2581mo": 3506,
  "ius": 3507,
  "\u2581Inton": 3508,
  "\u2581edyer": 3509,
  "\u2581kakaisuna": 3510,
  "\u2581mercy": 3511,
  "\u2581size": 3512,
  "awis": 3513,
  "\u2581Asino": 3514,
  "\u2581kaarruba": 3515,
  "\u2581kinahustisia": 3516,
  "\u2581assigned": 3517,
  "\u2581karkarna": 3518,
  "\u2581dedication": 3519,
  "\u2581existence": 3520,
  "\u2581increased": 3521,
  "\u2581kinapudnona": 3522,
  "\u2581tawenna": 3523,
  "\u2581count": 3524,
  "sak": 3525,
  "\u258113]": 3526,
  "uma": 3527,
  "\u2581Kitaem": 3528,
  "\u2581dinakamat": 3529,
  "\u2581panagtignay": 3530,
  "rd": 3531,
  "\u2581nalabes": 3532,
  "by": 3533,
  "\u2581Its": 3534,
  "\u2581becomes": 3535,
  "naka": 3536,
  "\u258128:": 3537,
  "\u2581tarigagayan": 3538,
  "\u2581discovered": 3539,
  "\u2581fast": 3540,
  "\u2581negative": 3541,
  "AG": 3542,
  "J": 3543,
  "\u2581main": 3544,
  "\u2581ne": 3545,
  "\u2581persecution": 3546,
  "\u2581wish": 3547,
  "\u2581involves": 3548,
  "\u2581napatpateg": 3549,
  "ala": 3550,
  "tungpal": 3551,
  "\u2581bread": 3552,
  "\u2581du": 3553,
  "\u2581imperpekto": 3554,
  "\u2581reaksion": 3555,
  "cent": 3556,
  "\u2581across": 3557,
  "\u2581agar": 3558,
  "\u2581estilo": 3559,
  "\u2581writer": 3560,
  "\u2581aktibo": 3561,
  "\u2581patarus": 3562,
  "\u2581teachers": 3563,
  "\u258128,": 3564,
  "\u2581consequences": 3565,
  "kur": 3566,
  "\u2581Should": 3567,
  "\u2581kill": 3568,
  "\u2581nanipud": 3569,
  "\u2581unity": 3570,
  "\u2581victims": 3571,
  "gsipud": 3572,
  "\u2581Once": 3573,
  "\u2581kadin": 3574,
  "\u2581Young": 3575,
  "\u2581kadakkelan": 3576,
  "\u2581looked": 3577,
  "\u2581mangisuro": 3578,
  "\u2581panagtrabaho": 3579,
  "\u2581biddut": 3580,
  "\u2581event": 3581,
  "\u2581ilustrasion": 3582,
  "pulo": 3583,
  "\u2581concerned": 3584,
  "\u2581image": 3585,
  "\u2581liklikan": 3586,
  "\u2581low": 3587,
  "\u2581managbasol": 3588,
  "\u2581saka": 3589,
  "\u2581wine": 3590,
  "don": 3591,
  "kawes": 3592,
  "\u2581isuro": 3593,
  "\u2581points": 3594,
  "yon": 3595,
  "\u2581desires": 3596,
  "\u2581effects": 3597,
  "\u2581panangipakita": 3598,
  "\u2581visited": 3599,
  "ring": 3600,
  "\u258148": 3601,
  "\u2581dimo": 3602,
  "\u2581growth": 3603,
  "\u2581orihinal": 3604,
  "ras": 3605,
  "\u2581impaay": 3606,
  "\u2581su": 3607,
  "\u2581wives": 3608,
  "\u258121,": 3609,
  "\u2581skin": 3610,
  "aud": 3611,
  "nek": 3612,
  "\u2581Ebanghelio": 3613,
  "\u2581Readers": 3614,
  "\u2581Sin": 3615,
  "\u2581art": 3616,
  "\u2581cover": 3617,
  "\u2581declared": 3618,
  "\u2581Daydiay": 3619,
  "\u2581particular": 3620,
  "tiko": 3621,
  "\u2581carried": 3622,
  "\u2581kapatgan": 3623,
  "\u2581pammatida": 3624,
  "\u2581agibumbunannag": 3625,
  "\u2581faced": 3626,
  "\u2581mapagtalkan": 3627,
  "\u2581nariribuk": 3628,
  "\u2581panagbasa": 3629,
  "\u2581sort": 3630,
  "\u2581violent": 3631,
  "\u2581writing": 3632,
  "lak": 3633,
  "ries": 3634,
  "\u2581Bal": 3635,
  "\u2581Naimbag": 3636,
  "\u2581Nasken": 3637,
  "\u2581creatures": 3638,
  "\u2581kotse": 3639,
  "\u2581Kabsat": 3640,
  "\u2581UN": 3641,
  "\u2581elderly": 3642,
  "\u2581kankanayon": 3643,
  "\u2581pass": 3644,
  "\u2581responsible": 3645,
  "ative": 3646,
  "\u2581PAGE": 3647,
  "\u2581lallakay": 3648,
  "\u2581sada": 3649,
  "\u2581pure": 3650,
  "\u2581PANID": 3651,
  "\u2581nalaklaka": 3652,
  "\u2581teritoria": 3653,
  "opera": 3654,
  "pen": 3655,
  "\u2581chosen": 3656,
  "\u2581kaano": 3657,
  "\u2581natakuatan": 3658,
  "\u2581response": 3659,
  "\u2581mamagbalin": 3660,
  "\u2581due": 3661,
  "\u2581pasdek": 3662,
  "\u2581enter": 3663,
  "\u2581principle": 3664,
  "\u2581cost": 3665,
  "lad": 3666,
  "\u2581bed": 3667,
  "\u2581crime": 3668,
  "\u2581doctors": 3669,
  "\u2581overseer": 3670,
  "\u2581spoken": 3671,
  "pin": 3672,
  "rikna": 3673,
  "sursuro": 3674,
  "\u2581Under": 3675,
  "\u2581seeing": 3676,
  "bassit": 3677,
  "ey": 3678,
  "\u2581limited": 3679,
  "\u2581relative": 3680,
  "LE": 3681,
  "\u2581kahon": 3682,
  "av": 3683,
  "\u2581delight": 3684,
  "\u2581story": 3685,
  "\u2581komunidad": 3686,
  "\u2581measure": 3687,
  "arita": 3688,
  "qua": 3689,
  "\u2581Ilawlawag": 3690,
  "\u2581black": 3691,
  "\u2581makaparagsak": 3692,
  "\u2581maus": 3693,
  "tudo": 3694,
  "\u2581French": 3695,
  "\u2581hundred": 3696,
  "\u2581pinili": 3697,
  "\u2581trouble": 3698,
  "\u2581pasurot": 3699,
  "like": 3700,
  "ue": 3701,
  "\u2581Robert": 3702,
  "\u2581Usigenyo": 3703,
  "\u2581narikna": 3704,
  "\u2581politika": 3705,
  "ED": 3706,
  "ified": 3707,
  "iko": 3708,
  "ving": 3709,
  "\u25811995": 3710,
  "\u2581Per": 3711,
  "\u2581kinaimbag": 3712,
  "IA": 3713,
  "\u2581alcohol": 3714,
  "\u2581nauneg": 3715,
  "aran": 3716,
  "Adda": 3717,
  "\u258126.": 3718,
  "\u2581Mother": 3719,
  "\u2581answered": 3720,
  "\u2581ipakitana": 3721,
  "\u2581leading": 3722,
  "\u2581nakapuy": 3723,
  "\u2581cells": 3724,
  "\u2581kinapakumbaba": 3725,
  "\u2581ngiwat": 3726,
  "kis": 3727,
  "pet": 3728,
  "\u2581baketna": 3729,
  "\u2581level": 3730,
  "\u2581viewed": 3731,
  "uray": 3732,
  "ium": 3733,
  "\u25815]": 3734,
  "\u2581dumngeg": 3735,
  "\u2581naindaklan": 3736,
  "\u2581behalf": 3737,
  "\u2581valuable": 3738,
  "\u2581Finally": 3739,
  "\u2581practices": 3740,
  "ments": 3741,
  "\u2581angel": 3742,
  "\u2581ayaten": 3743,
  "\u2581Family": 3744,
  "\u2581disiplina": 3745,
  "\u2581panagturay": 3746,
  "\u2581weight": 3747,
  "\u2581matmatan": 3748,
  "\u2581naglaon": 3749,
  "\u2581seed": 3750,
  "\u2581failed": 3751,
  "\u2581village": 3752,
  "\u2581appearance": 3753,
  "\u2581panangipateg": 3754,
  "\u2581rock": 3755,
  "\u2581Du": 3756,
  "\u2581kellaat": 3757,
  "\u2581mangngeg": 3758,
  "\u2581Bagi": 3759,
  "\u2581agballigi": 3760,
  "\u2581camp": 3761,
  "\u2581improve": 3762,
  "\u2581Har": 3763,
  "\u2581imagine": 3764,
  "\u2581sipud": 3765,
  "\u2581Good": 3766,
  "\u2581cancer": 3767,
  "\u2581ipatpateg": 3768,
  "\u2581milagro": 3769,
  "\u2581par": 3770,
  "awat": 3771,
  "\u2581aid": 3772,
  "\u2581kaitungpalan": 3773,
  "\u2581maipakita": 3774,
  "\u2581foreign": 3775,
  "\u2581placed": 3776,
  "\u2581tongue": 3777,
  "\u2581specific": 3778,
  "\u2581list": 3779,
  "\u2581sipapasnek": 3780,
  "\u25811994": 3781,
  "\u2581natalna": 3782,
  "\u2581refused": 3783,
  "\u2581requires": 3784,
  "\u2581probably": 3785,
  "\u2581Blu": 3786,
  "\u2581communication": 3787,
  "\u2581goals": 3788,
  "\u2581greatly": 3789,
  "\u2581maikatlo": 3790,
  "\u2581nairaman": 3791,
  "panaw": 3792,
  "\u2581balo": 3793,
  "\u2581lie": 3794,
  "\u2581agnaed": 3795,
  "\u2581kinasirib": 3796,
  "gapu": 3797,
  "\u2581average": 3798,
  "\u2581forest": 3799,
  "\u2581harvest": 3800,
  "\u2581kings": 3801,
  "\u2581metal": 3802,
  "\u2581names": 3803,
  "\u2581Bin": 3804,
  "\u2581Nagbalin": 3805,
  "\u2581includes": 3806,
  "\u2581red": 3807,
  "\u2581rejoice": 3808,
  "sango": 3809,
  "\u2581Tra": 3810,
  "\u2581masursuro": 3811,
  "\u2581puli": 3812,
  "\u2581taaw": 3813,
  "AT": 3814,
  "\u2581nasaknap": 3815,
  "Let": 3816,
  "ned": 3817,
  "\u2581closer": 3818,
  "\u2581ha": 3819,
  "AK": 3820,
  "\u2581army": 3821,
  "\u2581ch": 3822,
  "\u2581forgive": 3823,
  "sayaat": 3824,
  "\u2581NA": 3825,
  "\u2581agbuteng": 3826,
  "\u2581iglesia": 3827,
  "\u2581kinatalged": 3828,
  "\u2581master": 3829,
  "\u2581react": 3830,
  "\u2581sagrado": 3831,
  "\u2581truths": 3832,
  "sukimat": 3833,
  "\u2581assawa": 3834,
  "\u2581nagsurat": 3835,
  "\u2581tears": 3836,
  "\u2581ited": 3837,
  "\u2581napakumbaba": 3838,
  "\u2581talking": 3839,
  "\u2581thank": 3840,
  "riribuk": 3841,
  "\u2581asking": 3842,
  "\u2581box": 3843,
  "\u2581dios": 3844,
  "\u2581klero": 3845,
  "dagsen": 3846,
  "padas": 3847,
  "\u2581hearing": 3848,
  "\u2581science": 3849,
  "har": 3850,
  "\u2581lana": 3851,
  "\u2581survive": 3852,
  "mes": 3853,
  "\u2581community": 3854,
  "\u2581remained": 3855,
  "\u25814;": 3856,
  "\u2581essential": 3857,
  "kaykaysa": 3858,
  "\u2581Joshua": 3859,
  "\u2581Nabatad": 3860,
  "\u2581em": 3861,
  "\u2581harm": 3862,
  "\u2581radio": 3863,
  "\u2581wild": 3864,
  "\u2581tuladen": 3865,
  "\u2581values": 3866,
  "baknang": 3867,
  "ley": 3868,
  "\u2581factors": 3869,
  "\u2581fill": 3870,
  "\u2581higher": 3871,
  "\u2581courage": 3872,
  "\u2581naballigi": 3873,
  "\u2581hurt": 3874,
  "her": 3875,
  "\u2581note": 3876,
  "trabaho": 3877,
  "\u2581concerning": 3878,
  "\u2581cultivate": 3879,
  "\u2581paper": 3880,
  "\u2581plants": 3881,
  "\u2581bag": 3882,
  "\u2581situasion": 3883,
  "\u2581tu": 3884,
  "\u2581Really": 3885,
  "\u2581makatawen": 3886,
  "\u2581relatives": 3887,
  "\u2581Blur": 3888,
  "\u2581Britania": 3889,
  "\u2581gayam": 3890,
  "\u2581Elias": 3891,
  "\u2581Tim": 3892,
  "\u2581obedient": 3893,
  "\u2581planet": 3894,
  "\u2581putt": 3895,
  "\u2581warned": 3896,
  "rip": 3897,
  "\u2581Other": 3898,
  "\u2581drinking": 3899,
  "\u2581Usigentayo": 3900,
  "\u2581attended": 3901,
  "\u2581es": 3902,
  "ipatulod": 3903,
  "luk": 3904,
  "\u2581Patien": 3905,
  "\u2581agkaka": 3906,
  "\u2581ammotayo": 3907,
  "\u2581bangir": 3908,
  "\u2581ninamnama": 3909,
  "\u2581resurrected": 3910,
  "\u2581Kunana": 3911,
  "\u2581naipaltiing": 3912,
  "asi": 3913,
  "\u2581BY": 3914,
  "\u2581Pe": 3915,
  "\u2581occur": 3916,
  "\u2581reality": 3917,
  "\u2581site": 3918,
  "\u2581tulongan": 3919,
  "idaton": 3920,
  "nton": 3921,
  "\u2581illness": 3922,
  "\u2581total": 3923,
  "\u2581anian": 3924,
  "\u2581discuss": 3925,
  "\u2581divorce": 3926,
  "\u2581illustration": 3927,
  "\u2581observe": 3928,
  "\u2581suroten": 3929,
  "\u2581pagannurotan": 3930,
  "\u2581accounts": 3931,
  "\u2581association": 3932,
  "\u2581puraw": 3933,
  "\u2581urged": 3934,
  "nder": 3935,
  "\u2581Mat": 3936,
  "balligi": 3937,
  "entayo": 3938,
  "\u2581Dua": 3939,
  "\u2581blind": 3940,
  "inum": 3941,
  "\u2581grateful": 3942,
  "\u2581sharing": 3943,
  "buteng": 3944,
  "oc": 3945,
  "\u2581aduan": 3946,
  "\u2581arrangement": 3947,
  "\u2581ilawlawag": 3948,
  "\u2581saad": 3949,
  "ile": 3950,
  "lukat": 3951,
  "\u2581designed": 3952,
  "\u2581convinced": 3953,
  "\u2581doktrina": 3954,
  "\u2581kanito": 3955,
  "\u258135.": 3956,
  "\u2581Spain": 3957,
  "\u2581ginasut": 3958,
  "\u2581kasapulantayo": 3959,
  "\u2581matulongan": 3960,
  "\u2581nagbiag": 3961,
  "\u2581nangted": 3962,
  "\u2581solusion": 3963,
  "\u2581Mu": 3964,
  "\u2581recently": 3965,
  "baliw": 3966,
  "car": 3967,
  "\u2581appeared": 3968,
  "\u2581damage": 3969,
  "\u2581mabasa": 3970,
  "\u25816]": 3971,
  "\u2581Eclesiastes": 3972,
  "\u2581center": 3973,
  "\u2581libre": 3974,
  "\u2581translation": 3975,
  "\u2581verse": 3976,
  "\u2581nasarakan": 3977,
  "\u2581publishers": 3978,
  "\u2581sana": 3979,
  "\u2581mayat": 3980,
  "\u2581naipa": 3981,
  "\u2581tungpalen": 3982,
  "\u2581kurang": 3983,
  "\u2581naranggas": 3984,
  "\u2581region": 3985,
  "\u2581religions": 3986,
  "\u2581Ecclesiastes": 3987,
  "\u2581focus": 3988,
  "\u2581kinasungdo": 3989,
  "\u2581merely": 3990,
  "\u2581opposition": 3991,
  "\u2581reasonable": 3992,
  "\u2581slow": 3993,
  "pla": 3994,
  "\u2581marikna": 3995,
  "\u258121]": 3996,
  "\u2581University": 3997,
  "\u2581nagkuna": 3998,
  "\u2581sacrifices": 3999,
  "pay": 4000,
  "\u2581international": 4001,
  "ibtur": 4002,
  "kamin": 4003,
  "\u2581forms": 4004,
  "\u2581pammatitayo": 4005,
  "dia": 4006,
  "ick": 4007,
  "\u2581developing": 4008,
  "\u2581purok": 4009,
  "\u2581timmabuno": 4010,
  "\u2581Inlawlawag": 4011,
  "\u2581espiritualidad": 4012,
  "\u2581grew": 4013,
  "\u2581nakalkaldaang": 4014,
  "\u2581waters": 4015,
  "balbaliw": 4016,
  "\u2581lay": 4017,
  "\u2581personally": 4018,
  "\u2581situations": 4019,
  "\u2581virus": 4020,
  "When": 4021,
  "\u25811989": 4022,
  "\u2581Dika": 4023,
  "\u2581buya": 4024,
  "\u2581inkeddeng": 4025,
  "ction": 4026,
  "tayto": 4027,
  "\u2581agusar": 4028,
  "\u2581belief": 4029,
  "\u2581Disiembre": 4030,
  "\u2581Spanish": 4031,
  "\u2581kanen": 4032,
  "\u2581nakitana": 4033,
  "\u2581national": 4034,
  "get": 4035,
  "\u2581Paka": 4036,
  "\u2581accomplish": 4037,
  "\u2581cold": 4038,
  "\u2581issues": 4039,
  "\u2581nakaam": 4040,
  "\u2581publications": 4041,
  "\u2581god": 4042,
  "\u2581gone": 4043,
  "\u2581panangpa": 4044,
  "\u2581tren": 4045,
  "\u258127.": 4046,
  "\u2581Bantay": 4047,
  "\u2581City": 4048,
  "\u2581Ne": 4049,
  "\u2581addaanda": 4050,
  "\u2581pakaseknan": 4051,
  "\u2581vast": 4052,
  "baga": 4053,
  "\u2581kanser": 4054,
  "\u2581panagtulnog": 4055,
  "\u2581termino": 4056,
  "kuyog": 4057,
  "lis": 4058,
  "\u2581buy": 4059,
  "\u2581design": 4060,
  "\u2581kakasta": 4061,
  "\u2581overcome": 4062,
  "\u2581tangay": 4063,
  "\u2581bum": 4064,
  "namnama": 4065,
  "\u2581Day": 4066,
  "\u2581Ki": 4067,
  "\u2581fell": 4068,
  "\u2581kinatarnaw": 4069,
  "\u2581prepare": 4070,
  "\u258155": 4071,
  "\u2581Tu": 4072,
  "\u2581correct": 4073,
  "\u2581hair": 4074,
  "lik": 4075,
  "\u2581Nasayaat": 4076,
  "\u2581Without": 4077,
  "\u2581malagip": 4078,
  "tter": 4079,
  "\u2581Aya": 4080,
  "\u2581adalen": 4081,
  "\u2581poverty": 4082,
  "\u2581trip": 4083,
  "\u2581Agbalin": 4084,
  "\u2581loyalty": 4085,
  "\u2581masakbayan": 4086,
  "\u2581remains": 4087,
  "\u2581Ri": 4088,
  "\u2581rekord": 4089,
  "\u2581Pamilia": 4090,
  "\u2581historiador": 4091,
  "\u2581panagkararag": 4092,
  "\u2581sadino": 4093,
  "\u2581sumaruno": 4094,
  "This": 4095,
  "baro": 4096,
  "\u258130.": 4097,
  "\u2581mangay": 4098,
  "\u2581appears": 4099,
  "\u2581bu": 4100,
  "\u2581eternal": 4101,
  "\u2581female": 4102,
  "\u2581safe": 4103,
  "\u2581tribu": 4104,
  "org": 4105,
  "\u2581kaaduanna": 4106,
  "\u25818]": 4107,
  "\u2581huge": 4108,
  "\u2581imbilin": 4109,
  "\u2581lesson": 4110,
  "\u2581severe": 4111,
  "bas": 4112,
  "\u2581Gi": 4113,
  "raem": 4114,
  "\u2581annakyo": 4115,
  "\u2581detalye": 4116,
  "\u2581napolitikaan": 4117,
  "\u2581pamiliada": 4118,
  "\u25cf": 4119,
  "\u2581kalidad": 4120,
  "\u2581manifest": 4121,
  "\u2581napaut": 4122,
  "\u2581top": 4123,
  "awag": 4124,
  "\u2581Here": 4125,
  "\u2581attending": 4126,
  "\u2581pagiwarnak": 4127,
  "\u2581pakasuotan": 4128,
  "\u2581ra": 4129,
  "\u2581resist": 4130,
  "\u2581Philippians": 4131,
  "\u2581decades": 4132,
  "\u2581inkari": 4133,
  "\u2581join": 4134,
  "\u2581naaramidan": 4135,
  "\u2581season": 4136,
  "\u2581300": 4137,
  "\u258146": 4138,
  "\u2581Elijah": 4139,
  "\u2581describes": 4140,
  "\u2581expected": 4141,
  "\u2581pioneers": 4142,
  "\u2581post": 4143,
  "\u2581trade": 4144,
  "\u2581ipapatayna": 4145,
  "\u2581minutes": 4146,
  "\u2581arban": 4147,
  "\u2581rummuar": 4148,
  "\u2581siasinoman": 4149,
  "\u2581ammuen": 4150,
  "\u25812,000": 4151,
  "\u2581December": 4152,
  "\u2581billion": 4153,
  "\u2581content": 4154,
  "\u2581Iglesia": 4155,
  "\u2581bituen": 4156,
  "\u2581telebision": 4157,
  "asawa": 4158,
  "side": 4159,
  "\u2581presented": 4160,
  "\u2581\u25cf": 4161,
  "\u2581worse": 4162,
  "\u2581Make": 4163,
  "\u2581purposes": 4164,
  "\u2581aramidek": 4165,
  "\u2581lum": 4166,
  "\u2581nangngeg": 4167,
  "\u2581pagbalinen": 4168,
  "\u2581pateg": 4169,
  "allilaw": 4170,
  "\u2581Kabayatan": 4171,
  "\u2581pumanaw": 4172,
  "Awan": 4173,
  "\u2581Kunaen": 4174,
  "\u2581advantage": 4175,
  "\u2581nadadael": 4176,
  "\u2581patpatien": 4177,
  "\u2581Brooklyn": 4178,
  "\u2581maikkat": 4179,
  "\u2581pusotayo": 4180,
  "\u2581Judas": 4181,
  "\u2581mere": 4182,
  "\u2581reveal": 4183,
  "king": 4184,
  "\u2581Anna": 4185,
  "\u2581Dagita": 4186,
  "\u2581itay": 4187,
  "\u2581quoted": 4188,
  "\u2581Ingles": 4189,
  "\u2581aspeto": 4190,
  "\u2581panangipaay": 4191,
  "\u2581raise": 4192,
  "\u2581scientific": 4193,
  "\u2581tulongannatayo": 4194,
  "talged": 4195,
  "\u2581lattan": 4196,
  "\u2581reward": 4197,
  "ren": 4198,
  "siddaaw": 4199,
  "\u2581July": 4200,
  "\u2581panagdaliasat": 4201,
  "\u2581gods": 4202,
  "\u2581ing": 4203,
  "\u2581saanto": 4204,
  "Ni": 4205,
  "iparangarang": 4206,
  "sukat": 4207,
  "\u2581Hulio": 4208,
  "\u2581Oktubre": 4209,
  "\u2581churches": 4210,
  "\u2581naam": 4211,
  "\u2581positibo": 4212,
  "\u2581welcome": 4213,
  "ikkat": 4214,
  "\u2581Um": 4215,
  "\u2581itultuloy": 4216,
  "\u2581kabaelanna": 4217,
  "\u2581opening": 4218,
  "\u2581secular": 4219,
  "\u2581Baybay": 4220,
  "\u2581Ipa": 4221,
  "\u2581sit": 4222,
  "\u2581busy": 4223,
  "\u2581nangatngato": 4224,
  "\u2581nasursuro": 4225,
  "\u2581wars": 4226,
  "bat": 4227,
  "turong": 4228,
  "\u2581girls": 4229,
  "\u2581inawat": 4230,
  "\u2581labor": 4231,
  "pol": 4232,
  "\u2581Cain": 4233,
  "\u2581Take": 4234,
  "\u2581extent": 4235,
  "\u2581forces": 4236,
  "\u2581ministeri": 4237,
  "There": 4238,
  "\u2581successful": 4239,
  "\u2581variety": 4240,
  "\u2581rate": 4241,
  "\u2581sabong": 4242,
  "paliiw": 4243,
  "\u2581Ben": 4244,
  "\u2581Lot": 4245,
  "\u2581agay": 4246,
  "\u2581aramidenyo": 4247,
  "\u2581company": 4248,
  "\u2581tend": 4249,
  "rurod": 4250,
  "\u2581escape": 4251,
  "\u2581insuro": 4252,
  "\u2581listening": 4253,
  "\u2581madlaw": 4254,
  "\u2581exist": 4255,
  "\u2581sadinoman": 4256,
  "\u2581beauty": 4257,
  "\u2581contains": 4258,
  "\u2581enable": 4259,
  "\u2581humility": 4260,
  "\u2581kudil": 4261,
  "\u2581lies": 4262,
  "\u2581listed": 4263,
  "\u2581setting": 4264,
  "salimetmet": 4265,
  "\u2581encouraging": 4266,
  "\u2581nagparang": 4267,
  "\u2581manglapped": 4268,
  "phi": 4269,
  "\u2581Maki": 4270,
  "bul": 4271,
  "len": 4272,
  "\u25811997": 4273,
  "\u2581bigbigen": 4274,
  "\u2581helpful": 4275,
  "\u2581indicate": 4276,
  "leng": 4277,
  "\u2581Hitler": 4278,
  "\u2581Mayo": 4279,
  "\u2581North": 4280,
  "\u2581finding": 4281,
  "\u2581mangdadael": 4282,
  "\u2581nakakita": 4283,
  "\u2581solution": 4284,
  "\u2581student": 4285,
  "\u2581gifts": 4286,
  "\u2581pagay": 4287,
  "\u2581Island": 4288,
  "\u2581agbalinda": 4289,
  "\u2581journey": 4290,
  "\u2581notice": 4291,
  "\u2581deliver": 4292,
  "\u2581sangakabbalayan": 4293,
  "suk": 4294,
  "\u2581Bra": 4295,
  "\u2581panagdaydayaw": 4296,
  "\u2581plano": 4297,
  "\u2581send": 4298,
  "\u2581sentro": 4299,
  "\u2581endurance": 4300,
  "\u2581insuratna": 4301,
  "\u2581rumang": 4302,
  "\u2581Gagangay": 4303,
  "\u2581agur": 4304,
  "\u2581emosional": 4305,
  "\u2581moment": 4306,
  "\u2581rehion": 4307,
  "\u2581usigen": 4308,
  "nakami": 4309,
  "\u2581September": 4310,
  "\u2581official": 4311,
  "\u2581wood": 4312,
  "RA": 4313,
  "\u2581agsapa": 4314,
  "\u2581comments": 4315,
  "\u2581letters": 4316,
  "\u2581nakai": 4317,
  "\u2581wind": 4318,
  "izing": 4319,
  "sit": 4320,
  "\u2581Indian": 4321,
  "\u2581korte": 4322,
  "\u2581makapapatay": 4323,
  "\u2581napapatay": 4324,
  "\u2581create": 4325,
  "\u2581discussion": 4326,
  "\u2581pin": 4327,
  "ites": 4328,
  "\u2581color": 4329,
  "\u2581Aleman": 4330,
  "\u2581aggapu": 4331,
  "\u2581anamong": 4332,
  "\u2581bilion": 4333,
  "\u2581obedience": 4334,
  "\u2581saved": 4335,
  "press": 4336,
  "\u2581Nasurok": 4337,
  "\u2581adult": 4338,
  "\u2581bringing": 4339,
  "\u2581immakar": 4340,
  "\u2581umanamong": 4341,
  "\u25811999": 4342,
  "\u2581contribute": 4343,
  "\u2581impressed": 4344,
  "\u2581opinion": 4345,
  "\u2581prophecies": 4346,
  "\u2581wait": 4347,
  "\u2581younger": 4348,
  "ov": 4349,
  "\u2581careful": 4350,
  "\u2581pagnanaedan": 4351,
  "\u2581pusona": 4352,
  "\u2581Ay": 4353,
  "\u2581October": 4354,
  "bara": 4355,
  "\u2581capital": 4356,
  "\u2581stone": 4357,
  "\u2581Impakita": 4358,
  "\u2581X": 4359,
  "\u2581padana": 4360,
  "act": 4361,
  "abak": 4362,
  "\u2581chance": 4363,
  "\u2581gameng": 4364,
  "\u2581male": 4365,
  "\u2581nangpa": 4366,
  "uli": 4367,
  "\u2581Karaman": 4368,
  "\u2581demonstrate": 4369,
  "\u2581pagannayasan": 4370,
  "\u2581rebbengen": 4371,
  "\u2581tradision": 4372,
  "IN": 4373,
  "irugi": 4374,
  "\u2581Ed": 4375,
  "\u2581destroy": 4376,
  "\u2581gene": 4377,
  "\u2581tumabuno": 4378,
  "ipud": 4379,
  "\u2581June": 4380,
  "KAYO": 4381,
  "\u2581Agosto": 4382,
  "\u2581Enero": 4383,
  "\u2581conversation": 4384,
  "\u2581ibubusor": 4385,
  "\u2581singasing": 4386,
  "\u2581surely": 4387,
  "lig": 4388,
  "some": 4389,
  "\u258110;": 4390,
  "\u2581London": 4391,
  "\u2581anxiety": 4392,
  "\u2581wealth": 4393,
  "ded": 4394,
  "\u2581Colosas": 4395,
  "ow": 4396,
  "was": 4397,
  "\u2581acceptable": 4398,
  "\u2581mail": 4399,
  "\u2581Parents": 4400,
  "\u2581diseases": 4401,
  "\u2581sincere": 4402,
  "US": 4403,
  "\u2581leaving": 4404,
  "\u2581makina": 4405,
  "\u2581okasion": 4406,
  "\u2581statement": 4407,
  "\u2581dark": 4408,
  "fer": 4409,
  "salaknib": 4410,
  "\u2581500": 4411,
  "\u2581Ibaga": 4412,
  "\u2581aywan": 4413,
  "\u2581challenges": 4414,
  "\u2581ikagumaan": 4415,
  "\u2581pleasure": 4416,
  "amin": 4417,
  "\u2581Exodus": 4418,
  "\u2581judge": 4419,
  "\u2581panagbiagda": 4420,
  "\u2581understood": 4421,
  "\u2581check": 4422,
  "\u2581estimated": 4423,
  "\u2581prospect": 4424,
  "\u2581simrek": 4425,
  "\u2581Being": 4426,
  "\u2581Earth": 4427,
  "\u2581direksion": 4428,
  "allukoy": 4429,
  "ulit": 4430,
  "\u2581April": 4431,
  "\u2581distress": 4432,
  "\u2581fun": 4433,
  "\u2581minds": 4434,
  "ani": 4435,
  "\u2581hot": 4436,
  "\u2581referred": 4437,
  "\u2581remind": 4438,
  "\u2581saantayo": 4439,
  "\u2581space": 4440,
  "\u2581Th": 4441,
  "\u2581caring": 4442,
  "\u2581disciple": 4443,
  "\u2581perform": 4444,
  "\u2581stick": 4445,
  "ura": 4446,
  "\u2581River": 4447,
  "\u2581insekto": 4448,
  "\u2581makaipaay": 4449,
  "\u2581uses": 4450,
  "\u2581Abril": 4451,
  "\u2581kaduana": 4452,
  "\u2581nakapatpateg": 4453,
  "istic": 4454,
  "\u2581didiosen": 4455,
  "\u2581panangidumduma": 4456,
  "rig": 4457,
  "\u2581Every": 4458,
  "\u2581ik": 4459,
  "\u2581maar": 4460,
  "\u2581nakabasol": 4461,
  "NA": 4462,
  "lie": 4463,
  "unos": 4464,
  "\u2581Sha": 4465,
  "\u2581karaman": 4466,
  "\u2581kaunaan": 4467,
  "\u2581silaw": 4468,
  "\u2581supply": 4469,
  "\u2581forgiveness": 4470,
  "\u2581nagtaud": 4471,
  "\u2581natan": 4472,
  "ges": 4473,
  "\u2581Dikay": 4474,
  "\u2581Thank": 4475,
  "\u2581consideration": 4476,
  "\u2581formed": 4477,
  "\u2581temptation": 4478,
  "pang": 4479,
  "\u2581Ezekiel": 4480,
  "\u2581Kayatko": 4481,
  "\u2581hustisia": 4482,
  "\u2581inhabitants": 4483,
  "\u2581patients": 4484,
  "\u2581survey": 4485,
  "\u2581January": 4486,
  "\u2581Kasanotay": 4487,
  "\u2581eksakto": 4488,
  "\u2581iya": 4489,
  "\u2581pampanunot": 4490,
  "\u2581saanak": 4491,
  "\u2581Hunio": 4492,
  "\u2581Kaaduan": 4493,
  "\u2581maadaltayo": 4494,
  "\u2581makaaramid": 4495,
  "\u2581pangngarig": 4496,
  "\u2581studied": 4497,
  "pisi": 4498,
  "\u25811996": 4499,
  "\u2581Galacia": 4500,
  "\u2581apagbiit": 4501,
  "\u2581abut": 4502,
  "ngi": 4503,
  "\u258133.": 4504,
  "\u2581Ge": 4505,
  "\u2581adut": 4506,
  "\u2581agkuna": 4507,
  "\u2581generation": 4508,
  "\u2581British": 4509,
  "\u2581Kaano": 4510,
  "\u2581mountains": 4511,
  "uot": 4512,
  "\u2581distance": 4513,
  "apay": 4514,
  "rum": 4515,
  "\u2581Ezequiel": 4516,
  "\u2581amang": 4517,
  "\u2581compassion": 4518,
  "\u2581financial": 4519,
  "ANG": 4520,
  "What": 4521,
  "ama": 4522,
  "aramat": 4523,
  "\u2581[1": 4524,
  "\u2581agsagaba": 4525,
  "\u2581associated": 4526,
  "\u2581pammaregta": 4527,
  "\u2581State": 4528,
  "\u2581phone": 4529,
  "\u2581sangsangkamaysa": 4530,
  "wi": 4531,
  "\u2581Baal": 4532,
  "\u2581Book": 4533,
  "\u2581East": 4534,
  "\u2581Questions": 4535,
  "\u2581Setiembre": 4536,
  "\u2581panangtrato": 4537,
  "\u2581treated": 4538,
  "\u25811998": 4539,
  "\u2581manamnama": 4540,
  "\u2581pannakisarita": 4541,
  "\u2013": 4542,
  "\u2581Naminsan": 4543,
  "\u2581degree": 4544,
  "\u2581ipakpakita": 4545,
  "\u2581kemikal": 4546,
  "\u2581ruin": 4547,
  "\u2581awit": 4548,
  "\u2581mangammo": 4549,
  "\u2581meal": 4550,
  "\u2581moving": 4551,
  "\u2581preached": 4552,
  "\u2581Gen": 4553,
  "\u2581boluntario": 4554,
  "\u2581adults": 4555,
  "\u2581applied": 4556,
  "\u2581tumaud": 4557,
  "pun": 4558,
  "\u2581baketko": 4559,
  "\u2581gapuanan": 4560,
  "\u2581maawat": 4561,
  "work": 4562,
  "\u2581immadu": 4563,
  "\u2581makaliwliwa": 4564,
  "\u2581price": 4565,
  "Idi": 4566,
  "\u2581Ja": 4567,
  "\u2581Prov": 4568,
  "\u2581difference": 4569,
  "\u2581immoral": 4570,
  "\u2581maay": 4571,
  "\u2581sword": 4572,
  "\u2581timmulong": 4573,
  "\u2581Italia": 4574,
  "\u2581panaglabas": 4575,
  "bak": 4576,
  "\u258112]": 4577,
  "idda": 4578,
  "kapuy": 4579,
  "\u2581atap": 4580,
  "\u2581nadayaw": 4581,
  "\u2581rupa": 4582,
  "iwanwan": 4583,
  "\u2581river": 4584,
  "ans": 4585,
  "\u2581buteng": 4586,
  "\u2581shepherd": 4587,
  "\u2581Cha": 4588,
  "\u2581Gr": 4589,
  "\u2581lider": 4590,
  "\u2581panguluen": 4591,
  "\u2581smoke": 4592,
  "%": 4593,
  "\u2581Kasanotayo": 4594,
  "\u2581Pagarianna": 4595,
  "\u2581drawn": 4596,
  "\u2581fit": 4597,
  "\u2581naawat": 4598,
  "ubo": 4599,
  "\u2581Nangrugi": 4600,
  "\u2581kabagian": 4601,
  "\u2581liwliwa": 4602,
  "\u2581palubosan": 4603,
  "\u2581trained": 4604,
  "sakit": 4605,
  "\u2581Health": 4606,
  "\u2581discreet": 4607,
  "\u2581espesial": 4608,
  "\u2581organized": 4609,
  "\u2581pamma": 4610,
  "\u258123,": 4611,
  "\u2581darkness": 4612,
  "\u2581pimmanaw": 4613,
  "una": 4614,
  "\u2581fulfill": 4615,
  "\u2581kaasping": 4616,
  "\u2581mangibaga": 4617,
  "ipasdek": 4618,
  "\u2581Tesalonica": 4619,
  "\u2581determinado": 4620,
  "\u2581discussed": 4621,
  "\u2581iturayan": 4622,
  "\u2581kitaen": 4623,
  "\u2581makasarak": 4624,
  "\u2581nasursurok": 4625,
  "ua": 4626,
  "\u2581Body": 4627,
  "\u2581circuit": 4628,
  "\u2581maminsan": 4629,
  "\u2581matungpal": 4630,
  "\u2581panagsirarak": 4631,
  "bis": 4632,
  "\u2581High": 4633,
  "\u2581Sometimes": 4634,
  "\u2581agbalbaliw": 4635,
  "\u2581prophets": 4636,
  "\u2581victim": 4637,
  "my": 4638,
  "ox": 4639,
  "\u2581Look": 4640,
  "\u2581agdaldaliasat": 4641,
  "\u2581balasitang": 4642,
  "\u2581leksion": 4643,
  "\u2581occurred": 4644,
  "\u2581proyekto": 4645,
  "\u2581Exodo": 4646,
  "\u2581causing": 4647,
  "\u2581estoria": 4648,
  "\u2581makapainteres": 4649,
  "\u2581pagtaenganda": 4650,
  "imon": 4651,
  "\u2581Land": 4652,
  "\u2581forced": 4653,
  "\u2581seriously": 4654,
  "\u2581bodies": 4655,
  "\u2581friendship": 4656,
  "\u2581mature": 4657,
  "\u2581naindagaan": 4658,
  "\u2581struggle": 4659,
  "\u2581style": 4660,
  "gga": 4661,
  "\u2581Nigeria": 4662,
  "\u2581West": 4663,
  "\u2581evident": 4664,
  "\u2581ritual": 4665,
  "\u2581sovereignty": 4666,
  "\u2581store": 4667,
  "\u2581wen": 4668,
  "IC": 4669,
  "imtuod": 4670,
  "\u2581Govern": 4671,
  "\u2581Ze": 4672,
  "\u2581commanded": 4673,
  "pudno": 4674,
  "\u2581magazines": 4675,
  "\u2581Aniada": 4676,
  "\u2581Saludsod": 4677,
  "\u2581chief": 4678,
  "\u2581emotions": 4679,
  "\u2581sirmata": 4680,
  "\u2581Agingga": 4681,
  "\u2581makapabileg": 4682,
  "\u2581separate": 4683,
  "low": 4684,
  "\u2581easier": 4685,
  "\u2581mis": 4686,
  "\u2581pakasdaawan": 4687,
  "\u2581News": 4688,
  "\u2581maulit": 4689,
  "\u2581piesta": 4690,
  "\u2581offering": 4691,
  "\u2581panagibtur": 4692,
  "ino": 4693,
  "rie": 4694,
  "vis": 4695,
  "\u2581riches": 4696,
  "\u2581Galatians": 4697,
  "\u2581length": 4698,
  "\u2581facts": 4699,
  "\u2581napalalo": 4700,
  "\u2581Out": 4701,
  "\u2581anakmo": 4702,
  "\u2581highly": 4703,
  "\u2581maaw": 4704,
  "\u2581naipatarus": 4705,
  "\u2581offspring": 4706,
  "\u2581porma": 4707,
  "ela": 4708,
  "\u2581construction": 4709,
  "\u2581naannad": 4710,
  "\u2581naibaga": 4711,
  "\u2581pamiliak": 4712,
  "\u2581panggedan": 4713,
  "liwliwa": 4714,
  "\u2581Dis": 4715,
  "\u2581Pang": 4716,
  "\u2581TO": 4717,
  "\u2581describe": 4718,
  "\u2581pammatina": 4719,
  "\u2581pannakapnek": 4720,
  "\u2581ramanenna": 4721,
  "My": 4722,
  "pannakkel": 4723,
  "\u2581Think": 4724,
  "\u2581mabigbig": 4725,
  "\u2581trial": 4726,
  "\u2581writes": 4727,
  "\u2581En": 4728,
  "\u2581Faith": 4729,
  "\u2581asino": 4730,
  "\u2581buis": 4731,
  "\u2581evidently": 4732,
  "\u2581sirkito": 4733,
  "\u2581star": 4734,
  "\u2581Union": 4735,
  "\u2581arapaap": 4736,
  "\u2581komento": 4737,
  "\u2581masakit": 4738,
  "Ania": 4739,
  "\u2581Pranses": 4740,
  "\u2581bumusbusor": 4741,
  "\u2581concluded": 4742,
  "\u2581development": 4743,
  "\u2581governments": 4744,
  "\u2581nakaparsuaan": 4745,
  "\u2581patience": 4746,
  "\u2581ship": 4747,
  "\u2581worshipers": 4748,
  "dalus": 4749,
  "ier": 4750,
  "pukaw": 4751,
  "\u2581beneficial": 4752,
  "\u2581promote": 4753,
  "\u2581sad": 4754,
  "\u2581siled": 4755,
  "palubos": 4756,
  "\u2581Josue": 4757,
  "\u2581panamati": 4758,
  "\u2581tatangko": 4759,
  "ennanto": 4760,
  "\u2581Usigem": 4761,
  "\u2581confident": 4762,
  "\u2581cry": 4763,
  "\u2581decide": 4764,
  "\u2581invitation": 4765,
  "\u2581pursue": 4766,
  "\u2581sango": 4767,
  "\u2581below": 4768,
  "\u2581calm": 4769,
  "\u2581nine": 4770,
  "\u2581powers": 4771,
  "\u2581teaches": 4772,
  "\u2581telepono": 4773,
  "\u2581bond": 4774,
  "\u2581March": 4775,
  "\u2581Nasantuan": 4776,
  "\u2581lin": 4777,
  "\u2581pagkapuyan": 4778,
  "\u2581inna": 4779,
  "\u2581lakayko": 4780,
  "\u2581slaves": 4781,
  "\u2581strive": 4782,
  "\u2581Mapa": 4783,
  "\u2581impadto": 4784,
  "\u2581malipatan": 4785,
  "\u2581touch": 4786,
  "\u258132.": 4787,
  "\u2581National": 4788,
  "\u2581likewise": 4789,
  "kaw": 4790,
  "taray": 4791,
  "\u2581boys": 4792,
  "\u2581failure": 4793,
  "\u2581gistay": 4794,
  "\u2581leaves": 4795,
  "\u2581soil": 4796,
  "\u2581unayen": 4797,
  "\u2581waiting": 4798,
  "\u2581wall": 4799,
  "lot": 4800,
  "yad": 4801,
  "\u2581Abel": 4802,
  "\u2581Naragsak": 4803,
  "\u2581complex": 4804,
  "\u2581connection": 4805,
  "\u2581katulongan": 4806,
  "\u2581pannakaidadanes": 4807,
  "pho": 4808,
  "\u2581BABA": 4809,
  "\u2581Kasanot": 4810,
  "\u2581committed": 4811,
  "\u2581mabayag": 4812,
  "\u2581market": 4813,
  "\u2581pananggun": 4814,
  "rado": 4815,
  "\u2581Natay": 4816,
  "\u2581enemy": 4817,
  "\u2581translated": 4818,
  "responsibilities": 4819,
  "sungbat": 4820,
  "ungar": 4821,
  "\u2581Judea": 4822,
  "\u2581surprise": 4823,
  "\u2581Pla": 4824,
  "\u2581bautismo": 4825,
  "\u2581indicates": 4826,
  "\u2581kamali": 4827,
  "ham": 4828,
  "\u25813;": 4829,
  "\u2581culture": 4830,
  "\u2581dry": 4831,
  "\u2581imp": 4832,
  "\u2581pagayatanna": 4833,
  "\u2581pagpa": 4834,
  "\u2581pangrugian": 4835,
  "\u2581views": 4836,
  "70": 4837,
  "lon": 4838,
  "\u2581Makita": 4839,
  "\u2581Nagsayaat": 4840,
  "\u2581conflict": 4841,
  "\u2581ideas": 4842,
  "cho": 4843,
  "\u2581Dan": 4844,
  "\u2581inumen": 4845,
  "\u2581nasapa": 4846,
  "\u2581neighbors": 4847,
  "\u2581responded": 4848,
  "ped": 4849,
  "\u2581Chi": 4850,
  "\u2581demons": 4851,
  "\u2581entered": 4852,
  "\u2581napartak": 4853,
  "\u2581recognized": 4854,
  "\u2581Deuteronomio": 4855,
  "\u2581majority": 4856,
  "alla": 4857,
  "\u2581China": 4858,
  "\u2581Deuteronomy": 4859,
  "\u2581carrying": 4860,
  "\u2581inauna": 4861,
  "\u2581kualidad": 4862,
  "\u2581militar": 4863,
  "tel": 4864,
  "\u2581$1": 4865,
  "\u2581flow": 4866,
  "\u2581Ur": 4867,
  "\u2581makapnek": 4868,
  "\u2581negatibo": 4869,
  "\u2581table": 4870,
  "\u2581hatred": 4871,
  "\u2581peaceful": 4872,
  "awen": 4873,
  "kuna": 4874,
  "\u2581bisita": 4875,
  "\u2581habits": 4876,
  "\u2581mangusar": 4877,
  "\u2581nearby": 4878,
  "\u2581smoking": 4879,
  "luto": 4880,
  "ual": 4881,
  "\u2581determine": 4882,
  "\u2581entertainment": 4883,
  "\u2581mailasin": 4884,
  "\u2581model": 4885,
  "\u2581panagusar": 4886,
  "\u2581pattern": 4887,
  "\u2581pu": 4888,
  "\u2581researchers": 4889,
  "\u2581shared": 4890,
  "\u2581troubled": 4891,
  "gura": 4892,
  "\u2581Both": 4893,
  "\u2581joined": 4894,
  "\u2581kilo": 4895,
  "\u2581panangtulong": 4896,
  "\u2581stopped": 4897,
  "\u2581team": 4898,
  "ise": 4899,
  "nte": 4900,
  "uen": 4901,
  "uy": 4902,
  "\u2581covered": 4903,
  "\u2581depend": 4904,
  "\u2581pagbanagan": 4905,
  "\u2581sand": 4906,
  "\u2581subjects": 4907,
  "\u2581territory": 4908,
  "\u2581zeal": 4909,
  "ibaon": 4910,
  "\u2581bukel": 4911,
  "\u2581speed": 4912,
  "\u2581unable": 4913,
  "\u2581gatad": 4914,
  "\u2581narang": 4915,
  "\u25812001": 4916,
  "\u2581AG": 4917,
  "\u2581instruction": 4918,
  "\u2581napag": 4919,
  "uno": 4920,
  "\u2581grown": 4921,
  "\u2581naibasar": 4922,
  "\u2581narugit": 4923,
  "\u2581ngudo": 4924,
  "\u2581rin": 4925,
  "\u2581Colossians": 4926,
  "\u2581Learn": 4927,
  "\u2581brochure": 4928,
  "\u2581fo": 4929,
  "\u2581murder": 4930,
  "\u2581nalabaga": 4931,
  "\u25811,000": 4932,
  "\u2581immun": 4933,
  "\u2581mangsalaknib": 4934,
  "\u2581siuumiso": 4935,
  "nagan": 4936,
  "\u2581constantly": 4937,
  "\u2581mataginayon": 4938,
  "\u2581providing": 4939,
  "laban": 4940,
  "tarimaan": 4941,
  "\u2581Agbasbasa": 4942,
  "\u2581mangiturong": 4943,
  "\u2581north": 4944,
  "\u2581saanmo": 4945,
  "met": 4946,
  "\u2581Biblical": 4947,
  "\u2581amma": 4948,
  "\u2581bal": 4949,
  "\u2581broshur": 4950,
  "\u2581diet": 4951,
  "\u2581endeavor": 4952,
  "\u2581ikagkagumaan": 4953,
  "\u2581panangpapatay": 4954,
  "ladingit": 4955,
  "ou": 4956,
  "padpada": 4957,
  "peggad": 4958,
  "\u2581anamongan": 4959,
  "\u2581makipaset": 4960,
  "UR": 4961,
  "\u2581Pagyamanan": 4962,
  "\u2581Watching": 4963,
  "\u2581healthy": 4964,
  "\u2581nabara": 4965,
  "\u2581nagbalbaliw": 4966,
  "\u2581telling": 4967,
  "\u2581tudo": 4968,
  "cing": 4969,
  "\u258147": 4970,
  "\u2581agbibiag": 4971,
  "\u2581contrary": 4972,
  "\u2581heat": 4973,
  "\u2581immorality": 4974,
  "\u2581reveals": 4975,
  "din": 4976,
  "gr": 4977,
  "sara": 4978,
  "\u2581agaplikar": 4979,
  "\u2581kinapanglaw": 4980,
  "\u2581malapdan": 4981,
  "\u2581burden": 4982,
  "\u2581insight": 4983,
  "\u2581papa": 4984,
  "\u2581potential": 4985,
  "\u2581utang": 4986,
  "amiris": 4987,
  "dakami": 4988,
  "ette": 4989,
  "sisi": 4990,
  "ulong": 4991,
  "\u258120]": 4992,
  "\u2581closely": 4993,
  "\u2581Britain": 4994,
  "\u2581Marso": 4995,
  "\u2581Nakalkaldaang": 4996,
  "\u2581amana": 4997,
  "\u2581feed": 4998,
  "\u2581impagarup": 4999,
  "\u2581nainget": 5000,
  "\u2581naited": 5001,
  "\u2581sickness": 5002,
  "IT": 5003,
  "ming": 5004,
  "rad": 5005,
  "\u2581Dina": 5006,
  "\u2581agsakit": 5007,
  "\u2581panagteppel": 5008,
  "\u2581superior": 5009,
  "\u2581tanem": 5010,
  "\u2581teknolohia": 5011,
  "adaw": 5012,
  "bla": 5013,
  "\u2581Hav": 5014,
  "\u2581Michael": 5015,
  "\u2581medio": 5016,
  "\u2581napasaran": 5017,
  "\u2581refers": 5018,
  "uch": 5019,
  "\u2581gun": 5020,
  "\u2581ikeddeng": 5021,
  "\u2581industria": 5022,
  "\u2581makitkita": 5023,
  "\u2581napili": 5024,
  "\u2581pamiliami": 5025,
  "\u2581panangabuso": 5026,
  "\u2581Bueno": 5027,
  "\u2581sidadaan": 5028,
  "lim": 5029,
  "\u2581Eli": 5030,
  "\u2581conclude": 5031,
  "\u2581media": 5032,
  "\u2581panangusig": 5033,
  "\u2581pusoda": 5034,
  "\u2581soldiers": 5035,
  "\u2581tract": 5036,
  "irok": 5037,
  "paneknek": 5038,
  "\u2581dadaelen": 5039,
  "\u2581intultuloy": 5040,
  "\u2581paki": 5041,
  "\u2581rugrugi": 5042,
  "\u2581television": 5043,
  "\u2581united": 5044,
  "ulimek": 5045,
  "\u2581AWAKE": 5046,
  "\u2581Manag": 5047,
  "\u2581awis": 5048,
  "\u2581card": 5049,
  "\u2581managayat": 5050,
  "\u2581tagiragsaken": 5051,
  "\u2581approval": 5052,
  "\u2581ladingit": 5053,
  "\u2581naminsan": 5054,
  "\u2581riribuk": 5055,
  "ipatarus": 5056,
  "\u2581Fariseo": 5057,
  "\u2581agtartrabaho": 5058,
  "\u2581aramidna": 5059,
  "\u2581dealing": 5060,
  "\u2581lapayag": 5061,
  "\u2581panagrikna": 5062,
  "\u2581pointed": 5063,
  "paimbag": 5064,
  "saad": 5065,
  "\u2581location": 5066,
  "\u2581masigurado": 5067,
  "\u2581satisfaction": 5068,
  "\u2581simmangpet": 5069,
  "\u2581unana": 5070,
  "bain": 5071,
  "bro": 5072,
  "ons": 5073,
  "\u2581Kabayatanna": 5074,
  "\u2581Note": 5075,
  "\u2581naipasngay": 5076,
  "\u2581outstanding": 5077,
  "\u2581pagtrabahuan": 5078,
  "\u2581teoria": 5079,
  "ire": 5080,
  "\u2581February": 5081,
  "\u2581Pebrero": 5082,
  "\u2581chose": 5083,
  "\u2581increasing": 5084,
  "\u2581mangtignay": 5085,
  "\u2581stars": 5086,
  "tunos": 5087,
  "\u2581Va": 5088,
  "\u2581agkunkuna": 5089,
  "\u2581atmosphere": 5090,
  "\u2581joyful": 5091,
  "\u2581praying": 5092,
  "\u2581serye": 5093,
  "\u2581sinful": 5094,
  "bunga": 5095,
  "\u2581aksidente": 5096,
  "\u2581lower": 5097,
  "\u2581overseers": 5098,
  "\u2581sipapanunot": 5099,
  "\u2581tinulongan": 5100,
  "rt": 5101,
  "\u2581144,000": 5102,
  "\u2581released": 5103,
  "ker": 5104,
  "not": 5105,
  "tarus": 5106,
  "\u2581Report": 5107,
  "\u2581handle": 5108,
  "\u2581kum": 5109,
  "\u2581street": 5110,
  "\u2581Ku": 5111,
  "\u2581agbayag": 5112,
  "\u2581straight": 5113,
  "\u2581Christmas": 5114,
  "\u2581Has": 5115,
  "\u2581assured": 5116,
  "\u2581injustice": 5117,
  "\u2581nagdakkel": 5118,
  "\u2581receiving": 5119,
  "lugan": 5120,
  "\u2581AGRIING": 5121,
  "\u2581Ngamin": 5122,
  "\u2581kakabsattayo": 5123,
  "\u2581kasasaadda": 5124,
  "\u2581naemma": 5125,
  "\u2581pride": 5126,
  "\u25811950": 5127,
  "\u2581George": 5128,
  "\u2581Nobiembre": 5129,
  "\u2581Pam": 5130,
  "\u2581espirituna": 5131,
  "\u2581iyeg": 5132,
  "\u2581motibo": 5133,
  "\u2581nanangko": 5134,
  "\u2581sakripisio": 5135,
  "\u2581Nations": 5136,
  "\u2581agbalinto": 5137,
  "\u2581heed": 5138,
  "\u2581iyaplikar": 5139,
  "\u2581posibilidad": 5140,
  "\u2581timmaud": 5141,
  "\u2581useful": 5142,
  "Daytoy": 5143,
  "bba": 5144,
  "rop": 5145,
  "\u2581skills": 5146,
  "rugi": 5147,
  "zo": 5148,
  "\u2581aside": 5149,
  "\u2581aso": 5150,
  "\u2581function": 5151,
  "\u2581obtain": 5152,
  "\u2581require": 5153,
  "salaysay": 5154,
  "\u2581Aaron": 5155,
  "\u2581Imagine": 5156,
  "\u2581agawid": 5157,
  "\u2581paid": 5158,
  "20": 5159,
  "adayo": 5160,
  "\u2581kunkunana": 5161,
  "\u2581tiny": 5162,
  "5,000": 5163,
  "uro": 5164,
  "\u2581NO": 5165,
  "\u2581agtarigagay": 5166,
  "\u2581balance": 5167,
  "\u2581natda": 5168,
  "\u2581pasetna": 5169,
  "annak": 5170,
  "\u2581Ann": 5171,
  "\u2581HIV": 5172,
  "\u2581husbands": 5173,
  "ai": 5174,
  "ipanggep": 5175,
  "mento": 5176,
  "\u2581benneg": 5177,
  "\u2581kano": 5178,
  "\u2581kasapulanna": 5179,
  "\u2581manayon": 5180,
  "\u2581okupado": 5181,
  "KA": 5182,
  "kaasi": 5183,
  "pia": 5184,
  "\u2581Gal": 5185,
  "\u2581Luc": 5186,
  "\u2581NI": 5187,
  "\u2581Sara": 5188,
  "\u2581bagiyo": 5189,
  "\u2581dust": 5190,
  "\u2581gathered": 5191,
  "dor": 5192,
  "\u2581origin": 5193,
  "\u2581possess": 5194,
  "\u2581Could": 5195,
  "\u2581agtuturay": 5196,
  "\u2581dana": 5197,
  "\u2581lasting": 5198,
  "\u2581nakasagana": 5199,
  "\u2581sinu": 5200,
  "ns": 5201,
  "\u2581dear": 5202,
  "\u2581mannaki": 5203,
  "\u2581matagiragsak": 5204,
  "\u2581song": 5205,
  "fully": 5206,
  "\u2581grand": 5207,
  "\u2581narikut": 5208,
  "\u2581planeta": 5209,
  "\u2581probision": 5210,
  "kanta": 5211,
  "\u2581constant": 5212,
  "\u2581identify": 5213,
  "\u2581imm": 5214,
  "\u2581kampilan": 5215,
  "\u2581private": 5216,
  "\u2581project": 5217,
  "\u2581urbon": 5218,
  "\u2581famous": 5219,
  "\u2581panagsasao": 5220,
  "iwa": 5221,
  "\u2581Manarawidwid": 5222,
  "\u2581aspects": 5223,
  "\u2581directly": 5224,
  "\u2581imoralidad": 5225,
  "\u2581inana": 5226,
  "\u2581maibaga": 5227,
  "\u2581obligation": 5228,
  "sirib": 5229,
  "\u2581Gospel": 5230,
  "\u2581Sadiay": 5231,
  "\u2581makipag": 5232,
  "\u2581medicine": 5233,
  "\u2581nagun": 5234,
  "\u2581panangapresiar": 5235,
  "\u2581path": 5236,
  "\u2581products": 5237,
  "\u2581simmaganad": 5238,
  "\u2581taste": 5239,
  "\u2581trabahoda": 5240,
  "\u2581Pay": 5241,
  "\u2581Sungbat": 5242,
  "\u2581critical": 5243,
  "\u2581iyaadu": 5244,
  "\u2581pakai": 5245,
  "\u2581panagkita": 5246,
  "\u2581remarkable": 5247,
  "\u2581ebolusion": 5248,
  "\u2581exactly": 5249,
  "\u2581flood": 5250,
  "\u2581fruitage": 5251,
  "EM": 5252,
  "ray": 5253,
  "talaw": 5254,
  "\u2581Often": 5255,
  "\u2581afraid": 5256,
  "\u2581apparently": 5257,
  "\u2581scene": 5258,
  "\u2581succeed": 5259,
  "tugaw": 5260,
  "cur": 5261,
  "rid": 5262,
  "\u2581arise": 5263,
  "\u2581hate": 5264,
  "\u2581nailista": 5265,
  "\u2581saantay": 5266,
  "\u2581video": 5267,
  "\u2581November": 5268,
  "\u2581agyaman": 5269,
  "\u2581details": 5270,
  "\u2581factor": 5271,
  "\u2581largest": 5272,
  "\u2581umadani": 5273,
  "lio": 5274,
  "phe": 5275,
  "rate": 5276,
  "ruar": 5277,
  "\u2581balligi": 5278,
  "\u2581cast": 5279,
  "TH": 5280,
  "\u258119]": 5281,
  "\u2581nakitak": 5282,
  "\u2581panangilawlawag": 5283,
  "\u2581performed": 5284,
  "\u2581komunikasion": 5285,
  "\u2581sumarungkar": 5286,
  "buk": 5287,
  "\u2581directed": 5288,
  "\u2581nasa": 5289,
  "\u2581speaks": 5290,
  "riing": 5291,
  "\u2581balanced": 5292,
  "\u2581ipapaay": 5293,
  "\u2581pannakaurnosna": 5294,
  "pinta": 5295,
  "ss": 5296,
  "yawat": 5297,
  "\u2581Nakita": 5298,
  "\u2581arte": 5299,
  "\u2581bearing": 5300,
  "\u2581daan": 5301,
  "\u2581dress": 5302,
  "\u2581Agparang": 5303,
  "\u2581Amatayo": 5304,
  "\u2581Es": 5305,
  "\u2581YOU": 5306,
  "\u2581nakaay": 5307,
  "\u2581prophetic": 5308,
  "\u2581generally": 5309,
  "\u2581kasar": 5310,
  "\u2581station": 5311,
  "ekto": 5312,
  "nta": 5313,
  "\u2581150": 5314,
  "\u2581Dagus": 5315,
  "\u2581Lin": 5316,
  "\u2581daya": 5317,
  "\u2581feels": 5318,
  "\u2581impossible": 5319,
  "\u2581ur": 5320,
  "\u2581assist": 5321,
  "\u2581ended": 5322,
  "\u2581floor": 5323,
  "\u2581pick": 5324,
  "alagad": 5325,
  "tignay": 5326,
  "\u2581Ditay": 5327,
  "\u2581Han": 5328,
  "\u2581adulto": 5329,
  "\u2581agtaud": 5330,
  "\u2581mangbukel": 5331,
  "\u2581nangisit": 5332,
  "\u2581siam": 5333,
  "\u2581\u201c[": 5334,
  "yonto": 5335,
  "\u2581isardeng": 5336,
  "\u2581pada": 5337,
  "ben": 5338,
  "gari": 5339,
  "sag": 5340,
  "\u2581apart": 5341,
  "\u2581honest": 5342,
  "\u2581kabalio": 5343,
  "\u2581numbers": 5344,
  "bor": 5345,
  "lipat": 5346,
  "\u2581Ayat": 5347,
  "\u2581Heb": 5348,
  "\u2581habit": 5349,
  "\u2581naibalud": 5350,
  "\u2581panagbiagna": 5351,
  "ric": 5352,
  "\u2581compared": 5353,
  "\u2581nagbasol": 5354,
  "\u2581pal": 5355,
  "\u00fc": 5356,
  "\u2581Bas": 5357,
  "\u2581Tao": 5358,
  "\u2581gura": 5359,
  "\u2581igam": 5360,
  "\u2581laud": 5361,
  "\u2581nadungngo": 5362,
  "\u2581ru": 5363,
  "\u2581traditional": 5364,
  "\u2581listaan": 5365,
  "\u2581pinansial": 5366,
  "row": 5367,
  "takuat": 5368,
  "\u2581kinaagum": 5369,
  "\u2581paneknekan": 5370,
  "\u2581recalls": 5371,
  "\u2581saksi": 5372,
  "\u2581Italy": 5373,
  "\u2581Narigat": 5374,
  "\u2581agpanunot": 5375,
  "\u2581houses": 5376,
  "\u2581kuarto": 5377,
  "\u2581leads": 5378,
  "\u2581(1)": 5379,
  "\u25812002": 5380,
  "\u2581basbassit": 5381,
  "\u2581bird": 5382,
  "\u2581caught": 5383,
  "\u2581mannakabalin": 5384,
  "\u2581ministers": 5385,
  "\u2581opportunities": 5386,
  "\u2581suicide": 5387,
  "gargari": 5388,
  "ica": 5389,
  "\u2581marry": 5390,
  "bukel": 5391,
  "mag": 5392,
  "mas": 5393,
  "\u2581agpaut": 5394,
  "\u2581bright": 5395,
  "\u2581j": 5396,
  "\u2581marvelous": 5397,
  "\u2581papel": 5398,
  "\u2581salt": 5399,
  "\u2581tax": 5400,
  "\u2581treasure": 5401,
  "\u2581natataengan": 5402,
  "\u2581sought": 5403,
  "\u2581threat": 5404,
  "gre": 5405,
  "\u00f3": 5406,
  "\u2581Live": 5407,
  "\u2581granted": 5408,
  "\u2581symbol": 5409,
  "lib": 5410,
  "sair": 5411,
  "\u258175": 5412,
  "\u2581Ke": 5413,
  "\u2581appreciated": 5414,
  "\u2581clothing": 5415,
  "\u2581dream": 5416,
  "\u2581makabael": 5417,
  "\u2581nabayag": 5418,
  "\u2581rejected": 5419,
  "\u2581resulted": 5420,
  "\u2581Ministry": 5421,
  "\u2581Saanda": 5422,
  "\u2581anti": 5423,
  "\u2581calling": 5424,
  "\u2581daughters": 5425,
  "\u2581ki": 5426,
  "\u2581palso": 5427,
  "\u2581panawan": 5428,
  "\u2581significant": 5429,
  "\u2581won": 5430,
  "\u2581Itan": 5431,
  "\u2581identified": 5432,
  "\u2581indefinite": 5433,
  "\u2581nar": 5434,
  "\u2581natulnog": 5435,
  "\u2581stage": 5436,
  "\u2581winter": 5437,
  "pre": 5438,
  "rab": 5439,
  "sir": 5440,
  "turpos": 5441,
  "\u2581Paris": 5442,
  "\u2581abundance": 5443,
  "\u2581babbaket": 5444,
  "\u2581kakadua": 5445,
  "\u2581partner": 5446,
  "\u2581rules": 5447,
  "\u2581yes": 5448,
  "ee": 5449,
  "ging": 5450,
  "\u2581dedikasion": 5451,
  "\u2581expressions": 5452,
  "\u2581green": 5453,
  "\u2581kalgaw": 5454,
  "\u2581pagbalinenna": 5455,
  "\u2581terms": 5456,
  "taeng": 5457,
  "\u2581Napa": 5458,
  "\u2581kayattayo": 5459,
  "\u2581namag": 5460,
  "\u2581paglinglingayan": 5461,
  "\u2581puro": 5462,
  "\u2581uminum": 5463,
  "duma": 5464,
  "vel": 5465,
  "\u2581Visit": 5466,
  "\u2581copies": 5467,
  "\u2581imoral": 5468,
  "\u2581naglabas": 5469,
  "\u2581plan": 5470,
  "\u2581visitors": 5471,
  "patingga": 5472,
  "sus": 5473,
  "\u2581Grecia": 5474,
  "\u2581Sp": 5475,
  "\u2581dadakkelko": 5476,
  "\u2581delivered": 5477,
  "\u2581napaneknekan": 5478,
  "\u2581release": 5479,
  "\u2581suot": 5480,
  "tiliw": 5481,
  "\u2581disenio": 5482,
  "\u2581goodness": 5483,
  "\u2581gumatang": 5484,
  "\u2581nanangna": 5485,
  "\u2581replied": 5486,
  "\u2581spring": 5487,
  "\u2581upright": 5488,
  "dua": 5489,
  "laok": 5490,
  "\u25813]": 5491,
  "\u2581foundation": 5492,
  "\u2581gang": 5493,
  "\u2581kangatuan": 5494,
  "\u2581sarsarita": 5495,
  "berg": 5496,
  "ologist": 5497,
  "\u2581background": 5498,
  "\u2581mangaywan": 5499,
  "\u2581pusok": 5500,
  "\u2581witnessing": 5501,
  "atted": 5502,
  "idatag": 5503,
  "lawag": 5504,
  "\u2581Americano": 5505,
  "\u2581BIBLE": 5506,
  "\u2581Kings": 5507,
  "\u2581Peace": 5508,
  "\u2581buok": 5509,
  "\u2581kar": 5510,
  "\u2581pagsasaritaan": 5511,
  "\u2581Maitunos": 5512,
  "\u2581Mal": 5513,
  "\u2581clergy": 5514,
  "\u2581sukimaten": 5515,
  "\u2581wear": 5516,
  "$": 5517,
  "gay": 5518,
  "tipon": 5519,
  "\u2581Tar": 5520,
  "\u2581magmagna": 5521,
  "\u2581nasnasion": 5522,
  "\u2581pictures": 5523,
  "tes": 5524,
  "yun": 5525,
  "\u2581atiddog": 5526,
  "\u2581attendance": 5527,
  "\u2581instrumento": 5528,
  "\u2581maupay": 5529,
  "\u2581task": 5530,
  "\u2581wedding": 5531,
  "babalaw": 5532,
  "\u25811970": 5533,
  "\u2581abundant": 5534,
  "\u2581corrupt": 5535,
  "\u2581experts": 5536,
  "\u2581tr": 5537,
  "ants": 5538,
  "\u2581neutral": 5539,
  "ayab": 5540,
  "\u2581engage": 5541,
  "\u2581ice": 5542,
  "\u2581naipasdek": 5543,
  "\u2581scale": 5544,
  "\u2581waste": 5545,
  "\u2581Charles": 5546,
  "\u2581bisin": 5547,
  "\u2581claimed": 5548,
  "\u2581dumakkel": 5549,
  "\u2581establish": 5550,
  "\u2581indicated": 5551,
  "\u2581kapaut": 5552,
  "\u2581remove": 5553,
  "plano": 5554,
  "\u2581BIBLIA": 5555,
  "\u2581assistance": 5556,
  "\u2581internasional": 5557,
  "\u2581lying": 5558,
  "\u2581mine": 5559,
  "kel": 5560,
  "upay": 5561,
  "\u2581Itatta": 5562,
  "\u2581Naan": 5563,
  "\u2581aywanan": 5564,
  "\u2581impakaammo": 5565,
  "\u2581nalawa": 5566,
  "\u2581widow": 5567,
  "use": 5568,
  "\u2581Don": 5569,
  "\u2581Par": 5570,
  "\u2581Poland": 5571,
  "\u2581Shi": 5572,
  "\u2581trabahona": 5573,
  "ario": 5574,
  "\u2581nadutokan": 5575,
  "\u2581nairanta": 5576,
  "\u2581pagano": 5577,
  "\u2581broken": 5578,
  "\u2581equal": 5579,
  "\u2581simm": 5580,
  "\u2581suratna": 5581,
  "\u2581umakar": 5582,
  "cha": 5583,
  "\u2581fearing": 5584,
  "\u2581impalubos": 5585,
  "\u2581katupag": 5586,
  "\u2581maitulong": 5587,
  "\u2581mention": 5588,
  "\u2581rugi": 5589,
  "\u2581unusual": 5590,
  "Be": 5591,
  "dalan": 5592,
  "gutugot": 5593,
  "\u2581freely": 5594,
  "\u2581ikkaten": 5595,
  "\u2581preced": 5596,
  "\u2581throne": 5597,
  "bit": 5598,
  "\u25811945": 5599,
  "\u2581Panunotem": 5600,
  "\u2581awanton": 5601,
  "\u2581discern": 5602,
  "\u2581iramanna": 5603,
  "\u2581ruler": 5604,
  "agbalin": 5605,
  "talek": 5606,
  "\u258133:": 5607,
  "\u2581grave": 5608,
  "\u2581kap": 5609,
  "\u2581mild": 5610,
  "\u2581silver": 5611,
  "\u2581south": 5612,
  "\u2581surbey": 5613,
  "DIAY": 5614,
  "busbos": 5615,
  "\u2581billit": 5616,
  "\u2581diyo": 5617,
  "\u2581fault": 5618,
  "\u2581kinapintas": 5619,
  "\u2581pagduaduaan": 5620,
  "\u2581structure": 5621,
  "\u2581tri": 5622,
  "ali": 5623,
  "\u2581gatas": 5624,
  "\u2581kinatao": 5625,
  "\u2581matulonganna": 5626,
  "\u2581pirak": 5627,
  "\u2581suggest": 5628,
  "\u2581Makapainteres": 5629,
  "80": 5630,
  "utang": 5631,
  "\u2581cross": 5632,
  "\u2581inter": 5633,
  "\u2581relihiuso": 5634,
  "\u2581secure": 5635,
  "ates": 5636,
  "\u25811960": 5637,
  "\u25813,000": 5638,
  "\u2581Jordan": 5639,
  "\u2581Mor": 5640,
  "\u2581agin": 5641,
  "\u2581belong": 5642,
  "\u2581host": 5643,
  "\u2581kasasaadna": 5644,
  "\u2581persona": 5645,
  "\u2581surprised": 5646,
  "\u25811980": 5647,
  "\u2581Bur": 5648,
  "\u2581Lines": 5649,
  "\u2581alas": 5650,
  "\u2581ran": 5651,
  "\u2581simmaruno": 5652,
  "\u2581successfully": 5653,
  "kul": 5654,
  "\u2581Yo": 5655,
  "\u2581agsolsolo": 5656,
  "\u2581anag": 5657,
  "\u2581asamblea": 5658,
  "\u2581iron": 5659,
  "\u2581kitaenyo": 5660,
  "\u2581mangtarus": 5661,
  "\u2581mothers": 5662,
  "\u2581relates": 5663,
  "gin": 5664,
  "\u2581400": 5665,
  "\u2581Mainayon": 5666,
  "\u2581located": 5667,
  "\u2581medisina": 5668,
  "\u2581reduce": 5669,
  "eo": 5670,
  "yu": 5671,
  "\u2581Paulo": 5672,
  "\u2581Vatican": 5673,
  "\u2581kal": 5674,
  "\u2581kinamatalek": 5675,
  "\u2581stood": 5676,
  "\u2581talon": 5677,
  "ste": 5678,
  "\u25811919": 5679,
  "\u25814]": 5680,
  "\u2581Espa\u00f1a": 5681,
  "\u2581Maragsakan": 5682,
  "\u2581Spirit": 5683,
  "\u2581accident": 5684,
  "\u2581author": 5685,
  "\u2581kabambantayan": 5686,
  "\u2581mark": 5687,
  "\u2581pilien": 5688,
  "\u2581quit": 5689,
  "sayang": 5690,
  "\u2581Answer": 5691,
  "\u2581Ger": 5692,
  "\u2581Never": 5693,
  "\u2581loves": 5694,
  "\u2581makitatayo": 5695,
  "\u2581safety": 5696,
  "\u2581solid": 5697,
  "\u2581symptoms": 5698,
  "lum": 5699,
  "\u258153": 5700,
  "\u2581Ara": 5701,
  "\u2581emosion": 5702,
  "\u2581lengguahe": 5703,
  "\u2581mass": 5704,
  "busor": 5705,
  "padto": 5706,
  "tuan": 5707,
  "\u2581Need": 5708,
  "\u2581Trinidad": 5709,
  "\u2581aran": 5710,
  "\u2581commandments": 5711,
  "\u2581credit": 5712,
  "\u2581kabaelanda": 5713,
  "\u2581opposite": 5714,
  "\u2581reference": 5715,
  "\u2581services": 5716,
  "\u2581summer": 5717,
  "ipablaak": 5718,
  "\u2581Sadino": 5719,
  "\u2581applying": 5720,
  "\u2581career": 5721,
  "\u2581ruot": 5722,
  "bartek": 5723,
  "ragpat": 5724,
  "rambak": 5725,
  "tawid": 5726,
  "\u258125:": 5727,
  "\u2581Fo": 5728,
  "\u2581agus": 5729,
  "\u2581dila": 5730,
  "\u2581makagun": 5731,
  "\u2581methods": 5732,
  "\u2581walls": 5733,
  "dem": 5734,
  "nce": 5735,
  "\u2581Russian": 5736,
  "\u2581agreed": 5737,
  "\u2581familiar": 5738,
  "\u2581impablaak": 5739,
  "\u2581karina": 5740,
  "\u2581nakaaramid": 5741,
  "\u2581ribu": 5742,
  "\u2581numerous": 5743,
  "\u2581okan": 5744,
  "\u2581spouse": 5745,
  "yadal": 5746,
  "\u258111]": 5747,
  "\u2581Pre": 5748,
  "\u2581Regard": 5749,
  "\u2581herself": 5750,
  "\u2581itlog": 5751,
  "\u2581maisalakan": 5752,
  "\u2581mid": 5753,
  "\u2581range": 5754,
  "\u2581super": 5755,
  "Q": 5756,
  "diborsio": 5757,
  "\u2581hit": 5758,
  "\u2581keeps": 5759,
  "\u2581mabalinmo": 5760,
  "\u2581mangikeddeng": 5761,
  "\u2581physically": 5762,
  "\u2581primary": 5763,
  "\u2581stake": 5764,
  "\u2581arinunos": 5765,
  "\u2581beloved": 5766,
  "\u2581debt": 5767,
  "\u2581exposed": 5768,
  "\u2581kasumbangirna": 5769,
  "\u2581kurso": 5770,
  "\u2581nangtignay": 5771,
  "\u2581none": 5772,
  "\u2581petsa": 5773,
  "\u2581sees": 5774,
  "\u2581storm": 5775,
  "\u2581Daya": 5776,
  "\u2581Ireland": 5777,
  "\u2581couples": 5778,
  "\u2581mangilawlawag": 5779,
  "\u2581pat": 5780,
  "\u2581pusom": 5781,
  "italimeng": 5782,
  "nic": 5783,
  "\u2581kinasoberano": 5784,
  "\u2581natungpal": 5785,
  "\u2581painful": 5786,
  "\u2581pannakapaay": 5787,
  "panag": 5788,
  "raut": 5789,
  "\u2581Matt": 5790,
  "\u2581additional": 5791,
  "\u2581impadamag": 5792,
  "\u2581weak": 5793,
  "tag": 5794,
  "\u2581Je": 5795,
  "\u2581involve": 5796,
  "\u2581panagleddaang": 5797,
  "anus": 5798,
  "iwaragawag": 5799,
  "lasat": 5800,
  "tayab": 5801,
  "\u2581Adtoy": 5802,
  "\u2581agdayaw": 5803,
  "\u2581glad": 5804,
  "\u2581masalakniban": 5805,
  "\u2581naikeddeng": 5806,
  "iness": 5807,
  "itukon": 5808,
  "\u258172": 5809,
  "\u2581Eventually": 5810,
  "\u2581Panunotenyo": 5811,
  "\u2581Please": 5812,
  "\u2581dangers": 5813,
  "\u2581determinasion": 5814,
  "\u2581rights": 5815,
  "\u2581tulang": 5816,
  "DA": 5817,
  "\u2581Hindu": 5818,
  "\u2581Kinapudno": 5819,
  "\u2581acknowledge": 5820,
  "\u2581glorious": 5821,
  "\u2581mangar": 5822,
  "\u2581puma": 5823,
  "\u2581touched": 5824,
  "TO": 5825,
  "abuso": 5826,
  "bung": 5827,
  "form": 5828,
  "isalakan": 5829,
  "ngngeg": 5830,
  "\u2581Surely": 5831,
  "\u2581Whe": 5832,
  "\u2581middle": 5833,
  "\u2581mighty": 5834,
  "\u2581officials": 5835,
  "\u2581puon": 5836,
  "\u2581quick": 5837,
  "\u2581zealous": 5838,
  "awit": 5839,
  "\u2581agbalintayo": 5840,
  "\u2581masursurotayo": 5841,
  "latak": 5842,
  "yurnos": 5843,
  "\u00e3o": 5844,
  "\u2581NGA": 5845,
  "\u2581Teach": 5846,
  "\u2581agpili": 5847,
  "\u2581panangiladawan": 5848,
  "sanay": 5849,
  "\u258166": 5850,
  "\u2581Panawen": 5851,
  "\u2581inkagumaan": 5852,
  "\u2581iyebkas": 5853,
  "\u2581panangsurot": 5854,
  "\u2581scriptures": 5855,
  "All": 5856,
  "ability": 5857,
  "kina": 5858,
  "serra": 5859,
  "\u2581bless": 5860,
  "\u2581happens": 5861,
  "\u2581ipakaammo": 5862,
  "\u2581maikuna": 5863,
  "\u2581shape": 5864,
  "\u2581simbolo": 5865,
  "rim": 5866,
  "\u2581Manang": 5867,
  "\u2581Nakaskasdaaw": 5868,
  "\u2581communicate": 5869,
  "\u2581padasen": 5870,
  "\u2581panagrang": 5871,
  "bingay": 5872,
  "gad": 5873,
  "\u2581Testament": 5874,
  "\u2581Way": 5875,
  "\u2581gu": 5876,
  "\u2581kalikaguman": 5877,
  "\u2581madanagan": 5878,
  "\u2581plain": 5879,
  "\u2581traveled": 5880,
  "\u2581trono": 5881,
  "isuro": 5882,
  "wenno": 5883,
  "\u25811988": 5884,
  "\u25812]": 5885,
  "\u2581Nisan": 5886,
  "\u2581accompany": 5887,
  "\u2581artist": 5888,
  "\u2581balbalay": 5889,
  "\u2581ipapan": 5890,
  "\u2581pannakaupay": 5891,
  "\u2581satisfying": 5892,
  "langen": 5893,
  "\u2581Canaan": 5894,
  "\u2581biang": 5895,
  "\u2581natimbeng": 5896,
  "\u2581Diostayo": 5897,
  "\u2581Moscow": 5898,
  "\u2581OF": 5899,
  "\u2581Pulos": 5900,
  "\u2581apresiaren": 5901,
  "\u2581depekto": 5902,
  "\u2581maad": 5903,
  "\u2581refuse": 5904,
  "\u2581ri": 5905,
  "\u2581scholars": 5906,
  "\u2581visiting": 5907,
  "kali": 5908,
  "leg": 5909,
  "\u2581imana": 5910,
  "\u2581invite": 5911,
  "\u2581tuktukoyen": 5912,
  "\u2581walked": 5913,
  "\u2581disaster": 5914,
  "\u2581koriente": 5915,
  "\u2581makikadua": 5916,
  "\u2581milk": 5917,
  "\u2581principal": 5918,
  "\u2581suggestions": 5919,
  "bes": 5920,
  "burg": 5921,
  "\u2581Katolika": 5922,
  "\u2581nabigbig": 5923,
  "\u2581nasalun": 5924,
  "\u2581ukom": 5925,
  "\u2581verses": 5926,
  "nang": 5927,
  "\u2581Pharisees": 5928,
  "\u2581armies": 5929,
  "\u2581autor": 5930,
  "\u2581excellent": 5931,
  "\u2581nakalasat": 5932,
  "\u2581played": 5933,
  "\u2581professional": 5934,
  "organisar": 5935,
  "sarungkar": 5936,
  "\u25811914,": 5937,
  "\u2581agpatingga": 5938,
  "\u2581dandanin": 5939,
  "\u2581inyebkas": 5940,
  "\u2581kriminal": 5941,
  "\u2581matignay": 5942,
  "\u2581nagkararag": 5943,
  "\u2581turning": 5944,
  "salun": 5945,
  "\u2581Basaem": 5946,
  "\u2581Isursuro": 5947,
  "\u2581Japanese": 5948,
  "\u2581abandoned": 5949,
  "\u2581cares": 5950,
  "\u2581compare": 5951,
  "\u2581drive": 5952,
  "\u2581likudan": 5953,
  "\u2581ngipen": 5954,
  "kadagiti": 5955,
  "ummong": 5956,
  "uni": 5957,
  "yilustrar": 5958,
  "\u2581Give": 5959,
  "\u2581Pammati": 5960,
  "\u2581agmaymaysa": 5961,
  "\u2581coast": 5962,
  "\u2581maipasango": 5963,
  "\u2581occasions": 5964,
  "\u2581park": 5965,
  "\u2581scholar": 5966,
  "Pa": 5967,
  "\u2581Israelite": 5968,
  "\u2581Sadly": 5969,
  "\u2581add": 5970,
  "\u2581explanation": 5971,
  "\u2581kiddaw": 5972,
  "\u2581matarusan": 5973,
  "\u2581panangted": 5974,
  "\u2581sustain": 5975,
  "bot": 5976,
  "\u2581anakda": 5977,
  "\u2581dealings": 5978,
  "\u2581dinto": 5979,
  "\u2581farm": 5980,
  "\u2581interesting": 5981,
  "\u2581mabalinda": 5982,
  "\u2581makaparegta": 5983,
  "\u2581nagdumaan": 5984,
  "\u2581pagarupen": 5985,
  "\u2581pagassawaan": 5986,
  "ana": 5987,
  "andar": 5988,
  "\u2581119": 5989,
  "\u2581Isa": 5990,
  "\u2581bound": 5991,
  "\u2581dagidi": 5992,
  "\u2581dog": 5993,
  "\u2581inner": 5994,
  "\u2581nanang": 5995,
  "\u2581worshippers": 5996,
  "\u2581arranged": 5997,
  "\u2581asawam": 5998,
  "\u2581audience": 5999,
  "\u2581suddenly": 6000,
  "\u2581tender": 6001,
  "jo": 6002,
  "\u2581companions": 6003,
  "\u2581dwell": 6004,
  "\u2581gum": 6005,
  "\u2581ipagarup": 6006,
  "\u2581items": 6007,
  "\u2581panangipa": 6008,
  "\u2581remaining": 6009,
  "\u2581thanks": 6010,
  "\u2581Joel": 6011,
  "\u2581Krismas": 6012,
  "\u2581Maaramid": 6013,
  "\u2581catch": 6014,
  "\u2581cor": 6015,
  "\u2581limit": 6016,
  "\u2581serioso": 6017,
  "\u2581\u201c\u2018": 6018,
  "\u2581Dandani": 6019,
  "\u2581Religion": 6020,
  "\u2581Umiso": 6021,
  "\u2581ipangag": 6022,
  "\u2581patakder": 6023,
  "\u2581represent": 6024,
  "\u2581undeserved": 6025,
  "kiddaw": 6026,
  "yarig": 6027,
  "\u2581Naindaklan": 6028,
  "\u2581arms": 6029,
  "\u2581bukod": 6030,
  "\u2581illustrate": 6031,
  "\u2581impierno": 6032,
  "\u2581kindly": 6033,
  "\u2581lakay": 6034,
  "\u2581object": 6035,
  "\u2581ocean": 6036,
  "\u2581pen": 6037,
  "\u2581proof": 6038,
  "\u2581temporario": 6039,
  "\u2581tonelada": 6040,
  "\u25812003": 6041,
  "\u2581Tulong": 6042,
  "\u2581apostolna": 6043,
  "\u2581exists": 6044,
  "\u2581harmful": 6045,
  "\u2581makalasat": 6046,
  "\u2581napalabasen": 6047,
  "\u2581nasaksakbay": 6048,
  "\u2581panagbiahe": 6049,
  "\u2581promedio": 6050,
  "\u2581refer": 6051,
  "AW": 6052,
  "uring": 6053,
  "\u2581eager": 6054,
  "\u2581inhabited": 6055,
  "\u2581namin": 6056,
  "\u2581pagarup": 6057,
  "\u2581paltog": 6058,
  "\u2581rely": 6059,
  "\u2581sigud": 6060,
  "paadu": 6061,
  "pug": 6062,
  "\u2581Sunday": 6063,
  "\u2581appeal": 6064,
  "\u2581bangkay": 6065,
  "\u2581clothes": 6066,
  "\u2581figure": 6067,
  "\u2581gin": 6068,
  "\u2581karne": 6069,
  "\u2581lessons": 6070,
  "\u2581mangipapaay": 6071,
  "\u2581mapagungar": 6072,
  "\u2581naadal": 6073,
  "\u2581tangatang": 6074,
  "eria": 6075,
  "\u2581MA": 6076,
  "\u2581Makapa": 6077,
  "\u2581agannad": 6078,
  "\u2581prejudice": 6079,
  "\u2581relationships": 6080,
  "\u2581removed": 6081,
  "\u2581sapulen": 6082,
  "\u2581snow": 6083,
  "paregta": 6084,
  "\u2581mannalon": 6085,
  "\u2581refuge": 6086,
  "\u2581reign": 6087,
  "\u2581routine": 6088,
  "\u2581sold": 6089,
  "laing": 6090,
  "lista": 6091,
  "ological": 6092,
  "\u2581Min": 6093,
  "\u2581bull": 6094,
  "\u2581custom": 6095,
  "\u2581entitled": 6096,
  "\u2581nadlaw": 6097,
  "\u2581speaker": 6098,
  "takder": 6099,
  "\u2581angry": 6100,
  "\u2581kaikarian": 6101,
  "\u2581listened": 6102,
  "\u2581panangikasaba": 6103,
  "\u2581sititibker": 6104,
  "\u2581strengthened": 6105,
  "bautisar": 6106,
  "\u2581greed": 6107,
  "\u2581hardly": 6108,
  "\u2581kinaulbod": 6109,
  "\u2581nagsagaba": 6110,
  "\u2581nasingpet": 6111,
  "\u2581northern": 6112,
  "ome": 6113,
  "\u2581begins": 6114,
  "\u2581conviction": 6115,
  "\u2581faithfully": 6116,
  "\u2581imposible": 6117,
  "\u2581limitado": 6118,
  "\u2581napauluan": 6119,
  "\u2581pleasant": 6120,
  "\u2581proseso": 6121,
  "\u2581siaannad": 6122,
  "komento": 6123,
  "\u2581Mari": 6124,
  "\u2581Mosaic": 6125,
  "\u2581Sermon": 6126,
  "\u2581Service": 6127,
  "\u2581extra": 6128,
  "\u258124]": 6129,
  "\u2581allows": 6130,
  "\u2581assembly": 6131,
  "\u2581healing": 6132,
  "\u2581kasanot": 6133,
  "\u2581memory": 6134,
  "\u2581nagtaudan": 6135,
  "\u2581torture": 6136,
  "\u2581Agpayso": 6137,
  "\u2581Up": 6138,
  "\u2581armas": 6139,
  "\u2581bagyo": 6140,
  "\u2581doctrine": 6141,
  "\u2581kabesera": 6142,
  "\u2581numero": 6143,
  "\u2581portion": 6144,
  "\u2581tons": 6145,
  "allatiw": 6146,
  "alsa": 6147,
  "\u2581Likewise": 6148,
  "\u2581Says": 6149,
  "\u2581assawada": 6150,
  "\u2581conscious": 6151,
  "\u2581contain": 6152,
  "\u2581reaching": 6153,
  "\u2581Truth": 6154,
  "\u2581baket": 6155,
  "\u2581distrito": 6156,
  "\u2581intense": 6157,
  "\u2581luma": 6158,
  "\u2581pannakabagi": 6159,
  "\u2581sekular": 6160,
  "\u2581wickedness": 6161,
  "\u2581disorder": 6162,
  "\u2581fat": 6163,
  "\u2581weapons": 6164,
  "TA": 6165,
  "ez": 6166,
  "\u2581Amos": 6167,
  "\u2581awanto": 6168,
  "\u2581bo": 6169,
  "\u2581estado": 6170,
  "\u2581kape": 6171,
  "\u2581rimmang": 6172,
  "guyugoy": 6173,
  "\u258152": 6174,
  "\u2581Pharaoh": 6175,
  "\u2581agkedked": 6176,
  "\u2581comment": 6177,
  "\u2581limitasion": 6178,
  "\u2581render": 6179,
  "\u2581riknak": 6180,
  "\u2581sat": 6181,
  "\u2581trans": 6182,
  "Di": 6183,
  "How": 6184,
  "\u2581bigat": 6185,
  "\u2581considering": 6186,
  "\u2581grain": 6187,
  "\u2581insungbat": 6188,
  "\u2581reminded": 6189,
  "\u2581Faraon": 6190,
  "\u2581Fe": 6191,
  "\u2581Protestant": 6192,
  "\u2581koman": 6193,
  "\u2581signs": 6194,
  "\u2581tawid": 6195,
  "basol": 6196,
  "light": 6197,
  "\u2581consult": 6198,
  "\u2581finished": 6199,
  "\u2581makitada": 6200,
  "\u2581noticed": 6201,
  "\u2581panagsigarilio": 6202,
  "\u2581ugma": 6203,
  "ched": 6204,
  "gal": 6205,
  "serbi": 6206,
  "\u2581bank": 6207,
  "\u2581differ": 6208,
  "\u2581iy": 6209,
  "\u2581kapartak": 6210,
  "\u2581viewpoint": 6211,
  "ilia": 6212,
  "saludsod": 6213,
  "\u2581(2)": 6214,
  "\u2581accomplished": 6215,
  "\u2581nakarkaro": 6216,
  "\u2581reject": 6217,
  "lung": 6218,
  "regget": 6219,
  "surat": 6220,
  "tem": 6221,
  "\u2581Name": 6222,
  "\u2581agsursuro": 6223,
  "\u2581ears": 6224,
  "\u2581serves": 6225,
  "aba": 6226,
  "\u2581Dad": 6227,
  "\u2581anakko": 6228,
  "\u2581conducted": 6229,
  "\u2581difficulties": 6230,
  "\u2581mabasatayo": 6231,
  "\u2581resources": 6232,
  "\u2581sing": 6233,
  "\u2581sulisog": 6234,
  "\u2581usarenda": 6235,
  "wer": 6236,
  "\u2581attempt": 6237,
  "\u2581evolution": 6238,
  "\u2581flee": 6239,
  "\u2581kabangibang": 6240,
  "\u2581lu": 6241,
  "\u2581mistakes": 6242,
  "\u2581pannakausar": 6243,
  "dag": 6244,
  "end": 6245,
  "isu": 6246,
  "nakayo": 6247,
  "papatay": 6248,
  "\u2581Espiritu": 6249,
  "\u2581moon": 6250,
  "\u2581plans": 6251,
  "\u2581properly": 6252,
  "\u2581weather": 6253,
  "tos": 6254,
  "\u2581fresh": 6255,
  "\u2581permit": 6256,
  "bibiag": 6257,
  "\u2581Mannakabalin": 6258,
  "\u2581Thessalonians": 6259,
  "\u2581datayo": 6260,
  "\u2581district": 6261,
  "\u2581fuel": 6262,
  "\u2581gradually": 6263,
  "\u2581kinaagtutubo": 6264,
  "\u2581surgery": 6265,
  "\u2581Maikadua": 6266,
  "\u2581Ver": 6267,
  "\u2581advance": 6268,
  "\u2581annakmi": 6269,
  "\u2581carbon": 6270,
  "\u2581nasin": 6271,
  "\u2581sisasagana": 6272,
  "They": 6273,
  "\u258151": 6274,
  "\u2581Study": 6275,
  "\u2581agayat": 6276,
  "\u2581dimmakkel": 6277,
  "\u2581literally": 6278,
  "\u2581tuleng": 6279,
  "pis": 6280,
  "\u2581attacks": 6281,
  "\u2581laid": 6282,
  "\u2581souls": 6283,
  "\u2581traffic": 6284,
  "akar": 6285,
  "dom": 6286,
  "pampanunot": 6287,
  "\u2581agsa": 6288,
  "\u2581anxious": 6289,
  "\u2581basura": 6290,
  "\u2581dwelling": 6291,
  "\u2581lovers": 6292,
  "\u2581pannakadangran": 6293,
  "\u2581spot": 6294,
  "15": 6295,
  "reklamo": 6296,
  "\u2581aglaplapusanan": 6297,
  "\u2581grass": 6298,
  "\u2581naawatan": 6299,
  "\u2581nababbaba": 6300,
  "\u2581pagnaedan": 6301,
  "\u2581rinugian": 6302,
  "mor": 6303,
  "natay": 6304,
  "\u2581Western": 6305,
  "\u2581iyad": 6306,
  "\u2581makitana": 6307,
  "\u2581rum": 6308,
  "kitikit": 6309,
  "ress": 6310,
  "\u2581agsi": 6311,
  "\u2581heartfelt": 6312,
  "\u2581naregta": 6313,
  "\u2581offers": 6314,
  "\u2581running": 6315,
  "\u2581selfish": 6316,
  "Dikay": 6317,
  "ets": 6318,
  "\u2581Babylonian": 6319,
  "\u2581Trinity": 6320,
  "\u2581drop": 6321,
  "\u2581harsh": 6322,
  "\u2581nadayag": 6323,
  "\u2581naituding": 6324,
  "\u2581pannagna": 6325,
  "\u2581siraragsak": 6326,
  "danag": 6327,
  "ngato": 6328,
  "til": 6329,
  "\u2581WHAT": 6330,
  "\u2581annakko": 6331,
  "\u2581ayatna": 6332,
  "\u2581boat": 6333,
  "\u2581brief": 6334,
  "\u2581cat": 6335,
  "\u2581height": 6336,
  "\u2581panaginum": 6337,
  "\u2581por": 6338,
  "\u2581saritaan": 6339,
  "kal": 6340,
  "kap": 6341,
  "pul": 6342,
  "\u2581mabalinna": 6343,
  "yeg": 6344,
  "\u258149": 6345,
  "\u2581Muslim": 6346,
  "\u2581anus": 6347,
  "\u2581nayanak": 6348,
  "\u2581pakawanen": 6349,
  "\u2581sky": 6350,
  "\u2581writings": 6351,
  "LA": 6352,
  "ipaay": 6353,
  "lemmeng": 6354,
  "\u2015": 6355,
  "\u258114]": 6356,
  "\u25812004": 6357,
  "\u2581Ps": 6358,
  "\u2581aramidda": 6359,
  "\u2581nabasa": 6360,
  "\u2581pannaturog": 6361,
  "\u2581pleased": 6362,
  "\u2581requirements": 6363,
  "\u2581schedule": 6364,
  "\u2581wipe": 6365,
  "cro": 6366,
  "\u2581firmly": 6367,
  "\u2581kalding": 6368,
  "\u2581mangnamnama": 6369,
  "ilako": 6370,
  "\u2581Armageddon": 6371,
  "\u2581anymore": 6372,
  "\u2581claims": 6373,
  "\u2581desert": 6374,
  "\u2581nagballigi": 6375,
  "\u2581prominent": 6376,
  "\u2581sukog": 6377,
  "\u2581Nabayag": 6378,
  "\u2581alert": 6379,
  "\u2581makarikna": 6380,
  "\u2581pammadayaw": 6381,
  "\u2581patauden": 6382,
  "pes": 6383,
  "sala": 6384,
  "\u2581Court": 6385,
  "\u2581agsasao": 6386,
  "\u2581cup": 6387,
  "\u2581masungbatan": 6388,
  "\u2581pinadas": 6389,
  "\u2581press": 6390,
  "\u2581sports": 6391,
  "danon": 6392,
  "oli": 6393,
  "sangpet": 6394,
  "sok": 6395,
  "\u2581Layus": 6396,
  "\u2581provisions": 6397,
  "\u2581reasoning": 6398,
  "\u2581tent": 6399,
  "likud": 6400,
  "\u2581bara": 6401,
  "\u2581broke": 6402,
  "\u2581bulong": 6403,
  "\u2581comforting": 6404,
  "bagi": 6405,
  "\u2581ANIA": 6406,
  "\u2581Gre": 6407,
  "\u2581Persia": 6408,
  "\u2581ear": 6409,
  "\u2581ir": 6410,
  "\u2581nabati": 6411,
  "\u2581nakasarak": 6412,
  "\u2581pannakapukaw": 6413,
  "\u2581types": 6414,
  "lab": 6415,
  "\u2581Armagedon": 6416,
  "\u2581duma": 6417,
  "\u2581panagkuna": 6418,
  "\u2581temperature": 6419,
  "For": 6420,
  "\u2581Henry": 6421,
  "\u2581blow": 6422,
  "\u2581fields": 6423,
  "\u2581flowers": 6424,
  "\u2581maiparbeng": 6425,
  "\u2581paglaingan": 6426,
  "\u2581root": 6427,
  ",000,000": 6428,
  "apresiar": 6429,
  "ipamaysa": 6430,
  "\u2581Greece": 6431,
  "\u2581Sam": 6432,
  "\u2581agpapada": 6433,
  "\u2581frequently": 6434,
  "\u2581impakitana": 6435,
  "\u2581kalakian": 6436,
  "\u2581mapasaran": 6437,
  "\u2581nangipakita": 6438,
  "\u2581panagballigi": 6439,
  "agas": 6440,
  "right": 6441,
  "sukir": 6442,
  "ts": 6443,
  "\u2581Grand": 6444,
  "\u2581Sinai": 6445,
  "\u2581ammom": 6446,
  "\u2581nagtrabaho": 6447,
  "\u2581naragsakan": 6448,
  "\u2581native": 6449,
  "ibus": 6450,
  "kalap": 6451,
  "los": 6452,
  "maka": 6453,
  "ww": 6454,
  "\u2581agpegpeggad": 6455,
  "\u2581padada": 6456,
  "\u2581panagduadua": 6457,
  "\u2581privileges": 6458,
  "sagana": 6459,
  "\u2581Ditoy": 6460,
  "\u2581aspect": 6461,
  "\u2581innala": 6462,
  "\u2581operasion": 6463,
  "\u2581sirok": 6464,
  "ians": 6465,
  "mate": 6466,
  "sakup": 6467,
  "\u2581Come": 6468,
  "\u2581daldalan": 6469,
  "\u2581dedikado": 6470,
  "\u2581flight": 6471,
  "\u2581historian": 6472,
  "\u2581instructions": 6473,
  "\u2581looks": 6474,
  "\u2581nagtignay": 6475,
  "\u2581southern": 6476,
  "of": 6477,
  "\u2581annakmo": 6478,
  "\u2581fundamental": 6479,
  "\u2581grasp": 6480,
  "\u2581hormone": 6481,
  "\u2581pelikula": 6482,
  "\u2581ub": 6483,
  "ET": 6484,
  "kamat": 6485,
  "rikus": 6486,
  "take": 6487,
  "\u2581agsapul": 6488,
  "\u2581bulsek": 6489,
  "\u2581drama": 6490,
  "\u2581ikararag": 6491,
  "\u2581win": 6492,
  "iah": 6493,
  "\u2581Orthodox": 6494,
  "\u2581agsasaruno": 6495,
  "\u2581ayatenna": 6496,
  "\u2581customs": 6497,
  "\u2581deeds": 6498,
  "\u2581islands": 6499,
  "\u2581relations": 6500,
  "\u2581sintoma": 6501,
  "rason": 6502,
  "\u2581Aldaw": 6503,
  "\u2581Protestante": 6504,
  "\u2581Tawen": 6505,
  "\u2581affairs": 6506,
  "\u2581heads": 6507,
  "\u2581nasaem": 6508,
  "\u2581struck": 6509,
  "han": 6510,
  "rak": 6511,
  "\u2581Libro": 6512,
  "\u2581cap": 6513,
  "\u2581gets": 6514,
  "\u2581itden": 6515,
  "\u2581maam": 6516,
  "\u2581mariknak": 6517,
  "\u2581nanumo": 6518,
  "\u2581pounds": 6519,
  "\u2581reaction": 6520,
  "\u2581aged": 6521,
  "\u2581lam": 6522,
  "\u2581panangibaga": 6523,
  "\u2581payen": 6524,
  "nos": 6525,
  "\u2581Almighty": 6526,
  "\u2581Buyog": 6527,
  "\u2581Diosmo": 6528,
  "\u2581Kar": 6529,
  "\u2581abandon": 6530,
  "\u2581immawat": 6531,
  "\u2581infant": 6532,
  "\u2581kabsatna": 6533,
  "inget": 6534,
  "\u2581Him": 6535,
  "\u2581konklusion": 6536,
  "\u2581niebe": 6537,
  "\u2581pilosopia": 6538,
  "\u2581spite": 6539,
  "ification": 6540,
  "yalison": 6541,
  "\u2581Encyclopedia": 6542,
  "\u2581History": 6543,
  "\u2581Pat": 6544,
  "\u2581completed": 6545,
  "\u2581cur": 6546,
  "\u2581impact": 6547,
  "\u2581introduced": 6548,
  "\u2581pader": 6549,
  "\u2581suggests": 6550,
  "\u2581ulep": 6551,
  "\u2581umas": 6552,
  "As": 6553,
  "alis": 6554,
  "\u2581dutdot": 6555,
  "\u2581nagaramid": 6556,
  "\u2581possibly": 6557,
  "\u2581repair": 6558,
  "\u2581sueldo": 6559,
  "\u2581threatened": 6560,
  "\u258140:": 6561,
  "\u2581Prayer": 6562,
  "\u2581Within": 6563,
  "\u2581agsurat": 6564,
  "\u2581ideal": 6565,
  "\u2581iladawan": 6566,
  "\u2581images": 6567,
  "\u2581makadadael": 6568,
  "\u2581meditate": 6569,
  "\u2581mildness": 6570,
  "\u2581naipadto": 6571,
  "\u2581nawaya": 6572,
  "\u2581proud": 6573,
  "with": 6574,
  "\u2581Bill": 6575,
  "\u2581Em": 6576,
  "\u2581Nangnangruna": 6577,
  "\u2581Win": 6578,
  "\u2581base": 6579,
  "\u2581bomba": 6580,
  "\u2581commission": 6581,
  "\u2581fighting": 6582,
  "\u2581involving": 6583,
  "\u2581lion": 6584,
  "\u2581minuyongan": 6585,
  "\u2581pinanawan": 6586,
  "\u2581relihioso": 6587,
  "\u2581technology": 6588,
  "\u2581telephone": 6589,
  "siput": 6590,
  "\u2581agtawenak": 6591,
  "\u2581block": 6592,
  "\u2581concentration": 6593,
  "\u2581current": 6594,
  "\u2581ideya": 6595,
  "\u2581innocent": 6596,
  "\u2581lake": 6597,
  "\u2581restored": 6598,
  "\u2581tiendaan": 6599,
  "\u2581wilderness": 6600,
  "dek": 6601,
  "ily": 6602,
  "sub": 6603,
  "\u2581Kaaduanna": 6604,
  "\u2581Men": 6605,
  "\u2581panangawat": 6606,
  "\u2581Early": 6607,
  "\u2581Korea": 6608,
  "\u2581[2": 6609,
  "\u2581awag": 6610,
  "\u2581bagbagiyo": 6611,
  "\u2581sigarilio": 6612,
  "AB": 6613,
  "bilang": 6614,
  "eta": 6615,
  "ipaganetget": 6616,
  "turog": 6617,
  "uff": 6618,
  "will": 6619,
  "\u2581agbasbasa": 6620,
  "\u2581celebration": 6621,
  "\u2581provision": 6622,
  "\u2581shell": 6623,
  "\u2581umadu": 6624,
  "\u2581usarenna": 6625,
  "Z": 6626,
  "balay": 6627,
  "tokar": 6628,
  "\u2581100,000": 6629,
  "\u2581Agpa": 6630,
  "\u2581Che": 6631,
  "\u2581Jonas": 6632,
  "\u2581finish": 6633,
  "\u2581fornication": 6634,
  "\u2581games": 6635,
  "\u2581kabaelantayo": 6636,
  "\u2581naawis": 6637,
  "\u2581nagbalinda": 6638,
  "\u2581naipaay": 6639,
  "\u2581pagi": 6640,
  "\u2581resolve": 6641,
  "\u2581tobacco": 6642,
  "\u2581union": 6643,
  "\u2581wondered": 6644,
  "aruno": 6645,
  "gundaway": 6646,
  "\u2581Agnanayon": 6647,
  "\u2581Sabbath": 6648,
  "\u2581inaramidda": 6649,
  "\u2581influenced": 6650,
  "\u2581kangrunaanna": 6651,
  "\u2581maiparit": 6652,
  "\u2581napagungar": 6653,
  "\u2581paregtaen": 6654,
  "\u2581repeatedly": 6655,
  "igaga": 6656,
  "sik": 6657,
  "\u2581attitudes": 6658,
  "\u2581dadakkelda": 6659,
  "\u2581inggana": 6660,
  "\u2581kinamanag": 6661,
  "\u2581kualipikado": 6662,
  "\u2581makitam": 6663,
  "\u2581reflected": 6664,
  "\u2581spirituality": 6665,
  "\u2581standard": 6666,
  "ctor": 6667,
  "dakes": 6668,
  "gak": 6669,
  "ideklara": 6670,
  "\u2581Kitaen": 6671,
  "\u2581dignity": 6672,
  "\u2581enerhia": 6673,
  "\u2581horse": 6674,
  "\u2581inkararag": 6675,
  "\u2581kaaddana": 6676,
  "\u2581kinadalus": 6677,
  "\u2581reap": 6678,
  "\u2581rendered": 6679,
  "batad": 6680,
  "kari": 6681,
  "\u2581Laglagipenyo": 6682,
  "\u2581concerns": 6683,
  "\u2581dokumento": 6684,
  "\u2581holding": 6685,
  "\u2581kasuratan": 6686,
  "\u2581maibatay": 6687,
  "\u2581pagtaenganyo": 6688,
  "\u2581sarming": 6689,
  "\u2581shoulder": 6690,
  "\u2581Sarah": 6691,
  "\u2581agrag": 6692,
  "\u2581awat": 6693,
  "\u2581hardin": 6694,
  "\u2581imbilang": 6695,
  "\u2581mabalintay": 6696,
  "\u2581naasawaan": 6697,
  "\u2581panagtalinaed": 6698,
  "\u2581panangbasa": 6699,
  "\u2581propesor": 6700,
  "pil": 6701,
  "\u2581Kada": 6702,
  "\u2581commit": 6703,
  "\u2581forests": 6704,
  "\u2581iyaay": 6705,
  "\u2581journal": 6706,
  "ipalgak": 6707,
  "lus": 6708,
  "nyo": 6709,
  "\u2581120": 6710,
  "\u258156": 6711,
  "\u2581Austria": 6712,
  "\u2581Mosaiko": 6713,
  "\u2581Nanipud": 6714,
  "\u2581addaak": 6715,
  "\u2581nagpatingga": 6716,
  "\u2581pribado": 6717,
  "\u2581vow": 6718,
  "\u2581campaign": 6719,
  "\u2581invisible": 6720,
  "\u2581pieces": 6721,
  "\u2581warns": 6722,
  "akseptar": 6723,
  "ammo": 6724,
  "ization": 6725,
  "naig": 6726,
  "saknap": 6727,
  "taltal": 6728,
  "\u2581Nagpa": 6729,
  "\u2581apektaranna": 6730,
  "\u2581facing": 6731,
  "\u2581kakabsatna": 6732,
  "\u2581managdaydayaw": 6733,
  "\u2581maturog": 6734,
  "\u2581naikari": 6735,
  "\u2581ngatuen": 6736,
  "\u2581pangulo": 6737,
  "\u2581previous": 6738,
  "\u2581systems": 6739,
  "\u2581worthy": 6740,
  "\u2581yield": 6741,
  "cor": 6742,
  "teg": 6743,
  "\u25811930": 6744,
  "\u2581Jonah": 6745,
  "\u2581Panggep": 6746,
  "\u2581blue": 6747,
  "\u2581buildings": 6748,
  "\u2581depressed": 6749,
  "\u2581maapektaran": 6750,
  "\u2581panagbabawi": 6751,
  "\u2581stories": 6752,
  "\u2581sursurat": 6753,
  "\u2581writers": 6754,
  "Nag": 6755,
  "Ta": 6756,
  "ibelleng": 6757,
  "pli": 6758,
  "\u2581Philip": 6759,
  "\u2581concept": 6760,
  "\u2581kinaimperpekto": 6761,
  "\u2581paniempo": 6762,
  "\u2581qualified": 6763,
  "\u2581section": 6764,
  "\u2581visits": 6765,
  "imbag": 6766,
  "sut": 6767,
  "\u2581Nalaka": 6768,
  "\u2581SONGS": 6769,
  "\u2581Translation": 6770,
  "\u2581lamisaan": 6771,
  "\u2581panamarsua": 6772,
  "\u2581readers": 6773,
  "\u2581rebellion": 6774,
  "\u2581sientipiko": 6775,
  "\u2581strike": 6776,
  "\u2581tribes": 6777,
  "head": 6778,
  "\u2581attain": 6779,
  "\u2581bimm": 6780,
  "\u2581charge": 6781,
  "\u2581commercial": 6782,
  "\u2581ignore": 6783,
  "\u2581naipadamag": 6784,
  "isaknap": 6785,
  "labsing": 6786,
  "pabasol": 6787,
  "pakumbaba": 6788,
  "\u2581Cesar": 6789,
  "\u2581KANTA": 6790,
  "\u2581Upon": 6791,
  "\u2581demonstrated": 6792,
  "\u2581depth": 6793,
  "\u2581readily": 6794,
  "cc": 6795,
  "lawlaw": 6796,
  "rap": 6797,
  "\u2581Paskua": 6798,
  "\u2581bitter": 6799,
  "\u2581dying": 6800,
  "\u2581route": 6801,
  "\u2581streets": 6802,
  "ave": 6803,
  "board": 6804,
  "ennak": 6805,
  "\u258110,000": 6806,
  "\u2581Gentil": 6807,
  "\u2581Shortly": 6808,
  "\u2581features": 6809,
  "\u2581iny": 6810,
  "\u2581iparangarang": 6811,
  "\u2581kadagidi": 6812,
  "\u2581laglagipen": 6813,
  "\u2581larger": 6814,
  "\u2581nuklear": 6815,
  "\u2581roof": 6816,
  "depensa": 6817,
  "spect": 6818,
  "\u2581End": 6819,
  "\u2581agbabawi": 6820,
  "\u2581cure": 6821,
  "\u2581mangpaneknek": 6822,
  "\u2581nagsao": 6823,
  "\u2581operation": 6824,
  "\u2581sangagasut": 6825,
  "\u2581supposed": 6826,
  "\u2581typical": 6827,
  "\u2581widely": 6828,
  "gon": 6829,
  "pak": 6830,
  "pakdaar": 6831,
  "\u2581Death": 6832,
  "\u2581Star": 6833,
  "\u2581amazing": 6834,
  "\u2581approached": 6835,
  "\u2581grief": 6836,
  "\u2581guarantee": 6837,
  "\u2581retrato": 6838,
  "\u2581stream": 6839,
  "\u2581sufficient": 6840,
  "\u2581tagtagiragsaken": 6841,
  "Jesus": 6842,
  "giddan": 6843,
  "mba": 6844,
  "\u2581burning": 6845,
  "\u2581leon": 6846,
  "\u2581rulership": 6847,
  "\u2581sell": 6848,
  "\u2581watching": 6849,
  "sarsarita": 6850,
  "\u258122;": 6851,
  "\u2581ED": 6852,
  "\u2581International": 6853,
  "\u2581Kinakristiano": 6854,
  "\u2581Tiempo": 6855,
  "\u2581civil": 6856,
  "\u2581lines": 6857,
  "\u2581motivated": 6858,
  "\u2581nairekord": 6859,
  "\u2581panangituray": 6860,
  "\u2581parapo": 6861,
  "\u2581prisoners": 6862,
  "\u2581replaced": 6863,
  "anamong": 6864,
  "talna": 6865,
  "\u2581Domingo": 6866,
  "\u2581Kangrunaan": 6867,
  "\u2581Right": 6868,
  "\u2581Second": 6869,
  "\u2581basolna": 6870,
  "\u2581description": 6871,
  "\u2581miracles": 6872,
  "\u2581otherwise": 6873,
  "\u2581passing": 6874,
  "\u2581ark": 6875,
  "\u2581asawak": 6876,
  "\u2581bakteria": 6877,
  "\u2581climb": 6878,
  "\u2581convey": 6879,
  "\u2581dinadael": 6880,
  "\u2581disc": 6881,
  "\u2581fourth": 6882,
  "\u2581maparmek": 6883,
  "\u2581nuclear": 6884,
  "\u2581pinarsua": 6885,
  "\u2581schools": 6886,
  "gpakamatay": 6887,
  "konto": 6888,
  "tz": 6889,
  "\u2581Agyamanak": 6890,
  "\u2581Besides": 6891,
  "\u2581Kadawyan": 6892,
  "\u2581Makaparagsak": 6893,
  "\u2581naku": 6894,
  "\u2581pakabigbigan": 6895,
  "\u2581recall": 6896,
  "aries": 6897,
  "dro": 6898,
  "kto": 6899,
  "\u2581Map": 6900,
  "\u2581inlawlawagna": 6901,
  "\u2581midst": 6902,
  "\u2581nababa": 6903,
  "\u2581nakedngan": 6904,
  "\u2581napaay": 6905,
  "\u2581naparsua": 6906,
  "\u2581predict": 6907,
  "\u2581resulting": 6908,
  "\u2581supported": 6909,
  "\u2581title": 6910,
  "lasin": 6911,
  "shed": 6912,
  "\u2581Ber": 6913,
  "\u2581Flood": 6914,
  "\u2581Frank": 6915,
  "\u2581IDI": 6916,
  "\u2581Ve": 6917,
  "\u2581afterward": 6918,
  "\u2581diborsio": 6919,
  "\u2581insalaysay": 6920,
  "\u2581intedna": 6921,
  "\u2581panangadal": 6922,
  "\u2581parable": 6923,
  "\u2581royal": 6924,
  "\u2581suggested": 6925,
  "\u2581theme": 6926,
  "gue": 6927,
  "\u2581Web": 6928,
  "\u2581differences": 6929,
  "\u2581doliar": 6930,
  "\u2581mannanakaw": 6931,
  "\u2581nagnaed": 6932,
  "\u2581plate": 6933,
  "\u2581reputation": 6934,
  "\u2581review": 6935,
  "\u2581submit": 6936,
  "era": 6937,
  "mek": 6938,
  "stand": 6939,
  "tura": 6940,
  "\u2581Maya": 6941,
  "\u2581Pentecost": 6942,
  "\u2581Spiritual": 6943,
  "\u2581asin": 6944,
  "\u2581deaf": 6945,
  "\u2581load": 6946,
  "\u2581meat": 6947,
  "\u2581mile": 6948,
  "\u2581naipasango": 6949,
  "\u2581pannakakita": 6950,
  "\u2581playing": 6951,
  "\u2581sitting": 6952,
  "andur": 6953,
  "ipa": 6954,
  "pungtot": 6955,
  "rant": 6956,
  "sigurado": 6957,
  "ulation": 6958,
  "\u2581Naki": 6959,
  "\u2581deaths": 6960,
  "\u2581exile": 6961,
  "\u2581killing": 6962,
  "\u2581kinaanus": 6963,
  "\u2581manuskrito": 6964,
  "\u2581nagkedked": 6965,
  "\u2581punishment": 6966,
  "\u2581rob": 6967,
  "\u2581tatang": 6968,
  "RO": 6969,
  "apa": 6970,
  "kappia": 6971,
  "ngina": 6972,
  "takaw": 6973,
  "\u2581190": 6974,
  "\u2581Kadagitoy": 6975,
  "\u2581error": 6976,
  "\u2581instruksion": 6977,
  "\u2581paying": 6978,
  "\u2581regret": 6979,
  "\u2581shed": 6980,
  "\u2581tinagiragsak": 6981,
  "\u2581twice": 6982,
  "ias": 6983,
  "ikalintegan": 6984,
  "itandudo": 6985,
  "ji": 6986,
  "sakripisio": 6987,
  "\u2581ammoyo": 6988,
  "\u2581apartment": 6989,
  "\u2581elepante": 6990,
  "\u2581empty": 6991,
  "\u2581everywhere": 6992,
  "\u2581tests": 6993,
  "liklik": 6994,
  "pasiar": 6995,
  "win": 6996,
  "\u2581Explain": 6997,
  "\u2581access": 6998,
  "\u2581dinamag": 6999,
  "\u2581feature": 7000,
  "\u2581insaludsod": 7001,
  "\u2581maala": 7002,
  "\u2581newly": 7003,
  "\u2581panangsukimat": 7004,
  "\u2581pinarsuana": 7005,
  "\u2581remnant": 7006,
  "\u2581KAS": 7007,
  "\u2581companion": 7008,
  "\u2581kinaubing": 7009,
  "\u2581movement": 7010,
  "\u2581mulmula": 7011,
  "\u2581naibaon": 7012,
  "\u2581quiet": 7013,
  "\u2581sentence": 7014,
  "agduadua": 7015,
  "matalek": 7016,
  "rist": 7017,
  "salungasing": 7018,
  "\u2581Karayan": 7019,
  "\u2581production": 7020,
  "\u2581sake": 7021,
  "\u2581tear": 7022,
  "\u2581tradition": 7023,
  "\u2581tulonganna": 7024,
  "\u2581Micah": 7025,
  "\u2581bulkan": 7026,
  "\u2581maammuantayo": 7027,
  "\u2581pangngaasiyo": 7028,
  "\u2581paragraph": 7029,
  "\u2581property": 7030,
  "\u2581proverb": 7031,
  "\u2581rulers": 7032,
  "\u2581sursuruen": 7033,
  "\u2581temperatura": 7034,
  "nation": 7035,
  "\u25811940": 7036,
  "\u2581Real": 7037,
  "\u2581anakyo": 7038,
  "\u2581bit": 7039,
  "\u2581childhood": 7040,
  "\u2581distant": 7041,
  "\u2581exert": 7042,
  "\u2581kinds": 7043,
  "\u2581kiniddaw": 7044,
  "\u2581linawas": 7045,
  "\u2581method": 7046,
  "Kas": 7047,
  "apit": 7048,
  "\u2581Mangi": 7049,
  "\u2581agsardeng": 7050,
  "\u2581annual": 7051,
  "\u2581discernment": 7052,
  "\u2581glass": 7053,
  "\u2581industry": 7054,
  "\u2581karera": 7055,
  "\u2581napuskol": 7056,
  "\u2581nataenganen": 7057,
  "\u2581songs": 7058,
  "ilasin": 7059,
  "\u2581binasa": 7060,
  "\u2581piguratibo": 7061,
  "\u2581sangaili": 7062,
  "\u2581taginayonen": 7063,
  "\u2581tropical": 7064,
  "\u2581witnesses": 7065,
  "PA": 7066,
  "net": 7067,
  "other": 7068,
  "regreg": 7069,
  "\u2581Mikias": 7070,
  "\u2581acted": 7071,
  "\u2581hall": 7072,
  "\u2581inanama": 7073,
  "\u2581inikkanna": 7074,
  "\u2581panangdadael": 7075,
  "\u2581seeds": 7076,
  "\u2581simamatalek": 7077,
  "\u2581widespread": 7078,
  "eksamen": 7079,
  "iyeg": 7080,
  "tinnag": 7081,
  "\u2581Kenya": 7082,
  "\u2581gathering": 7083,
  "\u2581ig": 7084,
  "\u2581kinamanangaasi": 7085,
  "\u2581marked": 7086,
  "\u2581pammagbaga": 7087,
  "\u2581pressures": 7088,
  "\u2581tured": 7089,
  "ilibak": 7090,
  "\u2581Care": 7091,
  "\u2581Catholics": 7092,
  "\u2581Ubbing": 7093,
  "\u2581balayna": 7094,
  "\u2581flu": 7095,
  "\u2581isolated": 7096,
  "\u2581meek": 7097,
  "\u2581naipamaysa": 7098,
  "\u2581observes": 7099,
  "\u2581shepherds": 7100,
  "\u2581sumurot": 7101,
  "\u2581worry": 7102,
  "alun": 7103,
  "bab": 7104,
  "\u2581bomb": 7105,
  "\u2581isaludsod": 7106,
  "\u2581ought": 7107,
  "\u2581square": 7108,
  "balikas": 7109,
  "ranggas": 7110,
  "tory": 7111,
  "\u2581Naammuan": 7112,
  "\u2581admitted": 7113,
  "\u2581agtugaw": 7114,
  "\u2581beast": 7115,
  "\u2581gratitude": 7116,
  "\u2581impression": 7117,
  "\u2581kallabes": 7118,
  "\u2581matmatay": 7119,
  "\u2581paglintegan": 7120,
  "ipagarup": 7121,
  "supiat": 7122,
  "\u2581aleng": 7123,
  "\u2581infected": 7124,
  "\u2581kakaduana": 7125,
  "\u2581modest": 7126,
  "\u2581survived": 7127,
  "\u2581adultery": 7128,
  "\u2581corruption": 7129,
  "\u2581creature": 7130,
  "\u2581denggen": 7131,
  "\u2581pangi": 7132,
  "\u2581tolda": 7133,
  "ade": 7134,
  "adipen": 7135,
  "kes": 7136,
  "ks": 7137,
  "over": 7138,
  "\u2581Simon": 7139,
  "\u2581Sovereign": 7140,
  "\u2581Sweden": 7141,
  "\u2581camps": 7142,
  "\u2581kaykayo": 7143,
  "\u2581levels": 7144,
  "\u2581mamin": 7145,
  "\u2581napaliiw": 7146,
  "\u2581tawa": 7147,
  "\u2581thereafter": 7148,
  "\u2581van": 7149,
  "iparit": 7150,
  "kamang": 7151,
  "\u2581Old": 7152,
  "\u2581WHO": 7153,
  "\u2581blame": 7154,
  "\u2581chapters": 7155,
  "\u2581defend": 7156,
  "\u2581endured": 7157,
  "\u2581kinaemma": 7158,
  "\u2581napapateg": 7159,
  "alip": 7160,
  "asikaso": 7161,
  "\u2581Following": 7162,
  "\u2581aim": 7163,
  "\u2581board": 7164,
  "\u2581dusa": 7165,
  "\u2581employment": 7166,
  "\u2581maipagarup": 7167,
  "\u2581mairaman": 7168,
  "\u2581malaria": 7169,
  "\u2581merciful": 7170,
  "\u2581naulpit": 7171,
  "\u2581panagkasapulan": 7172,
  "\u2581terrible": 7173,
  "great": 7174,
  "idulin": 7175,
  "\u2581Science": 7176,
  "\u2581acid": 7177,
  "\u2581climate": 7178,
  "\u2581contained": 7179,
  "\u2581historical": 7180,
  "\u2581kosta": 7181,
  "\u2581lua": 7182,
  "\u2581manggun": 7183,
  "\u2581naalas": 7184,
  "\u2581naipakita": 7185,
  "\u2581preserve": 7186,
  "\u2581umap": 7187,
  "gayyem": 7188,
  "papa": 7189,
  "\u2581Mont": 7190,
  "\u2581Naikari": 7191,
  "\u2581changing": 7192,
  "\u2581citizens": 7193,
  "\u2581cool": 7194,
  "\u2581defense": 7195,
  "\u2581gagayyemko": 7196,
  "\u2581ipasimudaag": 7197,
  "\u2581kaugalian": 7198,
  "\u2581naisina": 7199,
  "\u2581pagsayaatan": 7200,
  "\u2581panangiturong": 7201,
  "\u2581profound": 7202,
  "\u2581thankful": 7203,
  "layag": 7204,
  "ore": 7205,
  "trato": 7206,
  "yaplikar": 7207,
  "\u2581Pannaki": 7208,
  "\u2581berde": 7209,
  "\u2581contract": 7210,
  "\u2581conventions": 7211,
  "\u2581gather": 7212,
  "\u2581kaykayat": 7213,
  "\u2581maikapat": 7214,
  "\u2581nangrugin": 7215,
  "ID": 7216,
  "itampok": 7217,
  "\u2581determination": 7218,
  "\u2581enjoying": 7219,
  "\u2581kontra": 7220,
  "\u2581kumarkaro": 7221,
  "\u2581maisubli": 7222,
  "\u2581moves": 7223,
  "\u2581nagpintas": 7224,
  "\u2581sinned": 7225,
  "gl": 7226,
  "\u2581Kayatna": 7227,
  "\u2581burned": 7228,
  "\u2581katutubo": 7229,
  "\u2581ketdin": 7230,
  "\u2581makilangen": 7231,
  "\u2581negosiante": 7232,
  "\u2581prefer": 7233,
  "\u2581scar": 7234,
  "\u2581victory": 7235,
  "ele": 7236,
  "sel": 7237,
  "\u2581Dinakamat": 7238,
  "\u2581Fear": 7239,
  "\u2581addaantayo": 7240,
  "\u2581declare": 7241,
  "\u2581ethnic": 7242,
  "\u2581mano": 7243,
  "\u2581nagi": 7244,
  "\u2581naibangon": 7245,
  "\u2581nay": 7246,
  "\u2581pakabuklan": 7247,
  "\u2581pannakaaramid": 7248,
  "bre": 7249,
  "impluensia": 7250,
  "tomar": 7251,
  "\u2581agsapsapul": 7252,
  "\u2581arrested": 7253,
  "\u2581kinakillo": 7254,
  "\u2581naikkan": 7255,
  "\u2581physician": 7256,
  "\u2581piece": 7257,
  "\u2581sungbatan": 7258,
  "dar": 7259,
  "\u2581Use": 7260,
  "\u2581Val": 7261,
  "\u2581except": 7262,
  "\u2581kg": 7263,
  "\u2581lumasat": 7264,
  "\u2581makagteng": 7265,
  "\u2581nagannakda": 7266,
  "\u2581pabor": 7267,
  "\u2581rimmuar": 7268,
  "dedikar": 7269,
  "tibker": 7270,
  "\u258129:": 7271,
  "\u2581Russell": 7272,
  "\u2581abilities": 7273,
  "\u2581pornograpia": 7274,
  "\u2581silent": 7275,
  "bael": 7276,
  "coming": 7277,
  "pigsa": 7278,
  "\u2581Italian": 7279,
  "\u2581Netherlands": 7280,
  "\u2581Recall": 7281,
  "\u2581Relihion": 7282,
  "\u2581divided": 7283,
  "\u2581gagayyemna": 7284,
  "\u2581ministeriona": 7285,
  "\u2581nagbaliw": 7286,
  "\u2581nest": 7287,
  "\u2581situtured": 7288,
  "riri": 7289,
  "rukod": 7290,
  "\u2581Agpada": 7291,
  "\u2581Siak": 7292,
  "\u2581cm": 7293,
  "\u2581dimma": 7294,
  "\u2581eksena": 7295,
  "\u2581incident": 7296,
  "\u2581intuloy": 7297,
  "\u2581losing": 7298,
  "\u2581pannakiabig": 7299,
  "\u2581reliable": 7300,
  "\u2581seat": 7301,
  "\u2581sibaballigi": 7302,
  "Keep": 7303,
  "dusa": 7304,
  "\u2581FOR": 7305,
  "\u2581acting": 7306,
  "\u2581begotten": 7307,
  "\u2581double": 7308,
  "\u2581insects": 7309,
  "\u2581naganak": 7310,
  "\u2581panangallilaw": 7311,
  "\u2581saanka": 7312,
  "\u2581saem": 7313,
  "unget": 7314,
  "\u2581California": 7315,
  "\u2581Chinese": 7316,
  "\u2581Imbagana": 7317,
  "\u2581Papa": 7318,
  "\u2581Ph": 7319,
  "\u2581RE": 7320,
  "\u2581elements": 7321,
  "\u2581exercising": 7322,
  "\u2581extended": 7323,
  "\u2581managbuteng": 7324,
  "\u2581map": 7325,
  "\u2581naammuanna": 7326,
  "\u2581nasdaaw": 7327,
  "\u2581printed": 7328,
  "\u2581unless": 7329,
  "dra": 7330,
  "kedked": 7331,
  "porma": 7332,
  "sur": 7333,
  "van": 7334,
  "\u2581Hapones": 7335,
  "\u2581Know": 7336,
  "\u2581Kristianidad": 7337,
  "\u2581mangala": 7338,
  "\u2581nagusar": 7339,
  "\u2581nainkasigudan": 7340,
  "\u2581nalamiis": 7341,
  "\u2581onto": 7342,
  "\u2581spirits": 7343,
  "\u2581stones": 7344,
  "\u2581visible": 7345,
  "bista": 7346,
  "libas": 7347,
  "\u2581Inaramid": 7348,
  "\u2581Messianic": 7349,
  "\u2581kababalinda": 7350,
  "\u2581natayen": 7351,
  "\u2581parke": 7352,
  "\u2581participate": 7353,
  "\u2581pollution": 7354,
  "\u2581turns": 7355,
  "\u2581worldly": 7356,
  "idanon": 7357,
  "\u2581afternoon": 7358,
  "\u2581atmospera": 7359,
  "\u2581ayatda": 7360,
  "\u2581ibagana": 7361,
  "aluadan": 7362,
  "\u2581Nehemiah": 7363,
  "\u2581east": 7364,
  "\u2581loud": 7365,
  "urnos": 7366,
  "vin": 7367,
  "\u2581600": 7368,
  "\u2581Concern": 7369,
  "\u2581agtaeng": 7370,
  "\u2581encourages": 7371,
  "\u2581focused": 7372,
  "\u2581itultuloytayo": 7373,
  "\u2581naikkat": 7374,
  "\u2581outcome": 7375,
  "\u2581ramut": 7376,
  "\u2581spending": 7377,
  "pha": 7378,
  "ven": 7379,
  "wo": 7380,
  "\u2581Tallo": 7381,
  "\u2581detect": 7382,
  "\u2581gained": 7383,
  "\u2581katrabahuan": 7384,
  "\u2581nabasak": 7385,
  "\u2581nurse": 7386,
  "\u2581obtained": 7387,
  "NO": 7388,
  "ennatayo": 7389,
  "lem": 7390,
  "\u2581admits": 7391,
  "\u2581agpatulong": 7392,
  "\u2581balayda": 7393,
  "\u2581inheritance": 7394,
  "\u2581makontrol": 7395,
  "\u2581obispo": 7396,
  "\u2581odda": 7397,
  "\u2581ordered": 7398,
  "\u2581sources": 7399,
  "\u2581theory": 7400,
  "mus": 7401,
  "\u2581BE": 7402,
  "\u2581Masarakan": 7403,
  "\u2581Nehemias": 7404,
  "\u2581Sangapulo": 7405,
  "\u2581Viewpoint": 7406,
  "\u2581brotherhood": 7407,
  "\u2581fruits": 7408,
  "\u2581maited": 7409,
  "\u2581mikrobio": 7410,
  "\u2581nakillo": 7411,
  "\u2581primarily": 7412,
  "\u2581producing": 7413,
  "\u2581sobra": 7414,
  "dikto": 7415,
  "ited": 7416,
  "kalikagum": 7417,
  "read": 7418,
  "\u2581Hor": 7419,
  "\u2581Promised": 7420,
  "\u2581agreement": 7421,
  "\u2581asks": 7422,
  "\u2581central": 7423,
  "\u2581mangbalbaliw": 7424,
  "\u2581mangparmek": 7425,
  "\u2581residents": 7426,
  "\u2581stayed": 7427,
  "sangit": 7428,
  "\u2581Back": 7429,
  "\u2581agbanag": 7430,
  "\u2581ayup": 7431,
  "\u2581dan": 7432,
  "\u2581driving": 7433,
  "\u2581ensure": 7434,
  "\u2581indagadag": 7435,
  "\u2581landok": 7436,
  "\u2581pannakiraman": 7437,
  "\u2581salsaludsod": 7438,
  "To": 7439,
  "ulbod": 7440,
  "\u2581Ammok": 7441,
  "\u2581Damag": 7442,
  "\u2581Mr": 7443,
  "\u2581nangibaga": 7444,
  "\u2581permanent": 7445,
  "meg": 7446,
  "\u2581Students": 7447,
  "\u2581awisen": 7448,
  "\u2581meaningful": 7449,
  "\u2581missing": 7450,
  "\u2581prevail": 7451,
  "\u2581temporary": 7452,
  "\u2581wholesome": 7453,
  "ency": 7454,
  "ngudo": 7455,
  "parnuay": 7456,
  "puor": 7457,
  "\u2581Awanen": 7458,
  "\u2581Hope": 7459,
  "\u2581Tri": 7460,
  "\u2581balbaliwan": 7461,
  "\u2581director": 7462,
  "\u2581naammuak": 7463,
  "\u2581pannakigayyem": 7464,
  "\u2581professor": 7465,
  "\u2581regta": 7466,
  "\u2581represented": 7467,
  "\u2581tatangna": 7468,
  "annurot": 7469,
  "ose": 7470,
  "\u2581Pentecostes": 7471,
  "\u2581belongs": 7472,
  "\u2581cycle": 7473,
  "\u2581panangrugi": 7474,
  "\u2581product": 7475,
  "\u2581rinugianna": 7476,
  "\u2581salimetmetan": 7477,
  "baw": 7478,
  "utok": 7479,
  "\u2581Gideon": 7480,
  "\u2581KEN": 7481,
  "\u2581Table": 7482,
  "\u2581breast": 7483,
  "\u2581finds": 7484,
  "\u2581inawagan": 7485,
  "\u2581pakalaglagipan": 7486,
  "\u2581panangraut": 7487,
  "\u2581suma": 7488,
  "\u2581uleg": 7489,
  "lv": 7490,
  "\u2581Nathan": 7491,
  "\u2581associate": 7492,
  "\u2581emotionally": 7493,
  "\u2581ep": 7494,
  "\u2581kapada": 7495,
  "\u2581match": 7496,
  "\u2581narrow": 7497,
  "\u2581Ya": 7498,
  "\u2581beat": 7499,
  "\u2581ju": 7500,
  "\u2581nangina": 7501,
  "\u2581nawadwad": 7502,
  "\u2581objective": 7503,
  "\u2581sangapamiliaan": 7504,
  "\u2581throw": 7505,
  "atake": 7506,
  "dition": 7507,
  "\u2581Ly": 7508,
  "\u2581agtungpal": 7509,
  "\u2581arrangements": 7510,
  "\u2581capable": 7511,
  "\u2581code": 7512,
  "\u2581cruel": 7513,
  "\u2581dumakdakkel": 7514,
  "\u2581ipangpangruna": 7515,
  "\u2581malem": 7516,
  "\u2581mangikkat": 7517,
  "\u2581permanente": 7518,
  "\u2581plague": 7519,
  "\u2581raising": 7520,
  "\u2581substance": 7521,
  "asan": 7522,
  "\u2581Living": 7523,
  "\u2581afford": 7524,
  "\u2581burn": 7525,
  "\u2581motor": 7526,
  "\u2581nangasaba": 7527,
  "\u2581papatayen": 7528,
  "\u2581tired": 7529,
  "disso": 7530,
  "pannakidangadang": 7531,
  "stro": 7532,
  "\u2581Columbia": 7533,
  "\u2581Estudiante": 7534,
  "\u2581condemn": 7535,
  "\u2581eggs": 7536,
  "\u2581exchange": 7537,
  "\u2581film": 7538,
  "\u2581jobs": 7539,
  "\u2581nakapag": 7540,
  "\u2581napudot": 7541,
  "\u2581pabuya": 7542,
  "\u2581tower": 7543,
  "\u2581ul": 7544,
  "Dika": 7545,
  "ties": 7546,
  "\u2581depends": 7547,
  "\u2581devoted": 7548,
  "\u2581maag": 7549,
  "\u2581sha": 7550,
  "\u2581ships": 7551,
  "deskribir": 7552,
  "olohia": 7553,
  "singsing": 7554,
  "tent": 7555,
  "\u2581Professor": 7556,
  "\u2581agdesision": 7557,
  "\u2581demand": 7558,
  "\u2581diding": 7559,
  "\u2581dinutokan": 7560,
  "\u2581drawing": 7561,
  "\u2581fears": 7562,
  "\u2581happening": 7563,
  "\u2581imperio": 7564,
  "\u2581kumurang": 7565,
  "\u2581lift": 7566,
  "\u2581natignay": 7567,
  "\u2581panangyaplikar": 7568,
  "\u2581theocratic": 7569,
  "kasar": 7570,
  "tulad": 7571,
  "wing": 7572,
  "\u2581Granted": 7573,
  "\u2581agbiahe": 7574,
  "\u2581commonly": 7575,
  "\u2581empleado": 7576,
  "\u2581extensive": 7577,
  "\u2581fathers": 7578,
  "\u2581letra": 7579,
  "\u2581mangilasin": 7580,
  "\u2581naipan": 7581,
  "\u2581panangsanay": 7582,
  "\u2581pannakarikna": 7583,
  "\u2581pinataud": 7584,
  "\u2581reside": 7585,
  "\u2581track": 7586,
  "iw": 7587,
  "ssi": 7588,
  "\u00e1n": 7589,
  "\u2581Agtultuloy": 7590,
  "\u2581Naisangsangayan": 7591,
  "\u2581Tulag": 7592,
  "\u2581demonio": 7593,
  "\u2581inyimtuod": 7594,
  "\u2581ipalgak": 7595,
  "\u2581naibilang": 7596,
  "\u2581repentant": 7597,
  "biag": 7598,
  "ctic": 7599,
  "gtubo": 7600,
  "ibasar": 7601,
  "puso": 7602,
  "stone": 7603,
  "\u258135:": 7604,
  "\u2581Diagram": 7605,
  "\u2581Nasaysayaat": 7606,
  "\u2581agresulta": 7607,
  "\u2581displayed": 7608,
  "\u2581fishing": 7609,
  "\u2581inform": 7610,
  "\u2581makasursuro": 7611,
  "\u2581medikal": 7612,
  "\u2581nakitada": 7613,
  "\u2581pagbiag": 7614,
  "\u2581pagdaksan": 7615,
  "\u2581panangammo": 7616,
  "\u2581relasiontayo": 7617,
  "\u2581feeding": 7618,
  "\u2581mold": 7619,
  "\u2581naalumamay": 7620,
  "\u2581nailadawan": 7621,
  "\u2581relasionda": 7622,
  "\u2581Lake": 7623,
  "\u2581banko": 7624,
  "\u2581condemned": 7625,
  "\u2581guilt": 7626,
  "\u2581mapnek": 7627,
  "\u2581programs": 7628,
  "\u2581protected": 7629,
  "\u2581ramanen": 7630,
  "\u2581safeguard": 7631,
  "\u2581subjection": 7632,
  "\u2581surrounded": 7633,
  "hood": 7634,
  "ient": 7635,
  "lisi": 7636,
  "pangpang": 7637,
  "pennek": 7638,
  "\u2581Albert": 7639,
  "\u2581Chronicles": 7640,
  "\u2581Happy": 7641,
  "\u2581Heart": 7642,
  "\u2581Kaipapanan": 7643,
  "\u2581Naragsakan": 7644,
  "\u2581adopted": 7645,
  "\u2581highest": 7646,
  "\u2581laglagipentayo": 7647,
  "\u2581reperensia": 7648,
  "\u2581singing": 7649,
  "\u2581willingly": 7650,
  "\u2581wrath": 7651,
  "UN": 7652,
  "his": 7653,
  "yanninaw": 7654,
  "\u2581difficulty": 7655,
  "\u2581fleshly": 7656,
  "\u2581leader": 7657,
  "\u2581pannakaibalud": 7658,
  "\u2581panunotem": 7659,
  "\u2581singgalut": 7660,
  "\u2581transport": 7661,
  "\u2581tumultulong": 7662,
  "enmi": 7663,
  "ranud": 7664,
  "tutuok": 7665,
  "\u00f1": 7666,
  "\u2581Jonathan": 7667,
  "\u2581Much": 7668,
  "\u2581Nagadu": 7669,
  "\u2581acknowledged": 7670,
  "\u2581agsigarilio": 7671,
  "\u2581capacity": 7672,
  "\u2581chemical": 7673,
  "\u2581magagaran": 7674,
  "\u2581makiasawa": 7675,
  "\u2581mapapatay": 7676,
  "\u2581natangsit": 7677,
  "\u2581pannakaipasngay": 7678,
  "\u2581pasahero": 7679,
  "\u2581rightly": 7680,
  "\u2581supplies": 7681,
  "\u2581texts": 7682,
  "kallaysa": 7683,
  "ngem": 7684,
  "uar": 7685,
  "\u2581Any": 7686,
  "\u2581Linaonna": 7687,
  "\u2581Part": 7688,
  "\u2581bones": 7689,
  "\u2581distinguish": 7690,
  "\u2581pannakabalinna": 7691,
  "\u2581port": 7692,
  "\u2581possessions": 7693,
  "\u2581sipapakumbaba": 7694,
  "\u2581teeth": 7695,
  "virtually": 7696,
  "\u2581Bru": 7697,
  "\u2581Cronicas": 7698,
  "\u2581Get": 7699,
  "\u2581Malagip": 7700,
  "\u2581Mom": 7701,
  "\u2581Sum": 7702,
  "\u2581bow": 7703,
  "\u2581colors": 7704,
  "\u2581existed": 7705,
  "\u2581imbaon": 7706,
  "\u2581mangidadaulo": 7707,
  "\u2581nagadal": 7708,
  "\u2581perfection": 7709,
  "\u2581preparing": 7710,
  "\u2581raemen": 7711,
  "\u2581riknana": 7712,
  "bag": 7713,
  "patanor": 7714,
  "sansan": 7715,
  "\u2581Try": 7716,
  "\u2581binaybay": 7717,
  "\u2581confirm": 7718,
  "\u2581deliverance": 7719,
  "\u2581guilty": 7720,
  "\u2581layus": 7721,
  "\u2581referring": 7722,
  "\u2581solve": 7723,
  "\u2581suplay": 7724,
  "\u2581turista": 7725,
  "MO": 7726,
  "jw": 7727,
  "nungpal": 7728,
  "sses": 7729,
  "\u2581Annak": 7730,
  "\u2581arigna": 7731,
  "\u2581assignments": 7732,
  "\u2581assures": 7733,
  "\u2581asuk": 7734,
  "\u2581balaymi": 7735,
  "\u2581ends": 7736,
  "\u2581gambling": 7737,
  "\u2581inclined": 7738,
  "\u2581isasarungkar": 7739,
  "\u2581kabal": 7740,
  "\u2581suporta": 7741,
  "16": 7742,
  "30": 7743,
  "ayan": 7744,
  "\u258154": 7745,
  "\u2581Interestingly": 7746,
  "\u2581Tito": 7747,
  "\u2581dakamaten": 7748,
  "\u2581eliminate": 7749,
  "\u2581giya": 7750,
  "\u2581ikutan": 7751,
  "\u2581income": 7752,
  "\u2581kabaian": 7753,
  "\u2581kabibiag": 7754,
  "\u2581mangaskasaba": 7755,
  "\u2581natawid": 7756,
  "\u2581soft": 7757,
  "sim": 7758,
  "\u25811939": 7759,
  "\u2581Natakuatan": 7760,
  "\u2581baet": 7761,
  "\u2581biagmo": 7762,
  "\u2581document": 7763,
  "\u2581panagsakit": 7764,
  "\u2581pot": 7765,
  "\u2581talks": 7766,
  "\u2581traits": 7767,
  "iling": 7768,
  "may": 7769,
  "tern": 7770,
  "ugot": 7771,
  "\u2581Umad": 7772,
  "\u2581aglikmut": 7773,
  "\u2581border": 7774,
  "\u2581mangy": 7775,
  "\u2581necessarily": 7776,
  "\u2581prutas": 7777,
  "\u2581target": 7778,
  "\u2581tawenko": 7779,
  "\u2581tuktukoyenna": 7780,
  "aldaw": 7781,
  "liday": 7782,
  "pri": 7783,
  "\u25810": 7784,
  "\u2581Empire": 7785,
  "\u2581holds": 7786,
  "\u2581inum": 7787,
  "\u2581kangato": 7788,
  "\u2581limm": 7789,
  "\u2581makapagtalek": 7790,
  "\u2581mangiladawan": 7791,
  "\u2581motivate": 7792,
  "\u2581naadaw": 7793,
  "\u2581returning": 7794,
  "\u2581ridaw": 7795,
  ",200": 7796,
  "UM": 7797,
  "turay": 7798,
  "\u2581Agpaay": 7799,
  "\u2581Soberano": 7800,
  "\u2581compassionate": 7801,
  "\u2581extend": 7802,
  "\u2581ikagumaantayo": 7803,
  "\u2581kaatiddog": 7804,
  "\u2581makaawat": 7805,
  "\u2581panageskuela": 7806,
  "\u2581pet": 7807,
  "\u2581ruling": 7808,
  "\u2581vary": 7809,
  "\u2581wisely": 7810,
  "love": 7811,
  "maymaysa": 7812,
  "padayag": 7813,
  "\u2581Caesar": 7814,
  "\u2581Makin": 7815,
  "\u2581intended": 7816,
  "\u2581interamente": 7817,
  "\u2581mapaneknekan": 7818,
  "isado": 7819,
  "pasayaat": 7820,
  "top": 7821,
  "\u2581Insuratna": 7822,
  "\u2581Nakaro": 7823,
  "\u2581Red": 7824,
  "\u2581accepting": 7825,
  "\u2581crisis": 7826,
  "\u2581daong": 7827,
  "\u2581initiative": 7828,
  "\u2581mabalintayo": 7829,
  "\u2581panagsasarita": 7830,
  "\u2581previously": 7831,
  "\u2581produces": 7832,
  "\u2581siaayat": 7833,
  "\u2581sinners": 7834,
  "\u2581tribe": 7835,
  "\u2581Ammona": 7836,
  "\u2581Makindaya": 7837,
  "\u2581Manila": 7838,
  "\u2581Scripture": 7839,
  "\u2581inanamaen": 7840,
  "\u2581kakatlo": 7841,
  "\u2581profit": 7842,
  "\u2581repeated": 7843,
  "\u2581repentance": 7844,
  "\u2581sorts": 7845,
  "\u2581uso": 7846,
  "\u2581welfare": 7847,
  "panang": 7848,
  "\u2581Rahab": 7849,
  "\u2581Tattao": 7850,
  "\u2581admit": 7851,
  "\u2581descendants": 7852,
  "\u2581mangidaulo": 7853,
  "\u2581pannakayanak": 7854,
  "\u2581rare": 7855,
  "\u2581seremonia": 7856,
  "are": 7857,
  "\u2581AS": 7858,
  "\u2581Contents": 7859,
  "\u2581Show": 7860,
  "\u2581Sud": 7861,
  "\u2581accompanied": 7862,
  "\u2581contributed": 7863,
  "\u2581nabaybay": 7864,
  "\u2581natantan": 7865,
  "\u2581pammakawan": 7866,
  "\u2581pope": 7867,
  "\u2581reduced": 7868,
  "\u2581shop": 7869,
  "\u2581sine": 7870,
  "\u2581topiko": 7871,
  "\u2581wings": 7872,
  "anto": 7873,
  "bus": 7874,
  "cia": 7875,
  "santipikar": 7876,
  "\u2581Doing": 7877,
  "\u2581Kenkuana": 7878,
  "\u2581Laeng": 7879,
  "\u2581Long": 7880,
  "\u2581Titus": 7881,
  "\u2581cared": 7882,
  "\u2581dasig": 7883,
  "\u2581diario": 7884,
  "\u2581fallen": 7885,
  "\u2581kompleto": 7886,
  "\u2581naikuna": 7887,
  "\u2581napnuan": 7888,
  "\u2581panagtakaw": 7889,
  "\u2581round": 7890,
  "\u2581timm": 7891,
  "tulag": 7892,
  "turturay": 7893,
  "\u2581$2": 7894,
  "\u2581Imperio": 7895,
  "\u2581arig": 7896,
  "\u2581assurance": 7897,
  "\u2581direktor": 7898,
  "\u2581educational": 7899,
  "\u2581faces": 7900,
  "\u2581mapagnaedan": 7901,
  "\u2581panangyalison": 7902,
  "\u2581pioneering": 7903,
  "\u2581rivers": 7904,
  "\u2581satisfied": 7905,
  "14": 7906,
  "kondenar": 7907,
  "ough": 7908,
  "papati": 7909,
  "papigsa": 7910,
  "para": 7911,
  "\u2581Child": 7912,
  "\u2581Siberia": 7913,
  "\u2581footnote": 7914,
  "\u2581injury": 7915,
  "\u2581makinruar": 7916,
  "\u2581officer": 7917,
  "\u2581peak": 7918,
  "\u2581pregnant": 7919,
  "\u2581truck": 7920,
  "\u2581udi": 7921,
  "\u2581universal": 7922,
  "\u2581urat": 7923,
  "ipaulog": 7924,
  "isagana": 7925,
  "lais": 7926,
  "lansa": 7927,
  "palawag": 7928,
  "surot": 7929,
  "tical": 7930,
  "utob": 7931,
  "\u2581Close": 7932,
  "\u2581Espania": 7933,
  "\u2581Republic": 7934,
  "\u2581Samaria": 7935,
  "\u2581babies": 7936,
  "\u2581gate": 7937,
  "\u2581kapamilia": 7938,
  "\u2581matulad": 7939,
  "\u2581patanoren": 7940,
  "\u2581saksakit": 7941,
  "\u2581slavery": 7942,
  "\u2581smile": 7943,
  "\u2581tanap": 7944,
  "\u2581unexpected": 7945,
  "\u2581uram": 7946,
  "asa": 7947,
  "laksid": 7948,
  "ranta": 7949,
  "\u2581Next": 7950,
  "\u2581agbuya": 7951,
  "\u2581ages": 7952,
  "\u2581dollars": 7953,
  "\u2581immune": 7954,
  "\u2581kalikagumanna": 7955,
  "\u2581panagsakripisio": 7956,
  "\u2581restore": 7957,
  "\u2581whereas": 7958,
  "\u2581IT": 7959,
  "\u2581awake": 7960,
  "\u2581ballasiw": 7961,
  "\u2581challenging": 7962,
  "\u2581doors": 7963,
  "\u2581exact": 7964,
  "\u2581kumbension": 7965,
  "\u2581mineral": 7966,
  "\u2581nangpataud": 7967,
  "\u2581nap": 7968,
  "\u2581panangpadakkel": 7969,
  "\u2581pinalubosan": 7970,
  "\u2581trak": 7971,
  "\u2581worker": 7972,
  "awang": 7973,
  "bado": 7974,
  "kuenta": 7975,
  "\u2581Rwanda": 7976,
  "\u2581Thomas": 7977,
  "\u2581agibtur": 7978,
  "\u2581domestic": 7979,
  "\u2581impalgak": 7980,
  "\u2581objects": 7981,
  "\u2581prize": 7982,
  "Young": 7983,
  "ania": 7984,
  "lub": 7985,
  "\u2581(3)": 7986,
  "\u258127:": 7987,
  "\u2581DNA": 7988,
  "\u2581Draw": 7989,
  "\u2581bacteria": 7990,
  "\u2581bagbagitayo": 7991,
  "\u2581dies": 7992,
  "\u2581kapammatian": 7993,
  "\u2581lansangan": 7994,
  "\u2581mangpabileg": 7995,
  "\u2581naimpadtuan": 7996,
  "\u2581nakas": 7997,
  "\u2581paulo": 7998,
  "\u2581pol": 7999,
  "\u2581rabbi": 8000,
  "suro": 8001,
  "\u258161": 8002,
  "\u2581Personal": 8003,
  "\u2581Welcome": 8004,
  "\u2581accord": 8005,
  "\u2581bath": 8006,
  "\u2581inherit": 8007,
  "\u2581kababalinna": 8008,
  "\u2581pannubok": 8009,
  "\u2581totally": 8010,
  "44,": 8011,
  "andak": 8012,
  "kabbalay": 8013,
  "pagteng": 8014,
  "\u2581Andrew": 8015,
  "\u2581Inkeddeng": 8016,
  "\u2581Josephus": 8017,
  "\u2581Worship": 8018,
  "\u2581adres": 8019,
  "\u2581genetic": 8020,
  "\u2581giant": 8021,
  "\u2581instructed": 8022,
  "\u2581librona": 8023,
  "\u2581micro": 8024,
  "\u2581nawayawayaan": 8025,
  "\u2581procedure": 8026,
  "\u2581propesional": 8027,
  "\u2581rid": 8028,
  "\u2581rumangrang": 8029,
  "\u2581saranay": 8030,
  "\u2581umayto": 8031,
  "\u2581valley": 8032,
  "\u2581\u201d\u201c": 8033,
  "17": 8034,
  "ipakita": 8035,
  "\u2581Corinth": 8036,
  "\u2581Laglagipem": 8037,
  "\u2581Lazaro": 8038,
  "\u2581Mesianiko": 8039,
  "\u2581Portugal": 8040,
  "\u2581discouraged": 8041,
  "\u2581faithfulness": 8042,
  "\u2581instruct": 8043,
  "\u2581kaba": 8044,
  "\u2581kaduak": 8045,
  "\u2581kontinente": 8046,
  "\u2581nabunga": 8047,
  "\u2581naidumduma": 8048,
  "\u2581nailubongan": 8049,
  "\u2581salmo": 8050,
  "\u2581sikog": 8051,
  "\u2581unget": 8052,
  "Agimtuod": 8053,
  "\u2581Age": 8054,
  "\u2581Last": 8055,
  "\u2581dineskribir": 8056,
  "\u2581lapped": 8057,
  "\u2581pannakatungpal": 8058,
  "\u2581pornography": 8059,
  "\u2581sets": 8060,
  "\u2581stands": 8061,
  "\u2581yelo": 8062,
  "BA": 8063,
  "keep": 8064,
  "panuynoy": 8065,
  "pping": 8066,
  "ye": 8067,
  "\u2581Wall": 8068,
  "\u2581binigbig": 8069,
  "\u2581broad": 8070,
  "\u2581expensive": 8071,
  "\u2581ikabil": 8072,
  "\u2581inrugi": 8073,
  "\u2581kaay": 8074,
  "\u2581mangtaginayon": 8075,
  "\u2581naangay": 8076,
  "\u2581thick": 8077,
  "IS": 8078,
  "mangan": 8079,
  "\u2581TB": 8080,
  "\u2581apostata": 8081,
  "\u2581mangiwanwan": 8082,
  "\u2581nakiraman": 8083,
  "\u2581panangtulad": 8084,
  "\u2581papanan": 8085,
  "iliw": 8086,
  "sam": 8087,
  "tib": 8088,
  "\u2581Amazon": 8089,
  "\u2581aglablabes": 8090,
  "\u2581foods": 8091,
  "\u2581loose": 8092,
  "\u2581mabalinyo": 8093,
  "\u2581makapagtalinaed": 8094,
  "\u2581manangi": 8095,
  "\u2581rugian": 8096,
  "\u2581sounds": 8097,
  "\u2581survival": 8098,
  "\u2581virgin": 8099,
  "its": 8100,
  "\u2581Egipcio": 8101,
  "\u2581Jean": 8102,
  "\u2581Zechariah": 8103,
  "\u2581earn": 8104,
  "\u2581equipped": 8105,
  "\u2581evangelizer": 8106,
  "\u2581fitting": 8107,
  "\u2581friendly": 8108,
  "\u2581kabayag": 8109,
  "\u2581maaddaantayo": 8110,
  "\u2581nakagteng": 8111,
  "\u2581ring": 8112,
  "\u2581Saulo": 8113,
  "\u2581adjust": 8114,
  "\u2581approved": 8115,
  "\u2581layer": 8116,
  "\u2581network": 8117,
  "\u2581oy": 8118,
  "\u2581pannakikamalala": 8119,
  "\u2581roll": 8120,
  "\u2581sharp": 8121,
  "palabas": 8122,
  "sukog": 8123,
  "\u00f6": 8124,
  "\u25811987": 8125,
  "\u2581Eskuelaan": 8126,
  "\u2581caution": 8127,
  "\u2581fascinating": 8128,
  "\u2581gayyemna": 8129,
  "\u2581hidden": 8130,
  "\u2581illustrations": 8131,
  "\u2581impasdek": 8132,
  "\u2581pannakipagrikna": 8133,
  "\u2581utoben": 8134,
  "ballaag": 8135,
  "banag": 8136,
  "itugot": 8137,
  "taraon": 8138,
  "\u25811986": 8139,
  "\u2581Near": 8140,
  "\u2581Truly": 8141,
  "\u2581Zacarias": 8142,
  "\u2581alkohol": 8143,
  "\u2581bio": 8144,
  "\u2581context": 8145,
  "\u2581game": 8146,
  "\u2581humbly": 8147,
  "\u2581miraculous": 8148,
  "\u2581nagkaykaysa": 8149,
  "\u2581obligasion": 8150,
  "\u2581periods": 8151,
  "\u2581proverbio": 8152,
  "aging": 8153,
  "bagay": 8154,
  "pasardeng": 8155,
  "rabaw": 8156,
  "tulnog": 8157,
  "\u2581Daily": 8158,
  "\u2581Dakes": 8159,
  "\u2581Malachi": 8160,
  "\u2581Nagan": 8161,
  "\u2581anianto": 8162,
  "\u2581conflicts": 8163,
  "\u2581inusarna": 8164,
  "\u2581link": 8165,
  "\u2581pannao": 8166,
  "\u2581pimmusay": 8167,
  "\u2581silo": 8168,
  "MA": 8169,
  "\u2581Millions": 8170,
  "\u2581Paset": 8171,
  "\u2581Passover": 8172,
  "\u2581Ukraine": 8173,
  "\u2581ayatenda": 8174,
  "\u2581covering": 8175,
  "\u2581encounter": 8176,
  "\u2581leg": 8177,
  "\u2581mama": 8178,
  "\u2581mangpasayaat": 8179,
  "\u2581mourning": 8180,
  "\u2581nakaigapuan": 8181,
  "\u2581pakakitaan": 8182,
  "\u2581panagsubli": 8183,
  "\u2581pinapatay": 8184,
  "\u2581sang": 8185,
  "\u2581traditions": 8186,
  "illa": 8187,
  "lf": 8188,
  "proving": 8189,
  "\u2581Mabalinmo": 8190,
  "\u2581Page": 8191,
  "\u2581Tom": 8192,
  "\u2581hole": 8193,
  "\u2581inherited": 8194,
  "\u2581masel": 8195,
  "\u2581pagwadan": 8196,
  "\u2581panagsikog": 8197,
  "\u2581searching": 8198,
  "\u2581shortly": 8199,
  "gos": 8200,
  "karo": 8201,
  "mber": 8202,
  "\u2581Little": 8203,
  "\u2581idolatry": 8204,
  "\u2581intelligent": 8205,
  "\u2581machine": 8206,
  "\u2581maibagay": 8207,
  "\u2581mariknam": 8208,
  "\u2581nagawid": 8209,
  "\u2581nut": 8210,
  "\u2581operate": 8211,
  "\u2581slowly": 8212,
  "\u2581unclean": 8213,
  "10": 8214,
  "langoy": 8215,
  "oy": 8216,
  "palawa": 8217,
  "\u2581Gra": 8218,
  "\u2581Malakias": 8219,
  "\u2581Mis": 8220,
  "\u2581Moab": 8221,
  "\u2581Nor": 8222,
  "\u2581Ten": 8223,
  "\u2581Three": 8224,
  "\u2581apostate": 8225,
  "\u2581bambantay": 8226,
  "\u2581ipasimudaagna": 8227,
  "\u2581limitations": 8228,
  "\u2581materials": 8229,
  "\u2581partikular": 8230,
  "\u2581reply": 8231,
  "\u2581thrown": 8232,
  "\u2581yan": 8233,
  "gh": 8234,
  "hearted": 8235,
  "sukisok": 8236,
  "\u2581Panangi": 8237,
  "\u2581Saanen": 8238,
  "\u2581agbasol": 8239,
  "\u2581alaen": 8240,
  "\u2581commands": 8241,
  "\u2581katan": 8242,
  "\u2581linked": 8243,
  "\u2581nangibaon": 8244,
  "\u2581napanunot": 8245,
  "\u2581pangen": 8246,
  "\u2581persecuted": 8247,
  "\u2581surrounding": 8248,
  "bia": 8249,
  "ches": 8250,
  "dir": 8251,
  "\u2581Avoid": 8252,
  "\u2581Far": 8253,
  "\u2581agad": 8254,
  "\u2581associates": 8255,
  "\u2581esteem": 8256,
  "\u2581ginggined": 8257,
  "\u2581matnag": 8258,
  "\u2581mistake": 8259,
  "\u2581naitulong": 8260,
  "\u2581napaypayso": 8261,
  "\u2581quarter": 8262,
  "\u2581roads": 8263,
  "laba": 8264,
  "\u25815;": 8265,
  "\u2581607": 8266,
  "\u2581DO": 8267,
  "\u2581Espa\u00f1ol": 8268,
  "\u2581Kom": 8269,
  "\u2581Posible": 8270,
  "\u2581application": 8271,
  "\u2581drew": 8272,
  "\u2581fly": 8273,
  "\u2581foolish": 8274,
  "\u2581opposed": 8275,
  "\u2581pagragsakan": 8276,
  "\u2581pasilidad": 8277,
  "\u2581suportaran": 8278,
  "\u2581wave": 8279,
  "\u2581wheel": 8280,
  "Adtoy": 8281,
  "inayon": 8282,
  "\u2581Barr": 8283,
  "\u2581Egyptian": 8284,
  "\u2581bore": 8285,
  "\u2581empire": 8286,
  "\u2581irepresentar": 8287,
  "\u2581iyaalsa": 8288,
  "\u2581makitak": 8289,
  "\u2581paglakuan": 8290,
  "\u2581rage": 8291,
  "\u2581sexually": 8292,
  "\u2581sim": 8293,
  "\u2581smaller": 8294,
  "\u2581unibersidad": 8295,
  "babawi": 8296,
  "bog": 8297,
  "idonar": 8298,
  "lima": 8299,
  "pagna": 8300,
  "\u2581Park": 8301,
  "\u2581admonition": 8302,
  "\u2581artikuloyo": 8303,
  "\u2581bautisado": 8304,
  "\u2581endless": 8305,
  "\u2581maipakitatayo": 8306,
  "\u2581mangawat": 8307,
  "\u2581mariribukan": 8308,
  "\u2581miss": 8309,
  "\u2581president": 8310,
  "\u2581serserbi": 8311,
  "\u2581strengthening": 8312,
  "bantay": 8313,
  "batay": 8314,
  "iggem": 8315,
  "langalang": 8316,
  "\u2581Gar": 8317,
  "\u2581Maisupadi": 8318,
  "\u2581anyos": 8319,
  "\u2581barito": 8320,
  "\u2581ikankano": 8321,
  "\u2581kimm": 8322,
  "\u2581maawatantayo": 8323,
  "\u2581naipablaak": 8324,
  "\u2581panagi": 8325,
  "\u2581reads": 8326,
  "\u2581transfusions": 8327,
  "\u2581y": 8328,
  "\u2581yoke": 8329,
  "Gapu": 8330,
  "q": 8331,
  "ski": 8332,
  "wak": 8333,
  "\u2581Dida": 8334,
  "\u2581Women": 8335,
  "\u2581darat": 8336,
  "\u2581defi": 8337,
  "\u2581flat": 8338,
  "\u2581pamuspusan": 8339,
  "\u2581poured": 8340,
  "\u2581presidente": 8341,
  "\u2581rebel": 8342,
  "eksion": 8343,
  "tuloy": 8344,
  "\u2581145": 8345,
  "\u2581Human": 8346,
  "\u2581alcoholic": 8347,
  "\u2581consist": 8348,
  "\u2581dadaelenna": 8349,
  "\u2581favorite": 8350,
  "\u2581mais": 8351,
  "\u2581pagtungpalan": 8352,
  "\u2581pattapatta": 8353,
  "\u2581preparation": 8354,
  "\u2581records": 8355,
  "\u2581recreation": 8356,
  "\u2581regardless": 8357,
  "\u2581strange": 8358,
  "\u2581tigtignay": 8359,
  "\u2581trusted": 8360,
  "LY": 8361,
  "\u2581Anianto": 8362,
  "\u2581Britannica": 8363,
  "\u2581JEHOVAH": 8364,
  "\u2581Joy": 8365,
  "\u2581Siudad": 8366,
  "\u2581approaching": 8367,
  "\u2581conquer": 8368,
  "\u2581identity": 8369,
  "\u2581imperfection": 8370,
  "\u2581komplikado": 8371,
  "\u2581lowly": 8372,
  "\u2581nakababain": 8373,
  "\u2581symbolic": 8374,
  "\u2581tendency": 8375,
  "ibabain": 8376,
  "iyebkas": 8377,
  "wayawaya": 8378,
  "\u2581attractive": 8379,
  "\u2581believing": 8380,
  "\u2581discover": 8381,
  "\u2581increasingly": 8382,
  "\u2581narelihiusuan": 8383,
  "\u2581polusion": 8384,
  "\u2581possession": 8385,
  "\u2581rewarding": 8386,
  "\u2581rumsua": 8387,
  "\u2581talked": 8388,
  "\u2581trabahok": 8389,
  "ammu": 8390,
  "rikut": 8391,
  "\u258158": 8392,
  "\u2581Congregation": 8393,
  "\u2581Eliseo": 8394,
  "\u2581MANNURAT": 8395,
  "\u2581Mangipaay": 8396,
  "\u2581View": 8397,
  "\u2581alternative": 8398,
  "\u2581ayatentayo": 8399,
  "\u2581execution": 8400,
  "\u2581ge": 8401,
  "\u2581legs": 8402,
  "\u2581mailawlawag": 8403,
  "\u2581maragpat": 8404,
  "\u2581nangyeg": 8405,
  "\u2581pagkamangan": 8406,
  "aught": 8407,
  "ctive": 8408,
  "kayon": 8409,
  "pakaammo": 8410,
  "sab": 8411,
  "\u2581Home": 8412,
  "\u2581Kasanoyo": 8413,
  "\u2581Laud": 8414,
  "\u2581binalaybalay": 8415,
  "\u2581bottom": 8416,
  "\u2581equipment": 8417,
  "\u2581farmers": 8418,
  "\u2581flying": 8419,
  "\u2581maintaining": 8420,
  "\u2581maisuro": 8421,
  "\u2581nabiag": 8422,
  "\u2581panangmatmatna": 8423,
  "\u2581philosophy": 8424,
  "\u2581plane": 8425,
  "\u2581tulbek": 8426,
  "\u2581ubbog": 8427,
  "ibukbok": 8428,
  "\u2581Eastern": 8429,
  "\u2581expert": 8430,
  "\u2581kalkalainganna": 8431,
  "\u2581pannakipag": 8432,
  "\u2581pursuing": 8433,
  "\u2581relate": 8434,
  "\u2581tested": 8435,
  "Go": 8436,
  "daliasat": 8437,
  "isurat": 8438,
  "lua": 8439,
  "\u2581Elisha": 8440,
  "\u2581Lazarus": 8441,
  "\u2581Unlike": 8442,
  "\u2581alagaden": 8443,
  "\u2581chronic": 8444,
  "\u2581disasters": 8445,
  "\u2581forgiving": 8446,
  "\u2581hell": 8447,
  "\u2581kakabagian": 8448,
  "\u2581kinasiasino": 8449,
  "\u2581kunaenna": 8450,
  "\u2581peers": 8451,
  "\u2581sikigan": 8452,
  "\u2581silalawag": 8453,
  "saksaknap": 8454,
  "\u2581Dakayo": 8455,
  "\u2581Marriage": 8456,
  "\u2581Organization": 8457,
  "\u2581Tokyo": 8458,
  "\u2581arrival": 8459,
  "\u2581band": 8460,
  "\u2581coffee": 8461,
  "\u2581demands": 8462,
  "\u2581elemento": 8463,
  "\u2581famine": 8464,
  "\u2581informed": 8465,
  "\u2581kagura": 8466,
  "\u2581messages": 8467,
  "\u2581nasanay": 8468,
  "\u2581panangbigbig": 8469,
  "\u2581puntiria": 8470,
  "gunggona": 8471,
  "ibilin": 8472,
  "parsua": 8473,
  "stra": 8474,
  "\u2581Galilea": 8475,
  "\u2581corner": 8476,
  "\u2581dance": 8477,
  "\u2581kinalaing": 8478,
  "\u2581maestra": 8479,
  "\u2581nariknak": 8480,
  "\u2581pleasing": 8481,
  "\u2581possibility": 8482,
  "\u2581sapasap": 8483,
  "YO": 8484,
  "ador": 8485,
  "\u2581Apotayo": 8486,
  "\u2581Bay": 8487,
  "\u2581adapt": 8488,
  "\u2581engaged": 8489,
  "\u2581magustuan": 8490,
  "\u2581panagandar": 8491,
  "\u2581respected": 8492,
  "\u2581sasaona": 8493,
  "\u2581simboliko": 8494,
  "ibilang": 8495,
  "lug": 8496,
  "uten": 8497,
  "water": 8498,
  "\u25812008": 8499,
  "\u2581Committee": 8500,
  "\u2581Karen": 8501,
  "\u2581Malagipyo": 8502,
  "\u2581Manmano": 8503,
  "\u2581Namin": 8504,
  "\u2581Panid": 8505,
  "\u2581William": 8506,
  "\u2581achieve": 8507,
  "\u2581agsuratkayo": 8508,
  "\u2581inches": 8509,
  "\u2581lovingly": 8510,
  "\u2581makai": 8511,
  "\u2581nagbabaetan": 8512,
  "\u2581panagamak": 8513,
  "\u2581tire": 8514,
  "bendision": 8515,
  "ibati": 8516,
  "val": 8517,
  "\u25812005": 8518,
  "\u2581Making": 8519,
  "\u2581calamity": 8520,
  "\u2581collect": 8521,
  "\u2581estasion": 8522,
  "\u2581generous": 8523,
  "\u2581humankind": 8524,
  "\u2581il": 8525,
  "\u2581marisut": 8526,
  "\u2581nasged": 8527,
  "40": 8528,
  "Amin": 8529,
  "abrasa": 8530,
  "balud": 8531,
  "kula": 8532,
  "that": 8533,
  "\u2581Abram": 8534,
  "\u2581Sanhedrin": 8535,
  "\u2581choices": 8536,
  "\u2581elsewhere": 8537,
  "\u2581impan": 8538,
  "\u2581madanon": 8539,
  "\u2581mapanunot": 8540,
  "\u2581nakaawat": 8541,
  "\u2581namati": 8542,
  "\u2581organisasionna": 8543,
  "\u2581panagitured": 8544,
  "\u2581rugit": 8545,
  "\u2581weaknesses": 8546,
  "\u2581worst": 8547,
  "cie": 8548,
  "duan": 8549,
  "sagaba": 8550,
  "\u2581Answers": 8551,
  "\u2581Heights": 8552,
  "\u2581Which": 8553,
  "\u2581bridge": 8554,
  "\u2581hide": 8555,
  "\u2581mangidumduma": 8556,
  "\u2581minor": 8557,
  "\u2581nars": 8558,
  "\u2581panagay": 8559,
  "\u2581panagbiagko": 8560,
  "\u2581panagtarigagay": 8561,
  "\u2581rukod": 8562,
  "\u2581sumang": 8563,
  "\u2581upset": 8564,
  "bek": 8565,
  "sennaay": 8566,
  "\u2581IS": 8567,
  "\u2581Journal": 8568,
  "\u2581Sosiedad": 8569,
  "\u2581agkabannuag": 8570,
  "\u2581begun": 8571,
  "\u2581dandanum": 8572,
  "\u2581didanto": 8573,
  "\u2581immediate": 8574,
  "\u2581inggat": 8575,
  "\u2581maiparangarang": 8576,
  "\u2581makalawas": 8577,
  "\u2581mariknada": 8578,
  "\u2581owner": 8579,
  "\u2581rapidly": 8580,
  "\u2581tall": 8581,
  "\u2581urges": 8582,
  "arch": 8583,
  "garaw": 8584,
  "ukom": 8585,
  "\u25811985": 8586,
  "\u2581AND": 8587,
  "\u2581Aramiden": 8588,
  "\u2581Macedonia": 8589,
  "\u2581Nu": 8590,
  "\u2581[3": 8591,
  "\u2581atep": 8592,
  "\u2581fled": 8593,
  "\u2581iraman": 8594,
  "\u2581kalalainganna": 8595,
  "\u2581mapataud": 8596,
  "\u2581measures": 8597,
  "\u2581natulongan": 8598,
  "\u2581neck": 8599,
  "\u2581pannakapapatay": 8600,
  "\u2581plenty": 8601,
  "\u2581sagpaminsan": 8602,
  "\u2581satisfy": 8603,
  "\u2581sides": 8604,
  "\u2581tamingen": 8605,
  "\u2581tinukoy": 8606,
  "konsulta": 8607,
  "lessness": 8608,
  "tengngel": 8609,
  "\u2581Abagatan": 8610,
  "\u2581Louis": 8611,
  "\u2581Notice": 8612,
  "\u2581bilinna": 8613,
  "\u2581bugbugtong": 8614,
  "\u2581oxygen": 8615,
  "\u2581scripture": 8616,
  "\u2581sosial": 8617,
  "\u2581tukad": 8618,
  "\u2581west": 8619,
  "istiko": 8620,
  "ock": 8621,
  "sol": 8622,
  "\u2581Elizabeth": 8623,
  "\u2581Inaldaw": 8624,
  "\u2581KO": 8625,
  "\u2581Kayatyo": 8626,
  "\u2581Source": 8627,
  "\u2581comparison": 8628,
  "\u2581emperador": 8629,
  "\u2581expand": 8630,
  "\u2581fed": 8631,
  "\u2581gentle": 8632,
  "\u2581ipamatmat": 8633,
  "\u2581lips": 8634,
  "\u2581serpent": 8635,
  "\u2581suit": 8636,
  "Look": 8637,
  "iwaksi": 8638,
  "pakawan": 8639,
  "\u2581Inusar": 8640,
  "\u2581Scientists": 8641,
  "\u2581benefited": 8642,
  "\u2581instrument": 8643,
  "\u2581kaadayona": 8644,
  "\u2581kalam": 8645,
  "\u2581outlook": 8646,
  "ense": 8647,
  "\u258111201": 8648,
  "\u258117;": 8649,
  "\u2581Encyclop\u00e6dia": 8650,
  "\u2581Years": 8651,
  "\u2581aglabas": 8652,
  "\u2581binilin": 8653,
  "\u2581dioxide": 8654,
  "\u2581linaonna": 8655,
  "\u2581mapabileg": 8656,
  "\u2581nadisenio": 8657,
  "\u2581namagbalin": 8658,
  "\u2581pakausaran": 8659,
  "\u2581photo": 8660,
  "\u2581pimm": 8661,
  "\u2581refreshing": 8662,
  "ANNA": 8663,
  "Masapul": 8664,
  "ella": 8665,
  "\u2581Australian": 8666,
  "\u2581Master": 8667,
  "\u2581Sydney": 8668,
  "\u2581Tum": 8669,
  "\u2581abusive": 8670,
  "\u2581bay": 8671,
  "\u2581cent": 8672,
  "\u2581enables": 8673,
  "\u2581entirely": 8674,
  "\u2581figurative": 8675,
  "\u2581handed": 8676,
  "\u2581lupot": 8677,
  "\u2581matarigagayan": 8678,
  "\u2581nagturong": 8679,
  "\u2581panagayatna": 8680,
  "\u2581panagsurat": 8681,
  "\u2581volunteer": 8682,
  "agminar": 8683,
  "liway": 8684,
  "taraken": 8685,
  "\u2581Institute": 8686,
  "\u2581Itultuloyyo": 8687,
  "\u2581Levita": 8688,
  "\u2581Were": 8689,
  "\u2581alter": 8690,
  "\u2581assert": 8691,
  "\u2581bilog": 8692,
  "\u2581delighted": 8693,
  "\u2581frustration": 8694,
  "\u2581kinatan": 8695,
  "\u2581maadal": 8696,
  "\u2581makan": 8697,
  "\u2581rejoicing": 8698,
  "\u2581translations": 8699,
  "\u2581tultulongan": 8700,
  "\u2581upbuilding": 8701,
  "back": 8702,
  "tam": 8703,
  "uya": 8704,
  "\u2581Atenas": 8705,
  "\u2581Inglatera": 8706,
  "\u2581acquire": 8707,
  "\u2581cloud": 8708,
  "\u2581naga": 8709,
  "\u2581nagannakko": 8710,
  "\u2581occurs": 8711,
  "\u2581pamiliayo": 8712,
  "\u2581pategna": 8713,
  "\u2581temper": 8714,
  "Im": 8715,
  "\u25811947": 8716,
  "\u2581Makinlaud": 8717,
  "\u2581Mangted": 8718,
  "\u2581Martin": 8719,
  "\u2581PANAG": 8720,
  "\u2581Persian": 8721,
  "\u2581Pinag": 8722,
  "\u2581Propesor": 8723,
  "\u2581driver": 8724,
  "\u2581heal": 8725,
  "\u2581maibanag": 8726,
  "\u2581mangpapatay": 8727,
  "\u2581mill": 8728,
  "\u2581shaped": 8729,
  "\u2581significance": 8730,
  "\u2581tragedy": 8731,
  "\u2581tragic": 8732,
  "\u2581ver": 8733,
  "\u2581volunteers": 8734,
  "\u2581weigh": 8735,
  "\u2581winds": 8736,
  "kusit": 8737,
  "ulog": 8738,
  "yard": 8739,
  "\u258164": 8740,
  "\u2581Pilato": 8741,
  "\u2581Stephen": 8742,
  "\u2581Toronto": 8743,
  "\u2581idolo": 8744,
  "\u2581immortal": 8745,
  "\u2581marikrikna": 8746,
  "\u2581natangken": 8747,
  "\u2581pair": 8748,
  "\u2581planning": 8749,
  "\u2581poison": 8750,
  "\u2581sect": 8751,
  "\u2581sensitive": 8752,
  "\u2581trahedia": 8753,
  "kugit": 8754,
  "paidam": 8755,
  "roll": 8756,
  "tanda": 8757,
  "\u2581Susan": 8758,
  "\u2581babbalasang": 8759,
  "\u2581boast": 8760,
  "\u2581criminal": 8761,
  "\u2581discussions": 8762,
  "\u2581ibturan": 8763,
  "\u2581liplipatan": 8764,
  "\u2581miracle": 8765,
  "\u2581rewarded": 8766,
  "\u2581trend": 8767,
  "ggi": 8768,
  "gubat": 8769,
  "langlang": 8770,
  "\u258125,": 8771,
  "\u2581Evidently": 8772,
  "\u2581Things": 8773,
  "\u2581abogado": 8774,
  "\u2581annuroten": 8775,
  "\u2581hunger": 8776,
  "\u2581isubli": 8777,
  "\u2581mainly": 8778,
  "\u2581naurnong": 8779,
  "\u2581pakadanagan": 8780,
  "\u2581pinagbalin": 8781,
  "\u2581posision": 8782,
  "\u2581salakniban": 8783,
  "\u2581trap": 8784,
  "\u2581warfare": 8785,
  "90": 8786,
  "ju": 8787,
  "scribe": 8788,
  "\u2581apong": 8789,
  "\u2581dinakamatna": 8790,
  "\u2581kakabsatda": 8791,
  "\u2581matana": 8792,
  "\u2581nakadanon": 8793,
[...]
